<unk>	0
<s>	0
</s>	0
ས་	-0
ང་	-1
ི་	-2
▁བ	-3
▁ག	-4
ན་	-5
▁ད	-6
▁ས	-7
▁ར	-8
ད་	-9
▁པ	-10
▁མ	-11
▁ལ	-12
ག་	-13
▁འ	-14
ར་	-15
འི་	-16
ོ་	-17
ལ་	-18
ུ་	-19
གས་	-20
▁ཡ	-21
ེ་	-22
ྱི་	-23
▁ན	-24
ོད་	-25
▁ཁ	-26
▁ཀ	-27
▁ཆ	-28
མ་	-29
ྒྱ	-30
▁ཚ	-31
▁པ་	-32
བ་	-33
▁དང་	-34
ིན་	-35
ིག་	-36
ོན་	-37
▁བྱ	-38
ུང་	-39
▁ཞ	-40
ོང་	-41
▁རྒྱ	-42
▁སྐ	-43
ིས་	-44
▁པའི་	-45
▁ཐ	-46
ངས་	-47
▁ཀྱི་	-48
ོས་	-49
ེད་	-50
▁ལ་	-51
ོགས་	-52
▁འད	-53
ེས་	-54
▁ཕ	-55
ེན་	-56
ོག་	-57
ིང་	-58
▁བས	-59
ོར་	-60
▁གས	-61
▁འག	-62
ུལ་	-63
▁གི་	-64
▁བ་	-65
ུས་	-66
བས་	-67
▁གན	-68
▁ཤ	-69
▁སྤ	-70
▁གྱི་	-71
མས་	-72
▁ནས་	-73
▁།	-74
ད།	-75
ས།	-76
▁འབ	-77
▁བར	-78
▁དུ་	-79
ུན་	-80
ུགས་	-81
▁དག	-82
ྲི	-83
▁ཅ	-84
▁མ་	-85
ེར་	-86
▁གྲ	-87
▁གཞ	-88
▁ཏ	-89
▁མི་	-90
▁སྒ	-91
▁དེ་	-92
འ་	-93
ུར་	-94
▁ཡོད་	-95
▁ལས་	-96
▁ཉ	-97
▁པོ་	-98
▁བའི་	-99
▁བཞ	-100
▁ཞིག་	-101
▁ཟ	-102
ེལ་	-103
ུག་	-104
▁དབ	-105
▁སྟ	-106
▁བྱེད་	-107
ོའི་	-108
▁སྐྱ	-109
▁ཀྱ	-110
▁ང	-111
▁ཆེན་	-112
ན།	-113
▁བོད་	-114
▁པར་	-115
▁བཅ	-116
▁རྩ	-117
ོངས་	-118
ོབ་	-119
▁ཚོགས་	-120
▁རི	-121
▁ནི་	-122
▁འཛ	-123
▁ནང་	-124
▁གནས་	-125
▁ལྟ	-126
▁དྲ	-127
▁ས་	-128
▁སླ	-129
▁མཐ	-130
ུབ་	-131
▁གཏ	-132
▁ཡིན་	-133
ོལ་	-134
▁རྒྱལ་	-135
ེད།	-136
▁ཕྱ	-137
▁རང་	-138
▁སྒྲ	-139
▁བྱས་	-140
▁དོན་	-141
▁མཚ	-142
ུད་	-143
▁འབྲ	-144
▁གིས་	-145
▁དཔ	-146
▁ཨ	-147
▁ལྷ	-148
▁གཉ	-149
▁སུ་	-150
▁ཁྱ	-151
▁འགྲ	-152
▁འཁ	-153
▁མཁ	-154
▁འཕ	-155
དེ་	-156
ྲིད་	-157
▁གཅ	-158
▁གྱ	-159
ིའི་	-160
▁སློབ་	-161
▁ན་	-162
▁དམ	-163
ོད།	-164
▁མེད་	-165
▁རྣ	-166
▁རྒྱ་	-167
▁ཁང་	-168
▁བཀ	-169
▁ལོ་	-170
▁ཡང་	-171
▁བར་	-172
▁རེད།	-173
▁མཆ	-174
▁ཀྱིས་	-175
ུམ་	-176
▁གླ	-177
▁བཞིན་	-178
▁རྗ	-179
ེང་	-180
▁བཟ	-181
▁བླ	-182
▁སྤྱ	-183
ིན།	-184
▁རིག་	-185
▁སྤྱི་	-186
ྐྱ	-187
ོམ་	-188
▁གནང་	-189
▁སྡ	-190
▁དུས་	-191
▁ཆོས་	-192
▁གཉིས་	-193
▁ཧ	-194
▁སྔ	-195
ེའི་	-196
▁བྱུང་	-197
▁ཁྲ	-198
▁སྲ	-199
▁སྦ	-200
▁པ།	-201
▁འཛིན་	-202
▁བཤ	-203
ར།	-204
▁བསྟ	-205
▁ལྡ	-206
▁མང་	-207
▁འཇ	-208
▁ལམ་	-209
▁ཐོག་	-210
▁ཆེ་	-211
▁རིགས་	-212
▁ཁ་	-213
▁འདི་	-214
ེ།	-215
▁གསར་	-216
▁ཡོད།	-217
ིད་	-218
▁རྟ	-219
▁བྱ་	-220
▁ཡིག་	-221
▁སྐབས་	-222
▁སྣ	-223
ྲ་	-224
▁གཅིག་	-225
▁གཞུང་	-226
ུའི་	-227
▁སོགས་	-228
ིགས་	-229
▁དབང་	-230
▁དག་	-231
▁ཏུ་	-232
▁བརྒྱ	-233
ུག	-234
▁ཆ་	-235
▁སྨ	-236
▁འབྲེལ་	-237
▁གཙ	-238
▁སྲིད་	-239
▁མཛ	-240
▁སྐོར་	-241
▁རིང་	-242
▁ཀྱང་	-243
འུ་	-244
▁སྙ	-245
▁ཡིན།	-246
▁ཁག་	-247
▁སྐད་	-248
▁ཚུལ་	-249
▁དགོས་	-250
▁གཟ	-251
▁བཙ	-252
▁འཐ	-253
▁ཙ	-254
▁བད	-255
ུངས་	-256
▁རྣམས་	-257
▁འགྱ	-258
ེགས་	-259
▁ལུགས་	-260
རྒྱ	-261
ླ་	-262
▁མད	-263
▁རྒྱུ་	-264
▁དཀ	-265
▁འཕྲ	-266
▁ལག་	-267
▁དང	-268
▁ལྟ་	-269
ོ།	-270
ེབས་	-271
▁ཏེ་	-272
▁མོ་	-273
▁ལྡན་	-274
▁ཀྲ	-275
▁པས་	-276
▁མཆོག་	-277
ིར་	-278
▁བཏ	-279
▁འབྱ	-280
▁ཇ	-281
▁གྱིས་	-282
▁བྲ	-283
▁དབྱ	-284
▁གང་	-285
▁ཡོངས་	-286
▁སྐྱོང་	-287
▁ཞེས་	-288
▁བཅས་	-289
▁འཚ	-290
▁བཤད་	-291
▁སྦྱ	-292
▁གཏོང་	-293
▁ཕྱོགས་	-294
▁ཞིང་	-295
▁ལྟར་	-296
▁གསུམ་	-297
▁གསལ་	-298
▁འགྱུར་	-299
▁མག	-300
▁ཞི	-301
▁མཁན་	-302
▁ཁྲི	-303
▁འདུག	-304
▁ཤེས་	-305
▁ལྗ	-306
▁ཅན་	-307
▁ཆུ་	-308
▁ནག་	-309
▁སྤྱོད་	-310
▁རྡ	-311
ུའུ་	-312
▁རིམ་	-313
▁བསྟན་	-314
▁འགྲོ་	-315
▁རྫ	-316
▁བསྡ	-317
ེངས་	-318
བོད་	-319
▁སྔོན་	-320
▁ལ།	-321
▁བརྟ	-322
▁ཡུལ་	-323
ྭ་	-324
▁གཞི་	-325
▁གོ་	-326
▁སྤྲ	-327
ེམས་	-328
▁བརྗ	-329
▁ཚང་	-330
▁བོ་	-331
▁རི་	-332
ོག	-333
▁ཐུབ་	-334
▁ཞིབ་	-335
▁ཚད་	-336
▁གྲོང་	-337
▁བུ་	-338
▁ཞུ་	-339
▁ལེན་	-340
ེབ་	-341
▁སྐུ་	-342
▁གཡ	-343
▁སྒྲིག་	-344
▁པོའི་	-345
▁བ།	-346
▁རྒྱུན་	-347
▁༡	-348
ཉམ་	-349
▁རྗེ་	-350
▁རྒྱས་	-351
▁ཡོང་	-352
▁ལྗོངས་	-353
▁ད་	-354
▁ཕྲ	-355
▁ཁབ་	-356
▁ངོ་	-357
▁ཁྲིམས་	-358
▁རྐྱ	-359
▁ཆུང་	-360
▁ཕྱི་	-361
▁མིན་	-362
▁གླིང་	-363
▁མཐུན་	-364
▁ཉིད་	-365
▁ཙམ་	-366
▁ཁུལ་	-367
▁རྣམ་	-368
▁བསམ་	-369
▁རྗེས་	-370
ོས།	-371
▁ལྷ་	-372
▁མཉམ་	-373
▁ཨ་	-374
▁ཟླ་	-375
▁ཉིན་	-376
▁རིན་	-377
▁སྤེལ་	-378
▁ཚན་	-379
ལ།	-380
▁རུ་	-381
▁མཚན་	-382
▁རབས་	-383
▁དངོས་	-384
▁རྒ	-385
▁བརྩ	-386
▁གར་	-387
▁རེ་	-388
▁དམངས་	-389
ི།	-390
▁རྩོམ་	-391
▁འཛུགས་	-392
▁ན།	-393
▁ཚེ་	-394
▁དགེ་	-395
▁བདེ་	-396
▁མའི་	-397
▁འདྲ་	-398
▁ལེགས་	-399
▁༢	-400
▁བཅུ་	-401
གྲ	-402
▁ང་	-403
▁ཅིག་	-404
▁ཐབས་	-405
▁བཀའ་	-406
▁སྟོན་	-407
ུ།	-408
▁གྲོས་	-409
མ།	-410
▁ཅིང་	-411
▁ཐོན་	-412
▁བློ་	-413
ྲུན་	-414
▁ཐང་	-415
▁ག་	-416
▁ཞི་	-417
▁འཕེལ་	-418
▁གད	-419
▁སོ་	-420
▁ཁྲིད་	-421
▁སྲུང་	-422
▁་	-423
▁འཆ	-424
▁དྲ་	-425
▁གཙོ་	-426
▁གཞན་	-427
▁བརྗོད་	-428
▁སོང་	-429
▁སྡེ་	-430
▁ཤུགས་	-431
▁འཕྲིན་	-432
ཱ་	-433
ྒྱུར་	-434
▁འཁོར་	-435
▁སྒྲུབ་	-436
▁༧	-437
▁དཔེ་	-438
▁བསྒ	-439
▁འགན་	-440
▁ཁྱེར་	-441
▁བས་	-442
▁བསྐ	-443
▁བཟང་	-444
▁དེའི་	-445
གས	-446
▁མཛད་	-447
▁མིའི་	-448
དཔ	-449
▁གསོ་	-450
▁ཚེས་	-451
▁སྣང་	-452
▁ཁོང་	-453
▁ཁྲི་	-454
▁ཚོས་	-455
▁ལྷན་	-456
▁ཤིང་	-457
འད	-458
གོང་	-459
▁པས།	-460
▁དགོས།	-461
▁སེམས་	-462
▁གཤ	-463
▁ཕན་	-464
▁འཁྲ	-465
▁ཡི་	-466
▁གོང་	-467
▁དགའ་	-468
▁མཚོ་	-469
▁ཟེར་	-470
▁ལགས་	-471
▁གྱུར་	-472
འང་	-473
▁མང	-474
▁དར་	-475
▁ཚོ་	-476
▁དཔལ་	-477
▁དེབ་	-478
▁རྡོ་	-479
▁རྩ་	-480
▁ངོས་	-481
▁བཞི་	-482
▁བོན་	-483
▁དགོན་	-484
▁དམ་	-485
▁དམག་	-486
▁བཙན་	-487
▁གྲུབ་	-488
▁མཚོན་	-489
བ།	-490
ིམ་	-491
▁འདྲ	-492
▁སྒོ་	-493
▁ཐེངས་	-494
▁རྒྱུད་	-495
▁བརྒྱུད་	-496
▁ཐོབ་	-497
▁བཏང་	-498
▁བསྐྱ	-499
▁སྨན་	-500
▁རླ	-501
▁ཏེ།	-502
▁བཀོད་	-503
▁རྫོང་	-504
▁འབྱོར་	-505
▁རྐྱེན་	-506
▁སྦྱོང་	-507
▁ཅི་	-508
རྒྱལ་	-509
▁ནུས་	-510
▁སྟངས་	-511
རྩ	-512
▁ཐད་	-513
▁ཆེད་	-514
▁རེད་	-515
▁གལ་	-516
▁ཁྱབ་	-517
▁དབུ་	-518
▁བདག་	-519
སྐ	-520
▁ཀླ	-521
▁ནས།	-522
▁ཡོན་	-523
▁སྟེ་	-524
སྤ	-525
▁བླ་	-526
▁ལུ་	-527
▁རྩལ་	-528
▁ཀྲུང་	-529
▁ཞུགས་	-530
▁འཐུས་	-531
▁མྱ	-532
▁གཏན་	-533
▁གནད་	-534
▁བཟོ་	-535
▁སྙན་	-536
▁ཁུངས་	-537
▁གསུང་	-538
▁བརྡ	-539
▁མེ་	-540
▁སྣ་	-541
▁དཀར་	-542
▁གྲགས་	-543
▁བཅོས་	-544
▁རྒྱུས་	-545
ེས།	-546
▁ཧྲ	-547
ྲིལ་	-548
▁ཐག་	-549
▁བྱང་	-550
▁མཐོང་	-551
▁རིའི་	-552
▁སྐྲུན་	-553
▁མཇ	-554
▁ཚོད་	-555
▁གཅོད་	-556
▁འཇུག་	-557
▁འདུག་	-558
▁༢༠	-559
▁མར་	-560
▁ཁམས་	-561
▁གྲྭ་	-562
▁དེར་	-563
▁མཐའ་	-564
▁གླེང་	-565
▁འཁྱ	-566
▁ཆགས་	-567
▁ཞུས་	-568
▁ཤིག་	-569
▁གཉེར་	-570
▁རྟེན་	-571
མི་	-572
ྱད་	-573
▁བསྒྲ	-574
▁མདོ་	-575
▁འདུ་	-576
▁སྤྲོད་	-577
▁སྤྱིའི་	-578
ྙན་	-579
▁རྙ	-580
ཞེས་	-581
▁ཅེས་	-582
ཀྲ	-583
▁ཝ	-584
རང་	-585
ུར།	-586
ུས།	-587
ོ།།	-588
▁ར་	-589
ཁོང་	-590
▁ཁོ་	-591
▁རབ་	-592
▁ཀུན་	-593
▁བཟུང་	-594
ྔ་	-595
སྐྱ	-596
ཉིན་	-597
རྒྱ་	-598
▁ནོར་	-599
▁མིང་	-600
▁ལྷག་	-601
▁སྟེ།	-602
ལྷ	-603
▁།ད	-604
▁ཀ་	-605
ོམས་	-606
▁གེ་	-607
▁ཨུ་	-608
▁འགོ་	-609
▁དྲུང་	-610
▁དམིགས་	-611
▁བཞུགས་	-612
ོན།	-613
▁དང་།	-614
▁ཁོངས་	-615
▁རྟགས་	-616
▁འདིའི་	-617
▁སྐྱེས་	-618
ོར།	-619
▁ངག་	-620
▁ཇི་	-621
▁དཀའ་	-622
▁ཞབས་	-623
▁འཐབ་	-624
▁ལུས་	-625
▁ཕེབས་	-626
▁སྐུལ་	-627
▁སྟེང་	-628
▁བརྟེན་	-629
གས།	-630
ཟླ་	-631
▁ཉམས་	-632
▁ཚིག་	-633
▁ཚོའི་	-634
▁འགུལ་	-635
ངས།	-636
ིལ་	-637
ེན།	-638
▁སྔ་	-639
ཀྲུང་	-640
▁ངེས་	-641
▁ཁྲོད་	-642
▁སྟོང་	-643
▁དོ་	-644
▁ནམ་	-645
▁ནི།	-646
▁སྲོལ་	-647
▁དགོངས་	-648
ཁྱ	-649
བས	-650
▁ཤས་	-651
▁པོར་	-652
▁མེད།	-653
▁འབད་	-654
▁རྒན་	-655
▁སྙིང་	-656
བྱ	-657
▁ཡར་	-658
▁ཁྱད་	-659
▁ཆོག་	-660
▁མིག་	-661
▁འདོད་	-662
▁འདོན་	-663
▁རོགས་	-664
ཕྱ	-665
▁།ས	-666
▁ཆད་	-667
▁དུང་	-668
▁བཞག་	-669
▁གྲངས་	-670
▁མགོན་	-671
▁མཐུད་	-672
▁འགོད་	-673
▁འབྲི་	-674
གཞ	-675
ིས།	-676
▁ཏང་	-677
▁འཚོ་	-678
▁ལུང་	-679
▁གཞོན་	-680
▁བརྟན་	-681
▁བྲིས་	-682
▁ཚབ་	-683
▁ཅིན་	-684
▁ཚོར་	-685
▁ཕྱིར་	-686
▁མོའི་	-687
▁རླུང་	-688
▁འབྱུང་	-689
▁རྒྱུའི་	-690
▁༸	-691
▁ཡ་	-692
འདི་	-693
▁སི་	-694
▁སའི་	-695
▁བརྙན་	-696
▁བྱིས་	-697
▁བརྒྱད་	-698
▁བསྒྱུར་	-699
དག	-700
▁ཤར་	-701
▁སར་	-702
▁ཉུང་	-703
སྐྱབས་	-704
▁དངུལ་	-705
▁གཟིགས་	-706
ེས	-707
▁ཨེ་	-708
རྩོམ་	-709
▁ཆེས་	-710
▁མཐོ་	-711
▁རུང་	-712
▁རྒྱབ་	-713
ལོ་	-714
▁ཕ་	-715
▁ཟླ	-716
▁རྨ	-717
▁ཧ་	-718
▁༢༠༡	-719
▁ཉི་	-720
▁ཉེ་	-721
▁བསླ	-722
▁མས་	-723
▁ལྔ་	-724
སྤྱི་	-725
▁གཙང་	-726
▁ཚོང་	-727
▁སྒྲ་	-728
▁དཔྱད་	-729
▁དྲུག་	-730
▁མཚམས་	-731
▁ཚིགས་	-732
▁འཇོག་	-733
▁འདིར་	-734
▁༣	-735
ེག་	-736
▁པའ	-737
▁ངང་	-738
▁བགྲ	-739
▁ཚུ་	-740
▁དམར་	-741
▁འོས་	-742
▁ཡིད་	-743
▁ཤོས་	-744
▁གློག་	-745
▁ཐུགས་	-746
▁དཔོན་	-747
▁དབུས་	-748
▁འབྲས་	-749
▁རྩོད་	-750
▁སྐྱེ་	-751
ིག	-752
ཚེས་	-753
ྒྱུ་	-754
▁ནད་	-755
▁ཟབ་	-756
▁ཡག་	-757
▁།དེ་	-758
▁འོག་	-759
▁སྨད་	-760
▁ཁྱིམ་	-761
▁གཡུང་	-762
▁གོའི་	-763
▁ཀྲུའུ་	-764
▁གསུངས་	-765
ལྟ	-766
ེམ་	-767
▁ཅང་	-768
▁མཁའ་	-769
▁མཆན་	-770
▁བདུན་	-771
▁བསྟར་	-772
▁བསྒྲགས་	-773
ོགས།	-774
▁ཁེ་	-775
▁ཟད།	-776
▁ཆེར་	-777
▁དྲག་	-778
▁མགོ་	-779
▁འཆར་	-780
▁ཆེའི་	-781
▁དབྱང་	-782
▁མཛོད་	-783
▁ལོའི་	-784
▁གཟུགས་	-785
▁དབྱངས་	-786
ེར།	-787
▁།ག	-788
▁།མ	-789
▁དད་	-790
▁ནན་	-791
▁ལན་	-792
▁གཏམ་	-793
▁ཇུས་	-794
▁ཟིན་	-795
▁རིས་	-796
▁མྱོང་	-797
▁སྡོད་	-798
▁སྐྱོར་	-799
བས།	-800
▁ལྕ	-801
ློབ་	-802
▁བཅད་	-803
▁མཁོ་	-804
▁ཡིས་	-805
▁བརྒྱ་	-806
▁བུའི་	-807
▁རྒྱག་	-808
ནས་	-809
▁།བ	-810
▁དེ	-811
▁བྷ	-812
▁ཆས་	-813
▁ཕྱག་	-814
▁བརྡ་	-815
▁མཁས་	-816
▁མཇལ་	-817
▁རྩེ་	-818
▁༧གོང་	-819
▁མངོན་	-820
▁རྙིང་	-821
ཁ་	-822
ཨ་	-823
▁།ར	-824
ཆོས་	-825
ལོར་	-826
▁པོ།	-827
▁ཕོ་	-828
▁ལེ་	-829
▁ཡུན་	-830
▁བོའི་	-831
▁མཆོད་	-832
▁རྩིས་	-833
▁བསྡུས་	-834
▁སྐྱོན་	-835
▁སྒྱུར་	-836
།།	-837
ུལ།	-838
▁མུ་	-839
▁གནམ་	-840
▁ཉེན་	-841
▁ཐུང་	-842
▁ཕིང་	-843
▁ཕྲག་	-844
▁མངའ་	-845
▁སེལ་	-846
▁ཁྱེད་	-847
▁གཞིས་	-848
▁གསེར་	-849
▁དབུལ་	-850
▁བྱོལ་	-851
▁འགོག་	-852
▁འགྲན་	-853
▁སོའི་	-854
▁སྡུག་	-855
▁གཞིའི་	-856
▁༡༩	-857
▁རྐ	-858
ཕྱི་	-859
▁བལྟ	-860
▁དྲི་	-861
▁ནའང་	-862
▁ལོག་	-863
▁ཕྱིན་	-864
▁འཁོད་	-865
▁ལྟའི་	-866
▁སྒྱུ་	-867
▁བརྩམས་	-868
▁རྟོགས་	-869
▁སྦྱོར་	-870
▁ཐ་	-871
▁གུ་	-872
▁ཤི་	-873
▁དྲན་	-874
▁ཕུལ་	-875
▁འོད་	-876
▁ཤིན་	-877
▁སངས་	-878
▁སེར་	-879
▁གཤེན་	-880
▁ཕྲེང་	-881
▁སྒོར་	-882
▁བཙུགས་	-883
▁འགྲེལ་	-884
༠༠	-885
▁ཊ	-886
དང་	-887
ཚོ་	-888
འོ་	-889
ཡང་	-890
ལས་	-891
▁།ཁ	-892
པའི་	-893
▁ཆབ་	-894
▁ཆར་	-895
▁དེ།	-896
▁དེས་	-897
▁པོས་	-898
▁བྲལ་	-899
▁ཚགས་	-900
▁འགག་	-901
▁ལའི་	-902
▁ཤོག་	-903
▁འཇགས་	-904
▁འདྲི་	-905
▁སྐྱིད་	-906
▁ཧྲུའུ་	-907
▁བསྐྲུན་	-908
རྟ	-909
གོ་	-910
ོབས་	-911
▁ངན་	-912
▁ཆོག	-913
▁ཇེ་	-914
▁ཐར་	-915
▁རམ་	-916
ལོའི་	-917
▁ཁོར་	-918
▁དགུ་	-919
▁བྲག་	-920
▁མོས་	-921
▁ཟེར།	-922
▁འཛམ་	-923
▁ཡུག་	-924
▁རེས་	-925
▁ལྷོ་	-926
▁གསོལ་	-927
▁ཆུའི་	-928
▁བཏོན་	-929
▁འཕྲད་	-930
▁འབུལ་	-931
▁འོངས་	-932
▁རྐྱང་	-933
དབ	-934
འབ	-935
ལྷ་	-936
གསར་	-937
ཡིན་	-938
▁དུ།	-939
▁གུང་	-940
▁དེབ།	-941
▁བེད་	-942
▁ཚུན་	-943
▁ཟུར་	-944
▁ལྟར།	-945
▁ཐེབས་	-946
▁སྐོར།	-947
▁འགྲུལ་	-948
▁རྒྱུར་	-949
▁སྐྱབས་	-950
།ས	-951
༠༨	-952
▁ཤ་	-953
ུགས།	-954
▁གྲྭ	-955
▁ངལ་	-956
▁ཟད་	-957
▁ཀའི་	-958
▁བཀྲ་	-959
▁མཁར་	-960
▁འགའ་	-961
▁རོལ་	-962
▁ཤིས་	-963
▁ཤུལ་	-964
▁གཙུག་	-965
▁དཔུང་	-966
▁མཇུག་	-967
▁མདུན་	-968
▁འབོད་	-969
▁རྒྱན་	-970
▁གསོའི་	-971
▁བསྡུར་	-972
▁རྫོགས་	-973
▁སྒྲོན་	-974
▁སྒྲོལ་	-975
པ་	-976
ཀའ་	-977
འོན་	-978
▁མགྲ	-979
▁ལི་	-980
སློབ་	-981
▁གདན་	-982
▁ཐུན་	-983
▁སྔར་	-984
▁ཨིན་	-985
▁བཤེར་	-986
▁རེའི་	-987
▁འབེབས་	-988
▁སྟོབས་	-989
གླ	-990
འཛ	-991
ནང་	-992
▁མན	-993
▁ཚ་	-994
ཅེས་	-995
ིངས་	-996
▁ཏན་	-997
▁ཚེས	-998
▁རན་	-999
▁རྟ་	-1000
ཁྱེད་	-1001
དེའི་	-1002
▁བཅའ་	-1003
▁བྲང་	-1004
▁རྐང་	-1005
▁སུམ་	-1006
▁དྲིལ་	-1007
▁བཀོལ་	-1008
▁བདེན་	-1009
▁འདུན་	-1010
▁རྒོལ་	-1011
▁སྤྱད་	-1012
▁སྐྱོད་	-1013
སྟ	-1014
▁ཡོ	-1015
▁ཁུར་	-1016
▁གཟའ་	-1017
▁གསང་	-1018
▁སྐར་	-1019
▁གཏིང་	-1020
▁ཕྲུག་	-1021
▁བཅོལ་	-1022
▁བཙུན་	-1023
▁བསྡུ་	-1024
▁བླངས་	-1025
▁འདུས་	-1026
▁འཚམས་	-1027
▁ལྡོག་	-1028
▁སྒེར་	-1029
▁༧སྐྱབས་	-1030
ཡུལ་	-1031
ེའུ་	-1032
▁པར།	-1033
▁ཡན་	-1034
▁ལས།	-1035
▁སྲི	-1036
▁དེང་	-1037
▁ནམས་	-1038
▁མོད།	-1039
▁མོལ་	-1040
▁ཟུང་	-1041
▁འགལ་	-1042
▁ལོན་	-1043
▁ཤེས།	-1044
▁ཤོར་	-1045
▁སྨྲ་	-1046
▁ཀློག་	-1047
▁འདེད་	-1048
▁གཏོགས་	-1049
▁གྲོགས་	-1050
▁དབྱིན་	-1051
▁འགྱུར།	-1052
▁འབྲོག་	-1053
▁སྤྲུལ་	-1054
ཎ་	-1055
དང	-1056
དམ	-1057
དཔ་	-1058
ྲི་	-1059
གཞན་	-1060
དུས་	-1061
ལྷག་	-1062
▁ཀར་	-1063
▁ཉན་	-1064
▁ཐོ་	-1065
▁བབ་	-1066
▁སྦྲ	-1067
▁ཉེས་	-1068
▁བྱས།	-1069
▁འཇམ་	-1070
▁སེང་	-1071
▁སོར་	-1072
▁སྐལ་	-1073
▁སྲས་	-1074
▁༸གོང་	-1075
▁དབྱེ་	-1076
▁བལྟས་	-1077
▁འཁྲབ་	-1078
▁འཇིག་	-1079
▁འབུམ་	-1080
▁རྒྱང་	-1081
▁རྒྱུ།	-1082
▁བརྩོན་	-1083
▁བསྐྱར་	-1084
▁འགྲེམ་	-1085
▁སྐྱེད་	-1086
▁རྒྱུགས་	-1087
མད	-1088
ཆུ་	-1089
ོམ།	-1090
སྐུ་	-1091
▁ཁར་	-1092
▁ཉར་	-1093
▁ཕབ་	-1094
▁ཡིག	-1095
ྲིགས་	-1096
▁ཀྲང་	-1097
▁གིས།	-1098
▁ཐམས་	-1099
▁བསུ་	-1100
▁མོང་	-1101
▁འདས་	-1102
▁འབབ་	-1103
▁འོང་	-1104
▁ལྟེ་	-1105
▁སོན་	-1106
ཕྱོགས་	-1107
▁གཅེས་	-1108
▁གདོང་	-1109
▁ཐོགས་	-1110
▁དཀོན་	-1111
▁དྲིན་	-1112
▁བཤེས་	-1113
▁བློན་	-1114
▁མཛེས་	-1115
▁རྗེས།	-1116
▁སྟབས་	-1117
▁སྲིང་	-1118
▁སྲོག་	-1119
▁འབྲུག་	-1120
▁སྐྱོབ་	-1121
▁འཁྲུངས་	-1122
།ར	-1123
▁༤	-1124
▁༦	-1125
པར་	-1126
མས།	-1127
ུབ།	-1128
▁དུ	-1129
▁ལོ	-1130
བཀའ་	-1131
ིབས་	-1132
▁ཁས་	-1133
▁ཅད་	-1134
▁ཐེ་	-1135
▁བཀྲ	-1136
▁རོ་	-1137
▁ཨང་	-1138
▁གའི་	-1139
▁གོས་	-1140
▁གྲས་	-1141
▁གྲུ་	-1142
▁ཅུང་	-1143
▁ཐོས་	-1144
▁བསལ་	-1145
▁བུད་	-1146
▁འཆད་	-1147
▁རྫས་	-1148
▁བཞེས་	-1149
▁བསོད་	-1150
▁བསླབ་	-1151
▁བཞེངས་	-1152
▁མགྲོན་	-1153
▁འབྱེད་	-1154
▁སྒྲུང་	-1155
▁སླེབས་	-1156
▁ཡོད།དེ་	-1157
༠༡	-1158
གྱ	-1159
བར	-1160
ིས	-1161
ྨ་	-1162
▁༥	-1163
བར་	-1164
ཚན་	-1165
འགྲ	-1166
འབྲ	-1167
ུད།	-1168
▁ཟ་	-1169
དཔལ་	-1170
དོན་	-1171
མཚོ་	-1172
ཤེས་	-1173
▁གསུ	-1174
▁ངས་	-1175
▁ཆེ།	-1176
▁གངས་	-1177
▁གནའ་	-1178
▁གཞས་	-1179
▁གླུ་	-1180
▁ངེད་	-1181
▁ཏོག་	-1182
▁ཐེར་	-1183
▁ཡའི་	-1184
▁རའི་	-1185
▁རྨང་	-1186
▁ལིང་	-1187
▁སྒང་	-1188
▁སྒར་	-1189
▁སྟག་	-1190
▁སྣེ་	-1191
▁སླར་	-1192
▁ཁྱོད་	-1193
▁གཏོད་	-1194
▁གཞིར་	-1195
▁གཤིས་	-1196
▁གྱུར།	-1197
▁ཕྱུག་	-1198
▁བགྲོ་	-1199
▁བརྩི་	-1200
▁མདོག་	-1201
▁ཚུགས་	-1202
▁སྔགས་	-1203
▁སློང་	-1204
▁གཞིགས་	-1205
▁བརྒྱབ་	-1206
▁འགྲུབ་	-1207
▁འདེབས་	-1208
▁འཚོགས་	-1209
▁འཛོམས་	-1210
▁སྒྲིལ་	-1211
▁རེད།དེ་	-1212
།ག	-1213
དཀ	-1214
བཅ	-1215
བཙ	-1216
ྷ་	-1217
༠༨༩	-1218
འམ་	-1219
ྣམ་	-1220
ྩལ་	-1221
▁དྭ	-1222
▁མ།	-1223
དེང་	-1224
མདོ་	-1225
ཞིང་	-1226
འཛམ་	-1227
▁ཁྲ་	-1228
▁ཆང་	-1229
▁ཏི་	-1230
▁དཀྱ	-1231
▁ནེ་	-1232
▁ཕལ་	-1233
▁ཕུ་	-1234
▁མན་	-1235
▁ཝན་	-1236
▁ཞུ།	-1237
▁རིག	-1238
▁ཧྭ་	-1239
▁ཀླུ་	-1240
▁ཁའི་	-1241
▁གསལ།	-1242
▁ཆེན།	-1243
▁ཐེག་	-1244
▁ཕུན་	-1245
▁བུར་	-1246
▁མཐར་	-1247
▁ལོར་	-1248
▁སྐྱ་	-1249
▁སྙད་	-1250
▁།བོད་	-1251
▁ཀྱིན་	-1252
▁གཏེར་	-1253
▁མདུད་	-1254
▁མྱུར་	-1255
▁འཁེལ་	-1256
▁ཡོདཔ་	-1257
▁རྙོག་	-1258
▁རྟོག་	-1259
▁རྩའི་	-1260
▁རྩོམ།	-1261
▁སྟོད་	-1262
▁བཞིའི་	-1263
▁འདེགས་	-1264
▁འཕྲུལ་	-1265
▁འཁྱོངས་	-1266
ཁོ་	-1267
དྲ་	-1268
སྤྱ	-1269
ཉིན།	-1270
ྲིབ་	-1271
▁ཝང་	-1272
▁ཞེ་	-1273
▁ཡབ་	-1274
▁ཡོ་	-1275
▁སང་	-1276
▁༢༠༡༨	-1277
▁ངའི་	-1278
▁ཐུག་	-1279
▁དུས།	-1280
▁རུས་	-1281
▁རོབ་	-1282
▁ལའང་	-1283
▁སྦེ་	-1284
▁ཁྱོན་	-1285
▁གཏུག་	-1286
▁ཕྱེད་	-1287
▁བཟོས་	-1288
▁བརྡར་	-1289
▁བསྡད་	-1290
▁མཛོད།	-1291
▁རྩེད་	-1292
▁ལོགས་	-1293
▁སྡོང་	-1294
▁སྤྲོ་	-1295
▁སྨོན་	-1296
▁བློའི་	-1297
▁མཚུངས་	-1298
▁འཁྱེར་	-1299
▁འགྲིག་	-1300
▁འདྲེན་	-1301
▁རྒྱུག་	-1302
▁སྡེའི་	-1303
▁སྦྱིན་	-1304
གན	-1305
ང།	-1306
མཆ	-1307
འཕ	-1308
སྒ	-1309
སྔ	-1310
ེལ།	-1311
▁༡༠	-1312
ྲིན།	-1313
▁།ད་	-1314
▁ཀོ་	-1315
▁ཆག་	-1316
▁བརྙ	-1317
▁མཁྱ	-1318
▁ཚེ།	-1319
▁ཟི་	-1320
▁སྨྱ	-1321
▁ཧི་	-1322
བྱིས་	-1323
▁གནས།	-1324
▁དཔའ་	-1325
▁བཤད།	-1326
▁ལངས་	-1327
▁སོ།།	-1328
▁འཁུར་	-1329
▁འཐེན་	-1330
▁ལོངས་	-1331
▁སྲིད།	-1332
▁གྲྭའི་	-1333
▁བསྟེན་	-1334
▁བསྡུས།	-1335
▁འཁྲིད་	-1336
▁སྤྱིར་	-1337
▁༸སྐྱབས་	-1338
▁འགྲེམས་	-1339
གཙ	-1340
ཐ་	-1341
ཟླ	-1342
སྦ	-1343
▁༨	-1344
གལ་	-1345
ཉེ་	-1346
བསྟ	-1347
ྒལ་	-1348
ྲག་	-1349
▁༡༡	-1350
▁ཁུ་	-1351
▁གྲ་	-1352
▁ཉལ་	-1353
▁པཎ་	-1354
▁ཕར་	-1355
▁ཚར་	-1356
▁ཚལ་	-1357
▁ཡས་	-1358
▁སུ།	-1359
དགོན་	-1360
ཚོགས་	-1361
སྐབས་	-1362
▁ཁྲག་	-1363
▁གཞག་	-1364
▁ཆའི་	-1365
▁ཐུབ།	-1366
▁དྲྭ་	-1367
▁བཏབ་	-1368
▁བུམ་	-1369
▁ཙོང་	-1370
▁འཆམ་	-1371
▁རྩི་	-1372
▁ཨུད་	-1373
▁པུའུ་	-1374
▁བཅུད་	-1375
▁བརྗེ་	-1376
▁ཚོགས།	-1377
▁འཛུལ་	-1378
▁རླབས་	-1379
▁སྣོན་	-1380
▁སྤུན་	-1381
▁གཟེངས་	-1382
▁བགྲོད་	-1383
▁བསྟུན་	-1384
▁སྤུངས་	-1385
▁༩	-1386
དབྱ	-1387
ཚེས	-1388
འེ་	-1389
ོལ།	-1390
▁།།	-1391
▁ཁག	-1392
ཐོག་	-1393
དཔེ་	-1394
བཙན་	-1395
ཟེར་	-1396
འོ།།	-1397
རིག་	-1398
▁པེ་	-1399
▁བསྔ	-1400
▁བསྲ	-1401
▁མལ་	-1402
▁ཞལ་	-1403
▁རས་	-1404
ཁྱོད་	-1405
གཞུང་	-1406
གློག་	-1407
བསྟན་	-1408
རིགས་	-1409
ྲིའི་	-1410
▁ཀུང་	-1411
▁གཤམ་	-1412
▁ཆུས་	-1413
▁ཉིན།	-1414
▁ཉེར་	-1415
▁དཔང་	-1416
▁དོན།	-1417
▁ནུབ་	-1418
▁པའི།	-1419
▁བཀག་	-1420
▁བཅོ་	-1421
▁མདའ་	-1422
▁མནའ་	-1423
▁མཚར་	-1424
▁འགྲི	-1425
▁རོང་	-1426
▁ལགས།	-1427
▁ལྗང་	-1428
▁སྙམ་	-1429
▁ཁོའི་	-1430
▁གནོད་	-1431
▁བཙོན་	-1432
▁བྱེད།	-1433
▁བྱོན་	-1434
▁མདོར་	-1435
▁འཕགས་	-1436
▁རླངས་	-1437
▁སྐོང་	-1438
▁སྐྱོ་	-1439
▁ཧྲིལ་	-1440
▁དཀྱིལ་	-1441
▁མཁྱེན་	-1442
▁ཟླཔའི་	-1443
▁འཇིགས་	-1444
▁འཕྲིན།	-1445
▁སྒོའི་	-1446
▁སྟེགས་	-1447
▁བསྒྲུབ་	-1448
▁ཡིན།དེ་	-1449
▁བསྒྲིགས་	-1450
༡༩	-1451
༦༣	-1452
མཁ	-1453
ཝ་	-1454
འཇ	-1455
རྗ	-1456
ིན	-1457
▁ཛ	-1458
གང་	-1459
མང་	-1460
ཡི་	-1461
ལམ་	-1462
ིབ་	-1463
▁ཏ་	-1464
▁པད	-1465
།དེ་	-1466
གངས་	-1467
དེར་	-1468
མགོ་	-1469
རྣམ་	-1470
ུངས།	-1471
ོའུ་	-1472
▁གམ་	-1473
▁ཆོ་	-1474
▁བག་	-1475
▁བལ་	-1476
▁མགྱ	-1477
▁རྡ་	-1478
གྲོང་	-1479
ཐེངས་	-1480
དཔྱད་	-1481
ཕྱིས་	-1482
རྒྱུ་	-1483
▁གིན་	-1484
▁དོ།།	-1485
▁ཕྲན་	-1486
▁བོར་	-1487
▁བྲོ་	-1488
▁མཁན།	-1489
▁མིན།	-1490
▁མོར་	-1491
▁ཙུང་	-1492
▁ཚུལ།	-1493
▁ཡུལ།	-1494
▁རེར་	-1495
▁གནོན་	-1496
▁དོགས་	-1497
▁དྲིས་	-1498
▁བཙོག་	-1499
▁འདིས་	-1500
▁འདུལ་	-1501
▁རོགས།	-1502
▁རྡོར་	-1503
▁ལྷུན་	-1504
▁སིའི་	-1505
▁སྐབས།	-1506
▁སྒོས་	-1507
▁སྲོང་	-1508
▁།རྒྱལ་	-1509
▁བརྟེན།	-1510
▁བསྐོར་	-1511
▁འཁྱོལ་	-1512
▁འདོགས་	-1513
▁འདྲའི་	-1514
▁སྦྲེལ་	-1515
▁པས།དོན་	-1516
▁བསྐྱངས་	-1517
▁བསྐྱོད་	-1518
▁མགྱོགས་	-1519
བླ	-1520
ེད	-1521
༢༠༡	-1522
གི་	-1523
ུན།	-1524
▁།ཉ	-1525
▁རྔ	-1526
▁སུ	-1527
གནས་	-1528
ཉེན་	-1529
དགེ་	-1530
▁།ཨ་	-1531
▁ཅུ་	-1532
▁ཏཱ་	-1533
▁དཔྱ	-1534
▁ནཱ་	-1535
▁པའི	-1536
▁པུ་	-1537
▁བསྙ	-1538
▁ཚན།	-1539
▁ཞང་	-1540
▁རལ་	-1541
▁སྟེ	-1542
སྲིད་	-1543
ྲིམས་	-1544
▁ཁྲན་	-1545
▁གཡོ་	-1546
▁ཆོད་	-1547
▁ཏིག་	-1548
▁དཔར་	-1549
▁དབར་	-1550
▁དུམ་	-1551
▁དོད་	-1552
▁དྲོ་	-1553
▁ཕུག་	-1554
▁མཛད།	-1555
▁ལིས་	-1556
▁སོག་	-1557
▁སྙམ།	-1558
▁གཉེན་	-1559
▁གཏོར་	-1560
▁གདུང་	-1561
▁གཙོས་	-1562
▁ཆིབས་	-1563
▁དྭགས་	-1564
▁པ།ཟླ་	-1565
▁བདུད་	-1566
▁བརྒལ་	-1567
▁བྱའི་	-1568
▁འཐུང་	-1569
▁འཕུར་	-1570
▁འབུད་	-1571
▁འཚོལ་	-1572
▁ལ།དེ་	-1573
▁ལྕགས་	-1574
▁སྒོམ་	-1575
▁སྡོམ་	-1576
▁བསྐུར་	-1577
▁བསྟོད་	-1578
▁འགྲིམ་	-1579
▁འདེམས་	-1580
▁རྒྱའི་	-1581
▁སྒྲོག་	-1582
▁སྙོམས་	-1583
▁༢༠༡༨ཟླ་	-1584
▁པའི།རང་	-1585
▁བསྡོམས་	-1586
ཁྲ	-1587
བད	-1588
མང	-1589
འི	-1590
རྫ	-1591
ཏང་	-1592
པེ་	-1593
ིརྟ	-1594
▁ཇ་	-1595
▁བུ	-1596
▁ཡ།	-1597
▁ལྔ	-1598
དཀར་	-1599
བོན་	-1600
སྐད་	-1601
ིམས་	-1602
ུབས་	-1603
ླུང་	-1604
▁།ང་	-1605
▁ཀན་	-1606
▁ཀས་	-1607
▁ཀུ་	-1608
▁གད་	-1609
▁ངམ་	-1610
▁ཊི་	-1611
▁དགྱ	-1612
▁ནམ།	-1613
▁ནུ་	-1614
▁བསྣ	-1615
▁བྱ།	-1616
▁ཞན་	-1617
▁ཡུ་	-1618
▁ཡེ་	-1619
▁ལབ་	-1620
▁ཤུ་	-1621
▁སྦ་	-1622
ཐུགས་	-1623
དཔེར་	-1624
བརྙན་	-1625
▁།མི་	-1626
▁ཀླད་	-1627
▁ཀློག	-1628
▁ཆུབ་	-1629
▁ཐིག་	-1630
▁དགྲ་	-1631
▁དྲང་	-1632
▁པདྨ་	-1633
▁བཅར་	-1634
▁བཟའ་	-1635
▁བལྟ་	-1636
▁ཚུད་	-1637
▁ཞེན་	-1638
▁འཆང་	-1639
▁འཚར་	-1640
▁ལོང་	-1641
▁ལྡེ་	-1642
▁ཧོང་	-1643
རྒྱུན་	-1644
▁།ཁོང་	-1645
▁།རྒྱ་	-1646
▁གཟོད་	-1647
▁གསུམ།	-1648
▁གསེབ་	-1649
▁དགོད་	-1650
▁དཔེར་	-1651
▁དབྱར་	-1652
▁ཕྱིས་	-1653
▁ཕྱུར་	-1654
▁བཏགས་	-1655
▁བརྟག་	-1656
▁བསྩལ་	-1657
▁བྱེས་	-1658
▁མཛུབ་	-1659
▁འགྲམ་	-1660
▁རྡུལ་	-1661
▁རྡོག་	-1662
▁ལྷུང་	-1663
▁སྤྱན་	-1664
▁སྨིན་	-1665
▁གཤེགས་	-1666
▁བདེའི་	-1667
▁མདོའི་	-1668
▁འཁྱིལ་	-1669
▁འཕྲོད་	-1670
▁འབྲིང་	-1671
▁རྒྱུར།	-1672
▁སྐྱེལ་	-1673
▁བསླེབས་	-1674
༣༡	-1675
ཀླ	-1676
ངས	-1677
ཕ་	-1678
འག	-1679
ོན	-1680
།བས	-1681
༡༦༣	-1682
༢༠༠	-1683
ཚེ་	-1684
ལག་	-1685
ཱི་	-1686
ོགས	-1687
ོབ།	-1688
▁།ཤ	-1689
▁༡༢	-1690
▁དྷ	-1691
▁བག	-1692
▁ལས	-1693
ཁོར་	-1694
ཁོས་	-1695
གནའ་	-1696
གསོ་	-1697
ཉིས་	-1698
དེས་	-1699
རྗེ་	-1700
ྲིས།	-1701
▁།དབ	-1702
▁གམ།	-1703
▁གླ་	-1704
▁ངུ་	-1705
▁ཕག་	-1706
▁ཕམ་	-1707
▁བར།	-1708
▁བརླ	-1709
▁བྷ་	-1710
▁མོ།	-1711
▁ཙཱ་	-1712
▁ཝེ་	-1713
▁ཞིག	-1714
▁རྔ་	-1715
▁སླ་	-1716
▁ཧེ་	-1717
▁ཨོ་	-1718
༡༦༣༣༡	-1719
དངོས་	-1720
འདིར་	-1721
སེམས་	-1722
▁།རང་	-1723
▁གཏད་	-1724
▁གཟབ་	-1725
▁གཟི་	-1726
▁གཡར་	-1727
▁གཡས་	-1728
▁གྱང་	-1729
▁གླང་	-1730
▁ཆེད།	-1731
▁ཆོལ་	-1732
▁དུད་	-1733
▁དྲན།	-1734
▁ནགས་	-1735
▁ཕུད་	-1736
▁བསང་	-1737
▁མཆོག	-1738
▁མའོ་	-1739
▁ཟུག་	-1740
▁འཁྲི	-1741
▁འབར་	-1742
▁ཡངས་	-1743
▁ལེན།	-1744
▁སོས་	-1745
▁སྒྲི	-1746
▁སྦྲ་	-1747
སྤྱིར་	-1748
▁།ཕྱི་	-1749
▁ཁྲོམ་	-1750
▁གཟིམ་	-1751
▁གཡུལ་	-1752
▁གསོན་	-1753
▁གྱོན་	-1754
▁ཇིའི་	-1755
▁དགོན།	-1756
▁ཕོགས་	-1757
▁བཞིན།	-1758
▁བྱིན་	-1759
▁མདངས་	-1760
▁འཁྲི་	-1761
▁འདབས་	-1762
▁འཛུམ་	-1763
▁རེད།།	-1764
▁རྒོད་	-1765
▁ལྟོས་	-1766
▁ལྡུམ་	-1767
▁ལྷུག་	-1768
▁ལྷོད་	-1769
▁སྟེར་	-1770
▁སྡུར་	-1771
▁སྨུག་	-1772
▁བཅུའི་	-1773
▁མཐོའི་	-1774
▁འཁྲུལ་	-1775
▁འདུའི་	-1776
▁སྤྲེལ་	-1777
༠༨༩༡༦༣༣༡	-1778
▁དབྱིབས་	-1779
▁བསྐྱེད་	-1780
▁མོད།འོན་	-1781
༠༨༩༡༦༣༣༡༠༨༩	-1782
༧༥	-1783
གཏ	-1784
གཟ	-1785
ཆ་	-1786
ཏ་	-1787
དྲ	-1788
བྷ	-1789
མཐ	-1790
འ།	-1791
ཡ་	-1792
རྡ	-1793
ུར	-1794
ོད	-1795
ངམ་	-1796
ཅི་	-1797
ཆབ་	-1798
ཐད་	-1799
ནི་	-1800
ཙམ་	-1801
ཞི་	-1802
འཕྲ	-1803
འོ།	-1804
རི་	-1805
རྟ་	-1806
ཨུ་	-1807
ྒན་	-1808
▁།ང	-1809
▁༡༧	-1810
▁༡༨	-1811
▁པཎ	-1812
▁ཝ་	-1813
གསལ་	-1814
ངའི་	-1815
དབང་	-1816
བཅས་	-1817
བསམ་	-1818
བློ་	-1819
མིག་	-1820
ཚིག་	-1821
ཞབས་	-1822
འཚོ་	-1823
ཡུང་	-1824
ོངས།	-1825
ྔོན་	-1826
▁༡༩༦	-1827
▁༡༩༩	-1828
▁༢༠༠	-1829
▁ཁི་	-1830
▁ཅི།	-1831
▁ཐན་	-1832
▁ཐལ་	-1833
▁དྷ་	-1834
▁ནུག	-1835
▁བང་	-1836
▁མཁྲ	-1837
▁ཞག་	-1838
▁ཞྭ་	-1839
▁ཟས་	-1840
▁རྨ་	-1841
▁ཤག་	-1842
▁ཧན་	-1843
▁ཨར་	-1844
༧གོང་	-1845
དངུལ་	-1846
དབུས་	-1847
དམངས་	-1848
འགྲོ་	-1849
རླུང་	-1850
སྒྱུ་	-1851
སྔོན་	-1852
སྟོད་	-1853
ྒྱུར།	-1854
▁།ལོ་	-1855
▁༢༠༡༧	-1856
▁ཀོང་	-1857
▁ཁོག་	-1858
▁ཁྱི་	-1859
▁ཁྲལ་	-1860
▁ཁྲོ་	-1861
▁གཡང་	-1862
▁གཡུ་	-1863
▁གསབ་	-1864
▁གསོ།	-1865
▁གུས་	-1866
▁གེར་	-1867
▁ངོས།	-1868
▁ཅུས་	-1869
▁དགོ་	-1870
▁དཔག་	-1871
▁དུག་	-1872
▁ཕོག་	-1873
▁བབས་	-1874
▁བཞད་	-1875
▁བྱེ་	-1876
▁བླང་	-1877
▁མནར་	-1878
▁མེར་	-1879
▁ཚབས་	-1880
▁ཞའོ་	-1881
▁འཇར་	-1882
▁འཚམ་	-1883
▁ཡོམ་	-1884
▁རུལ་	-1885
▁རེན་	-1886
▁ལྕེ་	-1887
▁ཤུག་	-1888
▁སུས་	-1889
▁སྤོ་	-1890
▁སྩལ་	-1891
▁སླད་	-1892
▁ཨིན།	-1893
དབྱིན་	-1894
སྤྱོད་	-1895
▁།ཆོས་	-1896
▁།འཛམ་	-1897
▁ཁུངས།	-1898
▁གོམས་	-1899
▁གྱིན་	-1900
▁གྲིབ་	-1901
▁གྲོལ་	-1902
▁གྲྭར་	-1903
▁དྲངས་	-1904
▁ནིའི་	-1905
▁ཕུགས་	-1906
▁བཀུར་	-1907
▁བཅུག་	-1908
▁བཏུས་	-1909
▁བསགས་	-1910
▁བསམས་	-1911
▁བསྐོ་	-1912
▁བསྟན།	-1913
▁བྱམས་	-1914
▁མཆེད་	-1915
▁མཉེན་	-1916
▁མཐོར་	-1917
▁འབོར་	-1918
▁འབྲུ་	-1919
▁ལུགས།	-1920
▁སུའུ་	-1921
▁སྒྲིག	-1922
▁སྟབས།	-1923
▁སྣུམ་	-1924
▁སྤུས་	-1925
▁།ཀྲུང་	-1926
▁གཙོའི་	-1927
▁ཕྱིའི་	-1928
▁ཕྱུགས་	-1929
▁མཚོའི་	-1930
▁འཁྲུག་	-1931
▁རྒྱགས་	-1932
▁རྗེའི་	-1933
▁སྡིངས་	-1934
▁སྦྱངས་	-1935
▁ཚེསཉིན་	-1936
▁གནས།བོད་	-1937
༡༠	-1938
༡༡	-1939
༥༩	-1940
ཀ་	-1941
ཀྱ	-1942
ངྒ	-1943
ཕྲ	-1944
འཆ	-1945
▁༠	-1946
▁༽	-1947
༥༠༠	-1948
ཉི་	-1949
དར་	-1950
ནམ་	-1951
ཕན་	-1952
བུ་	-1953
ཚད་	-1954
ཡར་	-1955
སྒྲ	-1956
ིར།	-1957
▁།ཇ	-1958
▁༡༦	-1959
▁༣༤	-1960
▁ནག	-1961
▁ནས	-1962
▁བཱ	-1963
གཙོ་	-1964
གྱི་	-1965
ཆེད་	-1966
ཉིད་	-1967
དབུ་	-1968
དྲི་	-1969
ནུབ་	-1970
པོད་	-1971
ཕྱག་	-1972
མཁས་	-1973
འོས་	-1974
ཡིག་	-1975
རིང་	-1976
རིན་	-1977
རིམ་	-1978
རྩེ་	-1979
ཤོག་	-1980
▁།དག	-1981
▁།སྒ	-1982
▁ཅག་	-1983
▁ཉོ་	-1984
▁ཐབ་	-1985
▁དཀྲ	-1986
▁དང།	-1987
▁དལ་	-1988
▁པཱ་	-1989
▁ཕྲ་	-1990
▁བཀླ	-1991
▁བརྐ	-1992
▁བོ།	-1993
▁མཱ་	-1994
▁ཞོ་	-1995
▁ཟག་	-1996
▁འདེ	-1997
▁ལང་	-1998
▁ཤེ་	-1999
▁ཤོག	-2000
ཀློག་	-2001
གྱིས་	-2002
གྲོས་	-2003
སྐོར་	-2004
ིརྟི་	-2005
ྲིངས་	-2006
▁།ཡང་	-2007
▁༢༠༠༨	-2008
▁ཀོན་	-2009
▁ཀྲི་	-2010
▁གཉའ་	-2011
▁གདམ་	-2012
▁གསས་	-2013
▁གུར་	-2014
▁གྲང་	-2015
▁གྲས།	-2016
▁གློ་	-2017
▁དགར་	-2018
▁དམའ་	-2019
▁དེད་	-2020
▁པའང་	-2021
▁པོད་	-2022
▁ཕུད།	-2023
▁ཕྱེ་	-2024
▁བཀལ་	-2025
▁བཀས་	-2026
▁བགོ་	-2027
▁བཙག་	-2028
▁བའམ་	-2029
▁བྱར་	-2030
▁མཆུ་	-2031
▁མིས་	-2032
▁ཚོད།	-2033
▁ཟོག་	-2034
▁འདམ་	-2035
▁འོན་	-2036
▁ཡོན།	-2037
▁ཡོལ་	-2038
▁རགས་	-2039
▁རུབ་	-2040
▁རྣལ་	-2041
▁རྩལ།	-2042
▁ལྡན།	-2043
▁ལྷས་	-2044
▁ཤེལ་	-2045
▁ཤོད་	-2046
▁ཤྲི་	-2047
ཁྲིམས་	-2048
འདིའི་	-2049
འབྲུག་	-2050
▁།དེང་	-2051
▁ཀྱིས།	-2052
▁ཁྱུང་	-2053
▁གཟེར་	-2054
▁གྱིས།	-2055
▁དགུང་	-2056
▁དང་།།	-2057
▁དྲོད་	-2058
▁པ།དེ་	-2059
▁ཕྲིན་	-2060
▁བཅོམ་	-2061
▁བདམས་	-2062
▁བཟོད་	-2063
▁བརྙན།	-2064
▁བློས་	-2065
▁ཞུགས།	-2066
▁ཞོགས་	-2067
▁ཟློས་	-2068
▁འཐོར་	-2069
▁འདོད།	-2070
▁འཕྲོ་	-2071
▁རྟའི་	-2072
▁རྩོལ་	-2073
▁ལིའི་	-2074
▁ཤིང་།	-2075
▁སུའི་	-2076
▁སྡེར་	-2077
▁སྤྲད་	-2078
▁སྦྱར་	-2079
▁སྲོལ།	-2080
▁ཧྲེང་	-2081
▁།སྤྱི་	-2082
▁།སློབ་	-2083
▁ཀྲོའུ་	-2084
▁གྲོངས་	-2085
▁དགྱེས་	-2086
▁ན།བོད་	-2087
▁བརྩིས་	-2088
▁བསྐྱལ་	-2089
▁བསྔགས་	-2090
▁མགྲིན་	-2091
▁སྒྲུག་	-2092
▁སྙིགས་	-2093
▁ཕུད།དེ་	-2094
▁བརྒྱུད།	-2095
▁བསྒྱུར།	-2096
▁སྤྲིངས་	-2097
▁དགོས།དེ་	-2098
▁རེད།ཁོང་	-2099
▁རེད།འོན་	-2100
▁རེད།དེའི་	-2101
༡༢	-2102
༡༤	-2103
༣༠	-2104
༨༩	-2105
གཤ	-2106
བཟ	-2107
མཛ	-2108
རྐ	-2109
ལྕ	-2110
སྡ	-2111
ཱུ	-2112
ུང	-2113
།གཟ	-2114
ཀན་	-2115
ཅན་	-2116
ཐང་	-2117
ཐར་	-2118
ནད་	-2119
འགྱ	-2120
ཡེ་	-2121
རྨ་	-2122
ལུ་	-2123
སྐར	-2124
ཨེ་	-2125
ཱན་	-2126
ྲི།	-2127
▁།ཧ	-2128
▁༣༠	-2129
▁གྷ	-2130
▁ངག	-2131
▁ཅ་	-2132
▁ཆེ	-2133
▁ཉ་	-2134
▁ཎ་	-2135
▁པོ	-2136
▁བའ	-2137
▁ས།	-2138
ཁམས་	-2139
གཞི་	-2140
ཅིག་	-2141
ནོར་	-2142
བཅར་	-2143
བྱང་	-2144
མཉམ་	-2145
ཚོང་	-2146
ཞིབ་	-2147
འདས་	-2148
སྒྲ་	-2149
སྙན་	-2150
ིགས།	-2151
ིའུ་	-2152
ེགས།	-2153
ྗེས་	-2154
▁།རྩ	-2155
▁ཀི་	-2156
▁གིས	-2157
▁གོ།	-2158
▁ཅིག	-2159
▁ཅེ་	-2160
▁ཏོ་	-2161
▁དགོ	-2162
▁ནོ་	-2163
▁པི་	-2164
▁བཞག	-2165
▁བཞེ	-2166
▁མི།	-2167
▁ཙེ་	-2168
▁རག་	-2169
▁ལན།	-2170
▁ལར་	-2171
▁ལྭ་	-2172
▁ཤན་	-2173
▁སམ་	-2174
▁སཱ་	-2175
▁སེ་	-2176
▁སྒྱ	-2177
▁སྲ་	-2178
▁ཨན་	-2179
▁ཨི་	-2180
༥ལོར་	-2181
ཁྱིམ་	-2182
གཉིས་	-2183
གསེར་	-2184
གླིང་	-2185
བདུད་	-2186
འཁོར་	-2187
འབྲས་	-2188
སྐྱེ་	-2189
སྟོན་	-2190
ྲིགས།	-2191
▁།ཆུ་	-2192
▁།ལྷ་	-2193
▁༢༠༡༦	-2194
▁ཁོམ་	-2195
▁གཏང་	-2196
▁གོད་	-2197
▁གོམ་	-2198
▁གྲལ་	-2199
▁གྲོ་	-2200
▁ཉིང་	-2201
▁ཏུང་	-2202
▁ཐོར་	-2203
▁དགག་	-2204
▁དམུ་	-2205
▁དོག་	-2206
▁དོར་	-2207
▁ནུག།	-2208
▁ནོ།།	-2209
▁ཕུར་	-2210
▁ཕོད་	-2211
▁ཕོར་	-2212
▁བ།ཟླ	-2213
▁བཞེད	-2214
▁བསད་	-2215
▁བོས་	-2216
▁བྱད་	-2217
▁བླམ་	-2218
▁བྷང་	-2219
▁མཛའ་	-2220
▁མིར་	-2221
▁མུས་	-2222
▁མེས་	-2223
▁ཞིས་	-2224
▁ཞུང་	-2225
▁ཞུན་	-2226
▁ཞུས།	-2227
▁ཞོར་	-2228
▁འུར་	-2229
▁ཡུང་	-2230
▁ཡུམ་	-2231
▁ཡོག་	-2232
▁རིར་	-2233
▁རོམ་	-2234
▁རྒས་	-2235
▁རྟག་	-2236
▁རྡལ་	-2237
▁རྩད་	-2238
▁ལ།ཨ་	-2239
▁ལུག་	-2240
▁ལྟོ་	-2241
▁སུན་	-2242
▁སྐམ་	-2243
▁སྤང་	-2244
▁ཧུར་	-2245
▁ཧོར་	-2246
།།བཙན་	-2247
རྒྱུད་	-2248
▁།ཁྱད་	-2249
▁།གཞན་	-2250
▁།དུས་	-2251
▁།ཞིང་	-2252
▁།རིག་	-2253
▁༩ཚེས་	-2254
▁ཀླུང་	-2255
▁ཁེངས་	-2256
▁ཁྲོད།	-2257
▁གཉིས།	-2258
▁གདངས་	-2259
▁གདམས་	-2260
▁གཙེར་	-2261
▁གཡོན་	-2262
▁གཤགས་	-2263
▁གསོག་	-2264
▁གསོད་	-2265
▁ཏུའུ་	-2266
▁དབེན་	-2267
▁དབོར་	-2268
▁དབྱི་	-2269
▁དྭངས་	-2270
▁པུའི་	-2271
▁ཕོངས་	-2272
▁བགྲང་	-2273
▁བཏུང་	-2274
▁བཞེད་	-2275
▁བཞེས།	-2276
▁བརྩེ་	-2277
▁བཤམས་	-2278
▁བསྐལ་	-2279
▁བྱུས་	-2280
▁བྲིས།	-2281
▁མཁའི་	-2282
▁མཆོང་	-2283
▁མཐའི་	-2284
▁མཛངས་	-2285
▁ཟླཚེས	-2286
▁འདུར་	-2287
▁འདྲི།	-2288
▁འཕྲལ་	-2289
▁འཛིང་	-2290
▁ཡིན།།	-2291
▁རིགས།	-2292
▁ལྔའི་	-2293
▁སྐུད་	-2294
▁སྤེན་	-2295
▁སྦགས་	-2296
▁ཨུའི་	-2297
ད།ཁྱེད་	-2298
བསྒྱུར་	-2299
▁།ཕྱིས་	-2300
▁གསུངས།	-2301
▁གྲུའི་	-2302
▁དཔྱོད་	-2303
▁བ།བོད་	-2304
▁བགྱིས་	-2305
▁བཅིངས་	-2306
▁བརྐོས་	-2307
▁བརྒྱན་	-2308
▁བརྗིད་	-2309
▁བརྗོད།	-2310
▁བསྙེན་	-2311
▁འདུགད་	-2312
▁འདྲེས་	-2313
▁འབྱམས་	-2314
▁འབྱིན་	-2315
▁ཡིན།ད་	-2316
▁རེད།ད་	-2317
▁རྒྱུས།	-2318
▁ལྷོའི་	-2319
▁སྨྱོན་	-2320
▁དང་།དེ་	-2321
▁བརྩེགས་	-2322
▁བསྡུའི་	-2323
▁མཁྲེགས་	-2324
▁ཚེསཉིན།	-2325
▁བསྒྲིགས།	-2326
▁འདུགཁོང་	-2327
▁ཤེས།བོད་	-2328
▁སྟེ།ཡུལ་	-2329
▁བ།ཟླརིགས་	-2330
▁བཞེས།སྐུ་	-2331
▁ཡོད།དེའི་	-2332
▁སྐོར།པོད་	-2333
▁འཁྲིད།ཁྱེད་	-2334
།ད	-2335
༤་	-2336
༨༨	-2337
བྲ	-2338
མག	-2339
མས	-2340
རྙ	-2341
ལྗ	-2342
ཤ་	-2343
སྨ	-2344
ུན	-2345
ུལ	-2346
ུས	-2347
ེལ	-2348
ྣ་	-2349
▁ཎ	-2350
།༣༠	-2351
༦སྦ	-2352
ང།༨	-2353
ངོ་	-2354
ཉིན	-2355
ནོ་	-2356
ཕག་	-2357
ཕབ་	-2358
ཕར་	-2359
བལ་	-2360
བྱ་	-2361
བླ་	-2362
མགྱ	-2363
མུ་	-2364
མེ་	-2365
མོ་	-2366
ཚང་	-2367
ཞལ་	-2368
ཞྭ་	-2369
རུ་	-2370
ལེ་	-2371
སྦ་	-2372
ཱོ་	-2373
ིཏ་	-2374
ུང།	-2375
ུམ།	-2376
ོག།	-2377
ྙད་	-2378
ྦད་	-2379
ྲིན	-2380
ྲེ་	-2381
▁།ལ	-2382
▁༢༥	-2383
▁༢༧	-2384
▁གེ	-2385
▁ངོ	-2386
▁ཏེ	-2387
▁ཚོ	-2388
▁ཛ་	-2389
▁འ་	-2390
▁ལག	-2391
།སོ་	-2392
༠༠ཁ་	-2393
ཀུན་	-2394
གཏམ་	-2395
གཙང་	-2396
གུང་	-2397
ངེད་	-2398
ངེས་	-2399
ཐོན་	-2400
དགའ་	-2401
དགྲ་	-2402
དམག་	-2403
དམར་	-2404
བདེ་	-2405
བུམ་	-2406
མཆན་	-2407
མཚན་	-2408
ཟུར་	-2409
འཇམ་	-2410
རེད།	-2411
རྡོ་	-2412
སྡེ་	-2413
ྱོན་	-2414
▁།གཏ	-2415
▁།ཐ་	-2416
▁།དཔ	-2417
▁།མ་	-2418
▁།མང	-2419
▁གར།	-2420
▁གཱ་	-2421
▁གྱ་	-2422
▁ངར་	-2423
▁ཆན་	-2424
▁ཆས།	-2425
▁ཎི་	-2426
▁ཐུ་	-2427
▁དམ།	-2428
▁ཕན།	-2429
▁ཕེ་	-2430
▁ཕྱོ	-2431
▁བདག	-2432
▁བམ་	-2433
▁བུ།	-2434
▁མིག	-2435
▁མྱ་	-2436
▁ཙང་	-2437
▁ཟམ་	-2438
▁འོག	-2439
▁ཡཱ་	-2440
▁ཡོད	-2441
▁རཱ་	-2442
▁རྣ་	-2443
▁ལམ།	-2444
▁ཤང་	-2445
▁སོ།	-2446
▁སྐྲ	-2447
▁སྣ།	-2448
▁ཧཱུ	-2449
།བོད་	-2450
༡༢ཚེས	-2451
༽ཞེས་	-2452
ཁོའི་	-2453
གཡུང་	-2454
གསུམ་	-2455
གསོལ་	-2456
མཆོད་	-2457
ཟློས་	-2458
སྟེང་	-2459
▁།གལ་	-2460
▁༣༦སྦ	-2461
▁༧ཞྭ་	-2462
▁ཁེལ་	-2463
▁གཏག་	-2464
▁གསན་	-2465
▁གོར་	-2466
▁གྲི་	-2467
▁ངེས།	-2468
▁ངོར་	-2469
▁ཆིན་	-2470
▁ཆོན་	-2471
▁ཐབས།	-2472
▁ཐའེ་	-2473
▁ཐིམ་	-2474
▁ཐོབ།	-2475
▁དམན་	-2476
▁དོམ་	-2477
▁དྷི་	-2478
▁ན།ད་	-2479
▁ནུས།	-2480
▁པའམ་	-2481
▁པའམ།	-2482
▁ཕུལ།	-2483
▁བཅས།	-2484
▁བླག་	-2485
▁མཁལ་	-2486
▁མཐུ་	-2487
▁མོད་	-2488
▁མྱི་	-2489
▁ཚུར་	-2490
▁ཚོན་	-2491
▁ཞིན་	-2492
▁ཟངས་	-2493
▁ཟིང་	-2494
▁འཇལ་	-2495
▁འཇུག	-2496
▁འདར་	-2497
▁འཕར་	-2498
▁འཕོ་	-2499
▁འཚེ་	-2500
▁ཡུས་	-2501
▁རམས་	-2502
▁རིལ་	-2503
▁རེག་	-2504
▁རོག་	-2505
▁རྦད་	-2506
▁རྨི་	-2507
▁རྩར་	-2508
▁རྩྭ་	-2509
▁ལྕི་	-2510
▁ལྡི་	-2511
▁སུད་	-2512
▁སྐད།	-2513
▁སྐྱ།	-2514
▁སྔོ་	-2515
▁སྡེ།	-2516
▁སྤུ་	-2517
▁སྲང་	-2518
▁སླབ་	-2519
▁ཧྲན་	-2520
▁ཧྲི་	-2521
▁ཨང།༨	-2522
འགྱུར་	-2523
འགྲེམ་	-2524
ལྗོངས་	-2525
སྐུའི་	-2526
▁།ཁམས་	-2527
▁།གནས་	-2528
▁།ཉམས་	-2529
▁།སྐུ་	-2530
▁༤ཚེས་	-2531
▁ཁྲོན་	-2532
▁གཉིད་	-2533
▁གཉུག་	-2534
▁གདོད་	-2535
▁གཟིག་	-2536
▁གཡུས་	-2537
▁གསེང་	-2538
▁གསོས་	-2539
▁གྲངས།	-2540
▁གྲུམ་	-2541
▁ཅུའུ་	-2542
▁དགུན་	-2543
▁དགོཔ་	-2544
▁དུའང་	-2545
▁ནེའུ་	-2546
▁པའོ།།	-2547
▁ཕྱིན།	-2548
▁བ།མི་	-2549
▁བཀྲམ་	-2550
▁བགོས་	-2551
▁བཟུམ་	-2552
▁བརྟན།	-2553
▁བརྡལ་	-2554
▁བསྔལ་	-2555
▁བཱོལ་	-2556
▁བུའོ།	-2557
▁བྱུག་	-2558
▁བྲེལ་	-2559
▁བྷེལ་	-2560
▁མགུར་	-2561
▁མཐོན་	-2562
▁མཚེས་	-2563
▁མྱེས་	-2564
▁ཚོམས་	-2565
▁ཞུའི་	-2566
▁ཟད།ད་	-2567
▁འགོར་	-2568
▁འགྲོ།	-2569
▁འཇོན་	-2570
▁འཐོན་	-2571
▁འཚུབ་	-2572
▁རུའི་	-2573
▁རེད།ས	-2574
▁རྐྱབ་	-2575
▁རྟོན་	-2576
▁ལ།རང་	-2577
▁ལུའུ་	-2578
▁ལེའུ་	-2579
▁ལྕོག་	-2580
▁ལྷའི་	-2581
▁ལྷིང་	-2582
▁ཤུའི་	-2583
▁སུངས་	-2584
▁སུའང་	-2585
▁སྡེབ་	-2586
▁སྣོད་	-2587
▁སྤོར་	-2588
▁སྤོལ་	-2589
▁སྤོས་	-2590
▁སྦུག་	-2591
▁སྦེལ་	-2592
▁སྲེག་	-2593
▁སློབ།	-2594
▁ཧུའུ་	-2595
▁ཧྲིན་	-2596
༥༠༠༠༠ཁ་	-2597
ངས།ཁོང་	-2598
མགྱོགས་	-2599
རྒྱུགས་	-2600
▁།སྔོན་	-2601
▁༡༡ཚེས་	-2602
▁ཁྱེའུ་	-2603
▁ཁྲིམས།	-2604
▁གཏོགས།	-2605
▁གཡོགས་	-2606
▁དཀྱུས་	-2607
▁དབུགས་	-2608
▁དབྱངས།	-2609
▁པ།དགེ་	-2610
▁བཞུགས།	-2611
▁བརྙེས་	-2612
▁བསྐུལ་	-2613
▁བསྟུད་	-2614
▁བསླངས་	-2615
▁མཆིམས་	-2616
▁འཁྱགས་	-2617
▁འཁྲོལ་	-2618
▁འགྲིལ་	-2619
▁འགྲེལ།	-2620
▁འགྲོལ་	-2621
▁འགྲོས་	-2622
▁འདེམས།	-2623
▁འཛེགས་	-2624
▁ལྗོངས།	-2625
▁ལྟར།ཁ་	-2626
▁སྐྱིན་	-2627
▁སྐྱེལ།	-2628
▁སྐྱེས།	-2629
▁སྒྲའི་	-2630
▁སྒྲོམ་	-2631
▁སྟེགས།	-2632
▁སྦྱོར།	-2633
▁སྨྱུག་	-2634
▁༣༦སྦྲག་	-2635
▁དབྱིངས་	-2636
▁བརྒྱབས་	-2637
▁བསྐྱུར་	-2638
▁བསྒྲིལ་	-2639
▁འཁྲུགས་	-2640
▁འདུགདེ་	-2641
▁འདྲིའི་	-2642
▁རིགཆོས་	-2643
▁གསོ།སྐད་	-2644
▁དེབ།དྲི་	-2645
▁དེབ།སྒྲ་	-2646
▁བརྙན།པར་	-2647
▁ཡིགརྩོམ་	-2648
▁ཡིན།ཁོང་	-2649
▁ཡིན།འདི་	-2650
▁ཡོད།བོད་	-2651
▁ཡོད།འདི་	-2652
▁རིགདམངས་	-2653
▁རེད།ཅེས་	-2654
▁རེད།བོད་	-2655
▁རེད།འདི་	-2656
▁རེད།རྒྱ་	-2657
▁རྩལ།གསོ་	-2658
▁ལྟར།ཀློག་	-2659
▁ལྟར།རྩོམ་	-2660
▁སྲོལ།དཔེ་	-2661
▁མཛོད།གློག་	-2662
▁རེད།འདིའི་	-2663
▁ལུགས།སྒྱུ་	-2664
▁ཨང།༨༥༠༠༠༠ཁ་	-2665
▁པར།༠༨༩༡༦༣༣༡༠༨༩	-2666
༢༣	-2667
༣༧	-2668
༦༦	-2669
༩༢	-2670
༩༥	-2671
གད	-2672
པྟ	-2673
བཤ	-2674
མྦ	-2675
ཚ་	-2676
ཛ་	-2677
རཔ	-2678
རྒ	-2679
རྨ	-2680
ལྡ	-2681
ཨོ	-2682
ུའ	-2683
ེར	-2684
ོབ	-2685
ྡ་	-2686
།མ་	-2687
།འད	-2688
།རྫ	-2689
ཀྱ་	-2690
གར་	-2691
ངྒ་	-2692
ཏེ་	-2693
དཀྱ	-2694
དད་	-2695
དོ་	-2696
ནག་	-2697
ཕལ་	-2698
ཕོ་	-2699
མགྲ	-2700
ཞང་	-2701
འ།།	-2702
འབྱ	-2703
ཡས་	-2704
རབ་	-2705
རེ་	-2706
རྩ་	-2707
རྫ་	-2708
ལཝ་	-2709
ལས།	-2710
སྔ་	-2711
སྤྲ	-2712
ཧི་	-2713
ཱམ་	-2714
ཱེ་	-2715
ིགས	-2716
ུགས	-2717
ེ།ར	-2718
ེངས	-2719
ེབ།	-2720
ྟག་	-2721
ྲལ་	-2722
▁།ཆ	-2723
▁།ཞ	-2724
▁།ཡ	-2725
▁༡༣	-2726
▁༡༥	-2727
▁༢༡	-2728
▁༢༦	-2729
▁༦༠	-2730
▁ཁང	-2731
▁གི	-2732
▁ཅན	-2733
▁ཊ་	-2734
▁ཏུ	-2735
▁ཏྲ	-2736
▁མི	-2737
▁མོ	-2738
▁ཞུ	-2739
▁ལྐ	-2740
▁ཤཱ	-2741
▁སི	-2742
▁སྩ	-2743
།མི་	-2744
༡ཟླ་	-2745
༢༠༠༨	-2746
༩ཡི་	-2747
ཀྱི་	-2748
གནད་	-2749
གནམ་	-2750
གཟི་	-2751
གསང་	-2752
དཀའ་	-2753
དྲག་	-2754
པྟེ་	-2755
ཕྲན་	-2756
བདག་	-2757
བའི་	-2758
བརྡ་	-2759
བཤད་	-2760
མངའ་	-2761
མངལ་	-2762
ཚགས་	-2763
ཟུག་	-2764
འགན་	-2765
འདུ་	-2766
འཛད་	-2767
ཡིད་	-2768
ཡོང་	-2769
ཡོད་	-2770
རཔོ་	-2771
རེབ་	-2772
རྐང་	-2773
རྒན་	-2774
རྟག་	-2775
རྟན་	-2776
ལོར།	-2777
ལྷོ་	-2778
སྐལ་	-2779
སྔོ་	-2780
སྨན་	-2781
ཧོར་	-2782
ུམས་	-2783
ེབས།	-2784
ོགཔ་	-2785
▁།ཁ་	-2786
▁།ཁྱ	-2787
▁།གླ	-2788
▁།དམ	-2789
▁།བཅ	-2790
▁།ལ་	-2791
▁།ས་	-2792
▁།སྐ	-2793
▁།སྨ	-2794
▁ཀེ་	-2795
▁ཀྱང	-2796
▁ཀྱི	-2797
▁ཁར།	-2798
▁གྷ་	-2799
▁ངམ།	-2800
▁ཅལ་	-2801
▁ཆར།	-2802
▁ཆུང	-2803
▁ཇུ་	-2804
▁ཇོ་	-2805
▁ཊར་	-2806
▁ཏུ།	-2807
▁ཐོག	-2808
▁དན་	-2809
▁དེབ	-2810
▁དོ།	-2811
▁པ།མ	-2812
▁པང་	-2813
▁པད་	-2814
▁ཕས་	-2815
▁བབ།	-2816
▁མག་	-2817
▁མས།	-2818
▁མེད	-2819
▁ཙི་	-2820
▁ཚི་	-2821
▁ཞར་	-2822
▁ཞི།	-2823
▁འཕྱ	-2824
▁ཡལ་	-2825
▁ཡི།	-2826
▁རར་	-2827
▁རྩྭ	-2828
▁རྫ་	-2829
▁ལ།།	-2830
▁ལད་	-2831
▁ལཱ་	-2832
▁ལོ།	-2833
▁སྐ་	-2834
▁སྟ་	-2835
▁སྤ་	-2836
▁སྭ་	-2837
▁ཧུ་	-2838
▁ཨིན	-2839
།ཞེས་	-2840
༦ལོར་	-2841
ཁྱུང་	-2842
གཞིས་	-2843
གསུང་	-2844
གྲངས་	-2845
གྲུབ་	-2846
གླེང་	-2847
དཀྱི་	-2848
དགུང་	-2849
དགོས་	-2850
དཔོན་	-2851
དབྱར་	-2852
ཕྱུག་	-2853
ཕྱུར་	-2854
བརྩེ་	-2855
བསིལ་	-2856
མཐེབ་	-2857
འཕགས་	-2858
འབོལ་	-2859
རྒྱང་	-2860
རྒྱས་	-2861
རྙིང་	-2862
རྟེན་	-2863
ལེགས་	-2864
ལྕགས་	-2865
སྐྱོ་	-2866
སྟོང་	-2867
ུགསྐར	-2868
▁།ཁེ་	-2869
▁།ཁོ་	-2870
▁།ངལ་	-2871
▁།ཇོ་	-2872
▁།ཏང་	-2873
▁།ཞི་	-2874
▁།ལས་	-2875
▁༡༩༥༩	-2876
▁༡༩༦༠	-2877
▁༢༠༡༠	-2878
▁༢༠༡༢	-2879
▁༣༤པ་	-2880
▁ཀིརྟ	-2881
▁ཀྱཱ་	-2882
▁ཀྲོ་	-2883
▁ཁུང་	-2884
▁ཁེར་	-2885
▁གཅིག	-2886
▁གཏན།	-2887
▁གཞི།	-2888
▁གཡག་	-2889
▁གྱལ་	-2890
▁གྱིས	-2891
▁གྲག་	-2892
▁ངོམ་	-2893
▁ཅིས་	-2894
▁ཅོག་	-2895
▁ཆགས།	-2896
▁ཆབས་	-2897
▁ཆོས།	-2898
▁ཉིས་	-2899
▁ཊོམ་	-2900
▁ཏིང་	-2901
▁ཏེན་	-2902
▁ཐེངས	-2903
▁ཐེན་	-2904
▁ཐེམ་	-2905
▁དགའ།	-2906
▁དིང་	-2907
▁དོང་	-2908
▁ན།ང་	-2909
▁ནངས་	-2910
▁ནཱི་	-2911
▁ནིང་	-2912
▁ནུག་	-2913
▁པོལ་	-2914
▁ཕུང་	-2915
▁ཕོན་	-2916
▁ཕྱུར	-2917
▁བ།སྤ	-2918
▁བཏབ།	-2919
▁བདར་	-2920
▁བཙལ་	-2921
▁བའམ།	-2922
▁བཤུ་	-2923
▁བསྐྲ	-2924
▁བོན།	-2925
▁བྱུ་	-2926
▁བླུན	-2927
▁མངག་	-2928
▁མནན་	-2929
▁མཱོ་	-2930
▁མུན་	-2931
▁མོས།	-2932
▁ཚིལ་	-2933
▁ཚོམ་	-2934
▁ཟའི་	-2935
▁ཟོང་	-2936
▁ཟོན་	-2937
▁འཇོག	-2938
▁འཐུ་	-2939
▁འདང་	-2940
▁འཕང་	-2941
▁འབག་	-2942
▁འབམ་	-2943
▁འབའ་	-2944
▁འབུ་	-2945
▁འཚང་	-2946
▁འཛད་	-2947
▁ཡེར་	-2948
▁རེབ་	-2949
▁རོ།།	-2950
▁རྒྱུ	-2951
▁རྔམ་	-2952
▁རྫི་	-2953
▁ལཱན་	-2954
▁ལོད་	-2955
▁ལོས་	-2956
▁ཤེད་	-2957
▁ཤེར་	-2958
▁ཤོམ་	-2959
▁ཤོར།	-2960
▁སིང་	-2961
▁སྡང་	-2962
▁སྣར་	-2963
▁སྤར་	-2964
▁སྦས་	-2965
▁སྨི་	-2966
▁སླེ་	-2967
▁ཧྲེ་	-2968
▁ཨཱམ་	-2969
▁ཨེར་	-2970
།།ཕྱི་	-2971
།རྗེས་	-2972
།སེམས་	-2973
ཀྲུའུ་	-2974
གསཡིན་	-2975
དམིགས་	-2976
ཕྱུགས་	-2977
མཆིམས་	-2978
འཕྲོད་	-2979
འབྲོག་	-2980
ལ།ཉིད་	-2981
▁།གོང་	-2982
▁།དཔལ་	-2983
▁།དེབ་	-2984
▁།བོན་	-2985
▁།མགོ་	-2986
▁།མཉམ་	-2987
▁།མཐར་	-2988
▁།མཚོ་	-2989
▁།འདི་	-2990
▁།ཡིན་	-2991
▁།རྒན་	-2992
▁།རྣམ་	-2993
▁༥ཉིན་	-2994
▁༥ཚེས་	-2995
▁༦ཚེས་	-2996
▁༨ཚེས་	-2997
▁ཀྱང་།	-2998
▁ཀྱོག་	-2999
▁ཁྲིད།	-3000
▁ཁྲེང་	-3001
▁ཁྲོལ་	-3002
▁ཁྲོས་	-3003
▁གཅོད།	-3004
▁གདུས་	-3005
▁གནངམ་	-3006
▁གཡེར་	-3007
▁གསུབ་	-3008
▁གྲོན་	-3009
▁ངགལོ་	-3010
▁ཅིང་།	-3011
▁ཏཔྟེ་	-3012
▁དགའ།།	-3013
▁དགོང་	-3014
▁དགྱེ་	-3015
▁དེའང་	-3016
▁དྲགས་	-3017
▁དྲིས།	-3018
▁དྲོར་	-3019
▁དྲོར།	-3020
▁པ།མི་	-3021
▁པ།རྟ་	-3022
▁པཞེས་	-3023
▁ཕུའི་	-3024
▁ཕུའུ་	-3025
▁ཕྱིང་	-3026
▁ཕྱིར།	-3027
▁བ།རང་	-3028
▁བཀྲལ་	-3029
▁བཅངས་	-3030
▁བཏོད་	-3031
▁བཏོན།	-3032
▁བདུག་	-3033
▁བའོ།།	-3034
▁བརྙས་	-3035
▁བརྩམ་	-3036
▁བྱུང།	-3037
▁བྱོན།	-3038
▁བྷོད་	-3039
▁མགྲིན	-3040
▁མངགས་	-3041
▁མཆིས་	-3042
▁མཆིས།	-3043
▁མཐིལ་	-3044
▁མཐུན།	-3045
▁མཐེབ་	-3046
▁མེའི་	-3047
▁མྱངས་	-3048
▁ཙུའུ་	-3049
▁ཚུའི་	-3050
▁ཝུའུ་	-3051
▁ཟླའི་	-3052
▁ཟློག་	-3053
▁འགུག་	-3054
▁འདིར།	-3055
▁འདུག།	-3056
▁འབུམ།	-3057
▁འབེན་	-3058
▁འབོལ་	-3059
▁འཚིག་	-3060
▁འཛིན།	-3061
▁རེངས་	-3062
▁རེད།ཆ	-3063
▁རྒོན་	-3064
▁རྒྱལ།	-3065
▁རྗིན་	-3066
▁རྙིལ་	-3067
▁རྙེད།	-3068
▁རྡུམ་	-3069
▁རྩུབ་	-3070
▁རྩེན་	-3071
▁རྩེར་	-3072
▁རྩེས་	-3073
▁རྫུན་	-3074
▁ལ།ཁོ་	-3075
▁ལེགས།	-3076
▁ལྐོག་	-3077
▁ལྗིད་	-3078
▁ལྡིང་	-3079
▁ལྡོང་	-3080
▁ལྷགས་	-3081
▁ཤུབས་	-3082
▁སེའི་	-3083
▁སྐོམ་	-3084
▁སྐྱར་	-3085
▁སྐྲག་	-3086
▁སྒུག་	-3087
▁སྒུར་	-3088
▁སྒུལ་	-3089
▁སྒྱེ་	-3090
▁སྔའི་	-3091
▁སྡིག་	-3092
▁སྣའི་	-3093
▁སྤངས་	-3094
▁སྤོང་	-3095
▁སྦིར་	-3096
▁སྦོམ་	-3097
▁སྨྱན་	-3098
▁སྲིབ་	-3099
▁སྲིབ།	-3100
▁ཧྲུལ་	-3101
▁ཨྱོན་	-3102
▁།ཁྱོན་	-3103
▁།དབུལ་	-3104
▁།དབུས་	-3105
▁།དེའི་	-3106
▁།བརྟན་	-3107
▁།རྩོམ་	-3108
▁།སེམས་	-3109
▁།སྐྱེ་	-3110
▁༡༠པའི་	-3111
▁༡༠ཚེས་	-3112
▁ཀིརྟི་	-3113
▁ཁྲིའི་	-3114
▁ཁྲུའུ་	-3115
▁གཏུགས་	-3116
▁གཙིགས་	-3117
▁གཟིགས།	-3118
▁གཟུངས་	-3119
▁གླིང་།	-3120
▁ཏེ།དེ་	-3121
▁དཀརཔོ་	-3122
▁དཀྲོལ་	-3123
▁དགུའི་	-3124
▁དཔྱིད་	-3125
▁དབྱེར་	-3126
▁པ།ཆོས་	-3127
▁བཀླགས་	-3128
▁བགྲེས་	-3129
▁བཙུགས།	-3130
▁བརྗེས་	-3131
▁བརླིང་	-3132
▁བསྐོས་	-3133
▁བསྣམས་	-3134
▁འགུགས་	-3135
▁འགེབས་	-3136
▁འགྱངས་	-3137
▁འདྲེས།	-3138
▁འཕྲོག་	-3139
▁འཕྲོས།	-3140
▁ཡོད།དྲ	-3141
▁རྒྱུད།	-3142
▁ལ།འདི་	-3143
▁ལས།དེ་	-3144
▁ལྡེབས་	-3145
▁སྐུའི་	-3146
▁སྐྱའི་	-3147
▁སྐྲངས་	-3148
▁སྒྲིབ་	-3149
▁སྤྲོད།	-3150
▁སྤྲོས་	-3151
▁སྦྱངས།	-3152
▁སྦྲགས་	-3153
▁།ཁྲིམས་	-3154
▁།རྒྱུན་	-3155
▁༢༠༡༧ཟླ་	-3156
▁ཆོགའདི་	-3157
▁ཏེ།ཡུལ་	-3158
▁ན།རྒྱལ་	-3159
▁ནི།བཙན་	-3160
▁པ།རྒྱལ་	-3161
▁པ།སེམས་	-3162
▁པ།སློབ་	-3163
▁ཕྲུགསྐར	-3164
▁བརྗེའི་	-3165
▁བརྩེའི་	-3166
▁བསྐོངས་	-3167
▁བསྒྲོན་	-3168
▁བསྲེགས་	-3169
▁མེད།དེ་	-3170
▁ཟད།བོད་	-3171
▁ཟླ༡༢ཚེས	-3172
▁འཁྲིལཝ་	-3173
▁འགྲིགས་	-3174
▁འགྲོའི་	-3175
▁འབྲིའི་	-3176
▁ཡིགགསར་	-3177
▁ཡིན།ངས་	-3178
▁ལ།ཁྱེད་	-3179
▁ལོལོའི་	-3180
▁སྐྱོགས་	-3181
▁སྒྲིགས་	-3182
▁སྟེ།མི་	-3183
▁ཀིརྟིའི་	-3184
▁ཁགའགྱུར་	-3185
▁ཚན།རིགས་	-3186
▁འགྱུར།ཡ་	-3187
▁འདུགཅེས་	-3188
▁ཡིགདཔྱད་	-3189
▁ཡིན།ཞེས་	-3190
▁ཡིན།ཡིན་	-3191
▁ཡོད།དེར་	-3192
▁རྩོམ།པར་	-3193
▁གིས།ཀྲུང་	-3194
▁མཁན།གླིང་	-3195
▁མཛོད།བཅར་	-3196
▁ཞིགལ།ཉིད་	-3197
▁ཟླཚེསཉིན་	-3198
▁འདྲི།མགོ་	-3199
▁འཕྲིན།ཟླ་	-3200
▁ཡིན།དགོན་	-3201
▁ཡོད།ཀྲུང་	-3202
▁རྩོམ།ཤེས་	-3203
▁རྩོམ།སྙན་	-3204
▁ལྗོངས།ཐད་	-3205
▁སྙམ།དེའི་	-3206
▁སྟེགསཡིན་	-3207
▁ཁུངས།ཀྲུང་	-3208
▁བཞེངས།ཁོང་	-3209
▁བརྗོད།གསར་	-3210
▁འདེམས།གངས་	-3211
▁སྟེགས།གསར་	-3212
▁སྲིབ།དཔྱད་	-3213
▁འགྱུར།ཀྲུང་	-3214
།༦	-3215
།༧	-3216
༠༤	-3217
༡༣	-3218
༢༠	-3219
༢༦	-3220
༣༨	-3221
༣བ	-3222
༤༣	-3223
༤༥	-3224
༤༧	-3225
༥༠	-3226
༦༢	-3227
༧༢	-3228
༧༤	-3229
༨།	-3230
༨༣	-3231
༨ས	-3232
གཅ	-3233
གཉ	-3234
ཅ་	-3235
ཊ་	-3236
དྭ	-3237
བཀ	-3238
བཞ	-3239
མན	-3240
ཝི	-3241
ཟ་	-3242
འང	-3243
འཐ	-3244
རྣ	-3245
སྲ	-3246
ཧ་	-3247
ཧྲ	-3248
ཱར	-3249
ཱི	-3250
ུབ	-3251
ེན	-3252
ེའ	-3253
ོང	-3254
ོར	-3255
ྒ་	-3256
ྒྲ	-3257
ྦ་	-3258
།ལྷ	-3259
༠༠༠	-3260
༠༡་	-3261
༠༡༨	-3262
༠༤༡	-3263
༤༧༠	-3264
ཀེ་	-3265
ཁང་	-3266
ཁམ་	-3267
གག་	-3268
གཔ་	-3269
ངན་	-3270
ཆད་	-3271
ཐག་	-3272
ཐལ་	-3273
ཐེ་	-3274
དཝ་	-3275
དུ་	-3276
ན།ཧ	-3277
ནར་	-3278
པའི	-3279
པི་	-3280
བགྲ	-3281
བརྗ	-3282
བརྩ	-3283
ཙན་	-3284
ཝི་	-3285
འཁྲ	-3286
འང།	-3287
ཡན་	-3288
ལ།།	-3289
ལང་	-3290
ལི་	-3291
ལྟ་	-3292
སོ་	-3293
སྣ་	-3294
སྦྱ	-3295
ཨི་	-3296
ཨོ་	-3297
ཱར་	-3298
ཱཤ་	-3299
༡༡༧	-3300
༡༨༩	-3301
༦༣༥	-3302
༧༥།	-3303
ི།ཏ	-3304
ིད།	-3305
ིི་	-3306
ྔས་	-3307
ྕི་	-3308
ྲས་	-3309
▁།ཀ	-3310
▁༠༧	-3311
▁༠༨	-3312
▁༠༩	-3313
▁༡༤	-3314
▁༢༨	-3315
▁༢༽	-3316
▁༣།	-3317
▁༣༡	-3318
▁༤༠	-3319
▁༥༠	-3320
▁༧༠	-3321
▁ཀི	-3322
▁གར	-3323
▁ཆ།	-3324
▁ནི	-3325
▁པར	-3326
▁པས	-3327
▁མེ	-3328
▁ཙ་	-3329
▁ཚ།	-3330
▁ཞ་	-3331
▁ཡང	-3332
▁རཱ	-3333
▁ལུ	-3334
▁ཤག	-3335
▁སེ	-3336
▁ཨུ	-3337
།གལ་	-3338
།དམ་	-3339
།ཡང་	-3340
།རང་	-3341
༡༩༥༩	-3342
༢༠༡༦	-3343
༢༠༡༧	-3344
༢དང་	-3345
༢ནས་	-3346
༢བར་	-3347
༨༨༢༣	-3348
ཀོན་	-3349
ཀླུ་	-3350
ཁྱད་	-3351
གཞས་	-3352
གཟའ་	-3353
གཡར་	-3354
གཤར་	-3355
གུས་	-3356
གྲུ་	-3357
གྲྭ་	-3358
གླུ་	-3359
ངགི་	-3360
ངམོ་	-3361
ངེད།	-3362
ཉམས་	-3363
ཐབས་	-3364
ཐའེ་	-3365
ཐུན་	-3366
ཐེག་	-3367
ཐོད་	-3368
དམོ་	-3369
དུང་	-3370
དོང་	-3371
བཟི་	-3372
བསང་	-3373
བསྐྱ	-3374
བསྒྲ	-3375
བུད་	-3376
བོད།	-3377
བྱས་	-3378
བྷང་	-3379
བྷར་	-3380
མཁའ་	-3381
མིང་	-3382
མྱི་	-3383
ཚུན་	-3384
ཚོན་	-3385
ཞིག་	-3386
ཟིན་	-3387
འགོ་	-3388
འཆར་	-3389
འཆར།	-3390
ཡིན།	-3391
རེས་	-3392
རྣག་	-3393
རྩྭ་	-3394
ལགས་	-3395
ལྕེ་	-3396
ཤེལ་	-3397
སེར་	-3398
སྐར་	-3399
རྨཤ	-3400
༽ལས།	-3401
གདན་	-3402
མནན་	-3403
མྦྷ་	-3404
འཐབ་	-3405
འཚང་	-3406
ལྡད་	-3407
སྔར་	-3408
སྙད་	-3409
སྟག་	-3410
ི།ད་	-3411
ུབས།	-3412
ུའེ་	-3413
ོདཔ་	-3414
ོབས།	-3415
ོའམ་	-3416
ྟོད་	-3417
ྲཱི་	-3418
ྲོང་	-3419
▁།།ར	-3420
▁།༡༩	-3421
▁།ཀྲ	-3422
▁།གཡ	-3423
▁།གས	-3424
▁།ཆ་	-3425
▁།བཀ	-3426
▁།བཟ	-3427
▁།མཆ	-3428
▁།མཛ	-3429
▁།རྨ	-3430
▁།རྫ	-3431
▁།སྦ	-3432
▁།ཧ་	-3433
▁༢༡༤	-3434
▁༢ས་	-3435
▁༩༠༠	-3436
▁ཀཱ་	-3437
▁ཁཱ་	-3438
▁ཁུལ	-3439
▁གངྒ	-3440
▁གན་	-3441
▁གཞས	-3442
▁གཞི	-3443
▁གས་	-3444
▁གི།	-3445
▁གྱི	-3446
▁གྲི	-3447
▁ངེ་	-3448
▁ངྷ་	-3449
▁ཅན།	-3450
▁ཅོ་	-3451
▁ཆ།ས	-3452
▁ཆི་	-3453
▁ཆེན	-3454
▁ཉག་	-3455
▁ཊེ་	-3456
▁ཏན།	-3457
▁ཐན།	-3458
▁ཐམ་	-3459
▁ཐི་	-3460
▁ཐུག	-3461
▁ཐུབ	-3462
▁ཐོ།	-3463
▁དགེ	-3464
▁དར།	-3465
▁དཱ་	-3466
▁དི་	-3467
▁དྲག	-3468
▁ནར་	-3469
▁པ།ཉ	-3470
▁པདྨ	-3471
▁བཀྱ	-3472
▁བད་	-3473
▁བདེ	-3474
▁བམ།	-3475
▁བས།	-3476
▁མ།།	-3477
▁མགོ	-3478
▁མད་	-3479
▁ཙག་	-3480
▁ཚིག	-3481
▁ཛི་	-3482
▁ཝས་	-3483
▁ཟང་	-3484
▁འཆར	-3485
▁འདི	-3486
▁འི་	-3487
▁འི།	-3488
▁འོ་	-3489
▁ཡ།ས	-3490
▁ཡས།	-3491
▁ཡིན	-3492
▁ཡིས	-3493
▁རབས	-3494
▁རམ།	-3495
▁རེད	-3496
▁རྭ་	-3497
▁ལི།	-3498
▁ལོ༡	-3499
▁ཤིག	-3500
▁སན་	-3501
▁སམ།	-3502
▁སུཏ	-3503
▁ཧང་	-3504
▁ཧམ་	-3505
▁ཨཱ་	-3506
།༧༠༡༨	-3507
།གཟི་	-3508
།བསེ་	-3509
།བོན་	-3510
།རྣམ་	-3511
།སངས་	-3512
།སྟག་	-3513
༠༠ལས་	-3514
༡༨༩༣༨	-3515
༡ཉིན་	-3516
༥ཉིན་	-3517
༧༥།༩༢	-3518
༧༥ཐད་	-3519
༨ལོར་	-3520
༩༨༨༢༣	-3521
༸གོང་	-3522
༽འདི་	-3523
ཁྲོམ་	-3524
གཅིག་	-3525
གཏོང་	-3526
གཙུག་	-3527
གཞོན་	-3528
གྲགས་	-3529
གྲིན་	-3530
ཏུའུ་	-3531
ད།དེ་	-3532
དགུན་	-3533
དབུལ་	-3534
བགྲོ་	-3535
བཟོད་	-3536
བརྒལ་	-3537
བསོད་	-3538
བྱམས་	-3539
བློན་	-3540
མངོན་	-3541
མདུང་	-3542
མཛེས་	-3543
མིའི་	-3544
འགུལ་	-3545
འགྲན་	-3546
འཇུག་	-3547
འདྲི་	-3548
འདྲེ་	-3549
འཕེལ་	-3550
འབྲི་	-3551
རྐོང་	-3552
རྒོད་	-3553
རྒྱབ་	-3554
རྗེས་	-3555
རྟགས་	-3556
རྩེད་	-3557
རྫོང་	-3558
སོགས་	-3559
སྔགས་	-3560
▁།ཁམ་	-3561
▁།གང་	-3562
▁།ངོ་	-3563
▁།ཆབ་	-3564
▁།དཀྱ	-3565
▁།དར་	-3566
▁།དྲ་	-3567
▁།ཕན་	-3568
▁།མང་	-3569
▁།ཚན་	-3570
▁།ཡི་	-3571
▁།རི་	-3572
▁།རྨ་	-3573
▁།ལག་	-3574
▁།སྒྲ	-3575
▁།ཨུ་	-3576
▁།ཨེ་	-3577
▁༡༩༨༩	-3578
▁༢༠༠༧	-3579
▁༢༠༡༥	-3580
▁༤བར་	-3581
▁༽དྲ་	-3582
▁ཀའོ་	-3583
▁ཀུལ་	-3584
▁ཀེར་	-3585
▁ཀོར་	-3586
▁ཀྱིས	-3587
▁ཀྲན་	-3588
▁ཀྲེ་	-3589
▁ཀླན་	-3590
▁ཁུག་	-3591
▁ཁུན་	-3592
▁ཁྱབ།	-3593
▁ཁྲམ་	-3594
▁ཁྲི།	-3595
▁གདའ།	-3596
▁གཙག་	-3597
▁གཞན།	-3598
▁གཞས།	-3599
▁གཞུ་	-3600
▁གཡི་	-3601
▁གསར།	-3602
▁གསུམ	-3603
▁གུད་	-3604
▁གྱར་	-3605
▁གྷན་	-3606
▁ཅིག།	-3607
▁ཅིབ་	-3608
▁ཅིམ་	-3609
▁ཅུན་	-3610
▁ཆིག་	-3611
▁ཆིང་	-3612
▁ཆིལ་	-3613
▁ཆུད་	-3614
▁ཉིག་	-3615
▁ཉིལ་	-3616
▁ཉུལ་	-3617
▁ཉོག་	-3618
▁ཉོན།	-3619
▁ཉོས་	-3620
▁ཊིན་	-3621
▁ཊུབ་	-3622
▁ཏོ།།	-3623
▁ཏོག།	-3624
▁ཐིང་	-3625
▁ཐུལ་	-3626
▁ཐོན།	-3627
▁དགས་	-3628
▁དཔྱ་	-3629
▁དབའ་	-3630
▁དབལ་	-3631
▁དབྲ་	-3632
▁དུཁ་	-3633
▁དུལ་	-3634
▁དོས་	-3635
▁དྲུག	-3636
▁དྲོ།	-3637
▁ན།ཁ་	-3638
▁ནའང།	-3639
▁ནའི་	-3640
▁ནི།།	-3641
▁ནོལ་	-3642
▁པ།ད་	-3643
▁པ།ས་	-3644
▁པས།།	-3645
▁པེན་	-3646
▁པོ།ཐ	-3647
▁ཕབས་	-3648
▁ཕུབ་	-3649
▁ཕེང་	-3650
▁ཕོར།	-3651
▁བ།ཐ་	-3652
▁བཀར་	-3653
▁བཅད།	-3654
▁བཅུག	-3655
▁བཙལ།	-3656
▁བའང་	-3657
▁བརང་	-3658
▁བརྐྱ	-3659
▁བརླ་	-3660
▁བཤམ་	-3661
▁བསམ།	-3662
▁བསེ་	-3663
▁བཱང་	-3664
▁བུས་	-3665
▁བེར་	-3666
▁བྲད་	-3667
▁བྲན་	-3668
▁བྷི་	-3669
▁མགུ་	-3670
▁མཆི་	-3671
▁མཇལ།	-3672
▁མའེ་	-3673
▁མཡེ་	-3674
▁མུར་	-3675
▁མེག་	-3676
▁མེན་	-3677
▁མོ།།	-3678
▁མོའི	-3679
▁ཚིམ་	-3680
▁ཚེར་	-3681
▁ཚོགས	-3682
▁ཞིམ་	-3683
▁ཞུ།།	-3684
▁ཞུར་	-3685
▁ཟིན།	-3686
▁ཟོལ་	-3687
▁འཁར་	-3688
▁འགན།	-3689
▁འགར་	-3690
▁འགས་	-3691
▁འཆམ།	-3692
▁འཆི་	-3693
▁འཇབ་	-3694
▁འཇོ་	-3695
▁འཐད་	-3696
▁འདྲ།	-3697
▁འཚབ་	-3698
▁འཚལ།	-3699
▁ཡུར་	-3700
▁རངས་	-3701
▁རདང་	-3702
▁རོན་	-3703
▁རྐུ་	-3704
▁རྐྱ་	-3705
▁རྒལ་	-3706
▁རྒུ་	-3707
▁རྔུ་	-3708
▁རྨེ་	-3709
▁ལ།།ས	-3710
▁ལ།ང་	-3711
▁ལ།ཐ་	-3712
▁ལངས།	-3713
▁ལིག་	-3714
▁ལུན་	-3715
▁ལེབ་	-3716
▁ལེར་	-3717
▁ལོ༡༩	-3718
▁ལོལ་	-3719
▁ལྕག་	-3720
▁ལྕམ་	-3721
▁ལྷོ།	-3722
▁ཤུར་	-3723
▁སིམ་	-3724
▁སིར་	-3725
▁སིལ་	-3726
▁སེན་	-3727
▁སོབ་	-3728
▁སོལ་	-3729
▁སྐབས	-3730
▁སྒམ་	-3731
▁སྟན་	-3732
▁སྟར་	-3733
▁སྣ།ས	-3734
▁སྣག་	-3735
▁སྣས་	-3736
▁སྣེ།	-3737
▁སྦང་	-3738
▁སྦི་	-3739
▁ཧྲང་	-3740
▁ཨེམ་	-3741
།གཅིག་	-3742
།བསོད་	-3743
།རྫིང་	-3744
༡༡༧༦༣༥	-3745
༸རྒྱལ་	-3746
ཀིརྟི་	-3747
གསུངས་	-3748
གསློབ་	-3749
དཀྱུས་	-3750
བཞུགས་	-3751
བརྗོད་	-3752
བསྐྱར་	-3753
མགྲོན་	-3754
འགྲུལ་	-3755
འགྲེལ་	-3756
འཇིགས་	-3757
འཕྲིན་	-3758
འཕྲུལ་	-3759
འབྱུང་	-3760
འབྲེལ་	-3761
འཛུགས་	-3762
རྫོགས་	-3763
སྒྱུར་	-3764
སྒྲུང་	-3765
སྤྲོས་	-3766
ི།གསལ་	-3767
ེསབོད་	-3768
ོགསརང་	-3769
▁།ཁོས་	-3770
▁།གཏན་	-3771
▁།གནད་	-3772
▁།ཉིང་	-3773
▁།ཉེས་	-3774
▁།དགའ་	-3775
▁།དགེ་	-3776
▁།དེས་	-3777
▁།དོན་	-3778
▁།ནོར་	-3779
▁།བཀའ་	-3780
▁།བཅའ་	-3781
▁།བུད་	-3782
▁།མངའ་	-3783
▁།མེས་	-3784
▁།ཚེས་	-3785
▁།ཚོང་	-3786
▁།ཞེས་	-3787
▁།ཡུན་	-3788
▁།ཡུལ་	-3789
▁།ལྷག་	-3790
▁།ཤིན་	-3791
▁།སྐྲ་	-3792
▁།སྙད་	-3793
▁༡༡།༣༠	-3794
▁༡༡དང་	-3795
▁༣ཉིན་	-3796
▁༣ཚེས་	-3797
▁༧དཔལ་	-3798
▁༧སྨན་	-3799
▁༸ཞབས་	-3800
▁ཀུའུ་	-3801
▁ཀྲའུ་	-3802
▁ཀྲིན་	-3803
▁ཀྲོང་	-3804
▁ཀློང་	-3805
▁ཁོངས།	-3806
▁ཁྱུད་	-3807
▁ཁྲའོ་	-3808
▁ཁྲིན་	-3809
▁ཁྲིན།	-3810
▁ཁྲིམས	-3811
▁གཅུང་	-3812
▁གཉོམ་	-3813
▁གདགས་	-3814
▁གདུག་	-3815
▁གདེང་	-3816
▁གཙོར་	-3817
▁གཞུག་	-3818
▁གཞོལ་	-3819
▁གཡེང་	-3820
▁གརརྟ་	-3821
▁གཤོང་	-3822
▁གསེད་	-3823
▁གསེས་	-3824
▁གསོལ།	-3825
▁གེགག་	-3826
▁གེའི་	-3827
▁གྱེར་	-3828
▁གྱེས་	-3829
▁གྱོང་	-3830
▁གྱོད་	-3831
▁གྲབས་	-3832
▁གྲུབ།	-3833
▁གླགས་	-3834
▁གློད་	-3835
▁ངུའི་	-3836
▁ངོགས་	-3837
▁ངོའི་	-3838
▁ཅུའི་	-3839
▁ཅེའི་	-3840
▁ཆོགཔ་	-3841
▁ཉིའི་	-3842
▁ཏུའང་	-3843
▁ཏོའི་	-3844
▁དཔའི་	-3845
▁དམོད་	-3846
▁དུརྫ་	-3847
▁དེ།ང་	-3848
▁དྲེག་	-3849
▁དྷརྨཤ	-3850
▁ན།ཁོ་	-3851
▁ན།ཉེ་	-3852
▁ན།དེ་	-3853
▁ན།རང་	-3854
▁ན།ལམ་	-3855
▁ནའང་།	-3856
▁ནི།ང་	-3857
▁པ།ཆུ་	-3858
▁པ།བུ་	-3859
▁པ།ལས་	-3860
▁པ།ལོ་	-3861
▁པས།ད་	-3862
▁ཕྱེས་	-3863
▁ཕྲོམ་	-3864
▁བ།དར་	-3865
▁བ།དེ་	-3866
▁བ།ལས་	-3867
▁བཀླག་	-3868
▁བཅས།།	-3869
▁བཅོས།	-3870
▁བཏུབ་	-3871
▁བཏུས།	-3872
▁བཙགས།	-3873
▁བཙོང་	-3874
▁བཞིར་	-3875
▁བཞུར་	-3876
▁བཟོས།	-3877
▁བརྕི་	-3878
▁བལྡད་	-3879
▁བཤུས་	-3880
▁བསིལ་	-3881
▁བསྣན་	-3882
▁བེུད་	-3883
▁བྱིལ་	-3884
▁བྲོས་	-3885
▁བླངས།	-3886
▁བླུན་	-3887
▁མ།ཁམ་	-3888
▁མགོར་	-3889
▁མངོན།	-3890
▁མཆིན་	-3891
▁མཚུར་	-3892
▁མུའུ་	-3893
▁མོངས་	-3894
▁ཚིགས།	-3895
▁ཚིམས་	-3896
▁ཚེགས་	-3897
▁ཚེམས་	-3898
▁ཞིནམ་	-3899
▁ཟད།ས་	-3900
▁ཟེགས་	-3901
▁འགའི་	-3902
▁འགེལ་	-3903
▁འགོས་	-3904
▁འགྲིག	-3905
▁འཐུས།	-3906
▁འདུས།	-3907
▁འདོར་	-3908
▁འཕུལ་	-3909
▁འཕེན།	-3910
▁འཕེར་	-3911
▁འབངས་	-3912
▁འབདཝ་	-3913
▁འབུར་	-3914
▁འབེབ་	-3915
▁འབོད།	-3916
▁འབྱར་	-3917
▁འཚོག་	-3918
▁འཚོས་	-3919
▁འཛུག་	-3920
▁འཛེམ་	-3921
▁རྐེད་	-3922
▁རྒུད་	-3923
▁རྒྱན།	-3924
▁རྒྱས།	-3925
▁རྔོག་	-3926
▁རྗེན་	-3927
▁རྗོད་	-3928
▁རྟོན།	-3929
▁རྨེད་	-3930
▁རྩིས།	-3931
▁རྩུབ།	-3932
▁རྩེག་	-3933
▁ལ།ངས་	-3934
▁ལ།མི་	-3935
▁ལིའུ་	-3936
▁ལོ༢༠༠	-3937
▁ལོབས་	-3938
▁ལོའུ་	-3939
▁ལྕུག་	-3940
▁ལྗགས་	-3941
▁ཤམྦྷ་	-3942
▁ཤཟེར་	-3943
▁སོགས།	-3944
▁སྐུང་	-3945
▁སྙེད་	-3946
▁སྟོན།	-3947
▁སྡུད་	-3948
▁སྡེབ།	-3949
▁སྣ།ད་	-3950
▁སྤེལ།	-3951
▁སྤྱང་	-3952
▁སྦྱང་	-3953
▁སྨྲས་	-3954
▁སྩོལ་	-3955
▁སློག་	-3956
▁ཨིན།།	-3957
▁ཨིནམ་	-3958
།།ཀྲུང་	-3959
༧སྐྱབས་	-3960
གས།ངེད་	-3961
བསྒྲིག་	-3962
ུན།ཤོག་	-3963
ེར།བོད་	-3964
▁།།ཞེས་	-3965
▁།ཁོའི་	-3966
▁།ཁྱེད་	-3967
▁།གཞུང་	-3968
▁།གཡུང་	-3969
▁།གཡུལ་	-3970
▁།གྲོང་	-3971
▁།ཐེངས་	-3972
▁།དཔྱད་	-3973
▁།བསྟན་	-3974
▁།མངོན་	-3975
▁།ཚོགས་	-3976
▁།འགྲོ་	-3977
▁།རྒྱུ་	-3978
▁།རྗེས་	-3979
▁།རླུང་	-3980
▁།སྐབས་	-3981
▁།སྟོད་	-3982
▁།སྲིད་	-3983
▁༠༨ཚེས་	-3984
▁༡༡ཉིན་	-3985
▁༡༢ཉིན་	-3986
▁༢༦ཉིན་	-3987
▁༣༠ཉིན།	-3988
▁༧རྒྱལ་	-3989
▁༸རྒྱལ་	-3990
▁ཁྲིགས་	-3991
▁གཅོའུ་	-3992
▁གདེངས་	-3993
▁གཟིངས་	-3994
▁གསོའམ་	-3995
▁གླེགས་	-3996
▁ཆེའོ།།	-3997
▁ཏེ།ལག་	-3998
▁དང་།ང་	-3999
▁དབྱིང་	-4000
▁དབྱུག་	-4001
▁དྲོའི་	-4002
▁ན།ཁོང་	-4003
▁ན།གཞན་	-4004
▁ན།གོང་	-4005
▁ན།བཙན་	-4006
▁ན།འདི་	-4007
▁ནས།ལོ་	-4008
▁ནི།མང་	-4009
▁པ།དཔལ་	-4010
▁པ།དུས་	-4011
▁པ།དོན་	-4012
▁པ།བོད་	-4013
▁པ།ཤོག་	-4014
▁པ།སྐུ་	-4015
▁པས།སྔ་	-4016
▁པོ།མི་	-4017
▁ཕྱོགས།	-4018
▁བཀྲོལ་	-4019
▁བཏུངས་	-4020
▁བརྒྱབ།	-4021
▁བརྒྱར་	-4022
▁བརྗེད་	-4023
▁བརྩམས།	-4024
▁བརྩིག་	-4025
▁བརླབས་	-4026
▁བསུའི་	-4027
▁བསྐམས་	-4028
▁བསྒོམ་	-4029
▁བསྟེན།	-4030
▁བསླུས་	-4031
▁བསླེབ་	-4032
▁བྱ།མི་	-4033
▁བླུགས་	-4034
▁མ།བོད་	-4035
▁མཁོའི་	-4036
▁མཁྱེན།	-4037
▁མཁྲིས་	-4038
▁མཐོང་།	-4039
▁མཚེའུ་	-4040
▁མིན།ང་	-4041
▁མེད།།ག	-4042
▁མེད།ང་	-4043
▁ཚེསཉིན	-4044
▁ཟད།དེ་	-4045
▁འཁུམས་	-4046
▁འཁྲིལ་	-4047
▁འཇོམས་	-4048
▁འཐུའི་	-4049
▁འདི།ད་	-4050
▁འདེབས།	-4051
▁འདོམས་	-4052
▁འཕྲོར་	-4053
▁འབྱིད་	-4054
▁འབྱོན་	-4055
▁འབྱོར།	-4056
▁འབྲངས་	-4057
▁འབྲེལ།	-4058
▁འཚོགས།	-4059
▁ཡིན།ང་	-4060
▁ཡོད།ཁ་	-4061
▁ཡོད།ང་	-4062
▁ཡོད།མ་	-4063
▁ཡོད།ས་	-4064
▁རེད།ང་	-4065
▁རྐྱེན།	-4066
▁རྩིའི་	-4067
▁ལ།ཁོང་	-4068
▁ལ།དེང་	-4069
▁ལ།བོད་	-4070
▁ལ།ཡུལ་	-4071
▁ལ།རིག་	-4072
▁ལ།ལྷག་	-4073
▁ལགས།ང་	-4074
▁ལས།ཡང་	-4075
▁སྐྱུར་	-4076
▁སྒེའུ་	-4077
▁སྒྲགས་	-4078
▁སྤྲིན།	-4079
▁སྦྲགས།	-4080
▁སྨྱིན་	-4081
༠༤༡།༧༠༡༨	-4082
༡༩༥༩ལོར་	-4083
༤༧༠༧༥།༩༢	-4084
ངེད།དཔེ་	-4085
བོད།རྒྱ་	-4086
▁།ཕྱོགས་	-4087
▁།མགྲིན་	-4088
▁།འབྲུག་	-4089
▁།སྒྱུར་	-4090
▁༢༠༡༡ཟླ་	-4091
▁༢༠༡༦ཟླ་	-4092
▁ཁངསློབ་	-4093
▁གནས།མི་	-4094
▁གནས།ལོ་	-4095
▁གྱུར།ཨོ	-4096
▁ཆ།སྲིད་	-4097
▁ཆེ།བཟི་	-4098
▁ཆོས།ཕབ་	-4099
▁ཏེ།ཁོང་	-4100
▁ཏེ།ཆོས་	-4101
▁ཏེ།བོད་	-4102
▁ཏེ།མཉམ་	-4103
▁དང་།མི་	-4104
▁དང་།ཚན་	-4105
▁དང་།ཡང་	-4106
▁དང་།ལོ་	-4107
▁དང་།ལྷ་	-4108
▁དང་གཤར་	-4109
▁དུ།སྐུ་	-4110
▁དུས།ལས་	-4111
▁དེ།བོད་	-4112
▁དེབ།དྲ་	-4113
▁དོན།དེ་	-4114
▁དྲན།ནོ་	-4115
▁དྲན།མང་	-4116
▁ན།སྟོན་	-4117
▁ན།སློབ་	-4118
▁ནགརྒྱལ་	-4119
▁ནས།བོད་	-4120
▁ནས།སྙད་	-4121
▁ནི།དོན་	-4122
▁ནི།བོད་	-4123
▁ནི།མཚོ་	-4124
▁ནི།རྒྱ་	-4125
▁པ།གཞིས་	-4126
▁པ།གཞུང་	-4127
▁པ།དངོས་	-4128
▁པ།རྙིང་	-4129
▁པ།རྩོམ་	-4130
▁པ།སྐོར་	-4131
▁པ།སྤྱི་	-4132
▁པས།བོད་	-4133
▁པས།འདི་	-4134
▁པས།རྒྱ་	-4135
▁པས།རྣམ་	-4136
▁བ།ཀྲུང་	-4137
▁བ།ཀློག་	-4138
▁བདེཞེས་	-4139
▁བཞེདདེ་	-4140
▁བརྒྱའི་	-4141
▁བརྡུངས་	-4142
▁བཤད།དེ་	-4143
▁བསྐྱངས།	-4144
▁བསྐྱོད།	-4145
▁བསྒྲགས།	-4146
▁བསྲུབས་	-4147
▁བསྲེགས།	-4148
▁བསླེབས།	-4149
▁བླུནདེ་	-4150
▁མཛོད།༡༠	-4151
▁མེད།ཕན་	-4152
▁མེདཅེས་	-4153
▁ཚན།གཞས་	-4154
▁ཚིགགསར་	-4155
▁ཟད།དུས་	-4156
▁ཟེར།དེ་	-4157
▁ཟེར།རང་	-4158
▁འཁྲིའི་	-4159
▁འགྲོགས་	-4160
▁འཇོགགི་	-4161
▁འདུགགང་	-4162
▁ཡིན།ཉེ་	-4163
▁ཡིན།ལོ་	-4164
▁ཡོད།གལ་	-4165
▁རེད།ཉེ་	-4166
▁རེད།ཡང་	-4167
▁རེད།ལོ་	-4168
▁ལ།གཞུང་	-4169
▁ལ།དགོན་	-4170
▁ལ།རྒྱལ་	-4171
▁ལྟར།ཟླ་	-4172
▁སྐྱོའི་	-4173
▁སྟེ།དེ་	-4174
༢༠༠༨ལོའི་	-4175
▁༢༠༠༨ལོར་	-4176
▁༢༠༡༨ཕྱི་	-4177
▁ཁྲོད།མི་	-4178
▁གསལ།ཚེས་	-4179
▁གྲས།རྣག་	-4180
▁ངོས།གསར་	-4181
▁ངོས།མགོ་	-4182
▁ཏེ།དཔེར་	-4183
▁ཏེ།རྒྱལ་	-4184
▁ཏེ།སློབ་	-4185
▁ཐབས།ཉིན་	-4186
▁ཐུབ།བོད་	-4187
▁དགོས།གལ་	-4188
▁དང་།བོད་	-4189
▁དུས།ཡོང་	-4190
▁དེབ།དེང་	-4191
▁དེབ།བཀའ་	-4192
▁དེབ།མཁས་	-4193
▁དེབ།རིག་	-4194
▁དེབ།ཤེས་	-4195
▁ནས།རྒྱལ་	-4196
▁ནུས།མངལ་	-4197
▁ནོ།།ཞེས་	-4198
▁པ།ཕྱོགས་	-4199
▁པ།འབྲོག་	-4200
▁པའམ།སྐད་	-4201
▁པར།༩༨༨༢༣	-4202
▁པས།བྱིས་	-4203
▁པས།སློབ་	-4204
▁ཕན།གཏོང་	-4205
▁ཕྱིན།ཁོ་	-4206
▁བདགརྩོམ་	-4207
▁བརྙན།ནང་	-4208
▁བསྒྲུབས་	-4209
▁བྱོན།ཚན་	-4210
▁མེད།ཅེས་	-4211
▁མེད།འོན་	-4212
▁མེད།འོས་	-4213
▁ཚེ།ཁྱེད་	-4214
▁ཞི།ཀྲུང་	-4215
▁ཞིང་།དེ་	-4216
▁འདུགགཞན་	-4217
▁འདུགདེས་	-4218
▁འདུགའོན་	-4219
▁འདུགཡིན་	-4220
▁ཡིན།དེང་	-4221
▁ཡིན།བོད་	-4222
▁ཡིན།མཆན་	-4223
▁ཡིན།རྒྱ་	-4224
▁ཡིན།རྗེ་	-4225
▁ཡིན།རྡོ་	-4226
▁ཡིན།ལྷག་	-4227
▁ཡུལ།རྒྱ་	-4228
▁ཡོད།ཁོང་	-4229
▁ཡོད།ཅེས་	-4230
▁ཡོད།དེང་	-4231
▁ཡོད།དྲྭ་	-4232
▁ཡོད།ཡིན་	-4233
▁རིགརྩོམ་	-4234
▁རེད།ཁོས་	-4235
▁རེད།གཞན་	-4236
▁རེད།ཆོལ་	-4237
▁རེད།དེར་	-4238
▁རེད།དེས་	-4239
▁རེད།ཡིན་	-4240
▁རྗེས།རང་	-4241
▁རྟོགསརང་	-4242
▁ལེན།བཀའ་	-4243
▁ལྟར།རིམ་	-4244
▁སྐད།ཡུལ་	-4245
▁སྐོར།དྲ་	-4246
▁སྐྱ།སྟག་	-4247
▁སྟེ།།སོ་	-4248
▁སྟེ།ཁོང་	-4249
▁སྟེ།བོད་	-4250
▁སྣ།སྔོན་	-4251
▁སྲིད།དེ་	-4252
▁སྲིད།ཡང་	-4253
▁༡༩༦༠ལོའི་	-4254
▁གསལ།རྩོམ་	-4255
▁གསུངས།དེ་	-4256
▁གིས།ཕྱིས་	-4257
▁གྱུར།བུམ་	-4258
▁གྱུར།རྗེ་	-4259
▁གྲས།རྩོམ་	-4260
▁ཐུབ།འཇུག་	-4261
▁དགོས།ནུབ་	-4262
▁དེབ།བྱིས་	-4263
▁པའམ།གྲངས་	-4264
▁བ།རྒྱུགས་	-4265
▁བཙགས།རིམ་	-4266
▁བཞུགས།དེ་	-4267
▁བསྟན།བཀའ་	-4268
▁བུ།སྤྱོད་	-4269
▁བྱུང་།དེ་	-4270
▁མང་།རྫིང་	-4271
▁མཆོགའབྲས་	-4272
▁མཛད།ཚོགས་	-4273
▁མིན།དཔོན་	-4274
▁ཚོད།རྩོམ་	-4275
▁འདིར།བོད་	-4276
▁འདུགདཔེར་	-4277
▁འབུམ།བཀའ་	-4278
▁ཡིན།ཁྱེད་	-4279
▁ཡིན།དཔེར་	-4280
▁ཡིན།བྱིས་	-4281
▁ཡིན།སྟོད་	-4282
▁ཡོད།ཐེངས་	-4283
▁ཡོད།བྱིས་	-4284
▁རེད།རྩོམ་	-4285
▁རེད།རླུང་	-4286
▁རེད།སྐབས་	-4287
▁རེད།སྤྱི་	-4288
▁རྗེས།མཆན་	-4289
▁སྐབས།ཁོང་	-4290
▁སྐོར།དབུ་	-4291
▁སྟབས།དེང་	-4292
▁སྟེ།ཀྲུང་	-4293
▁སྟེ།སློབ་	-4294
▁སྡེ།རྩོམ་	-4295
▁སྤྱི།གསལ་	-4296
▁སྲོལ།ཤེས་	-4297
▁སློབ།བཅར་	-4298
༡༡༧༦༣༥གློག་	-4299
▁གྱུར།སྟོང་	-4300
▁ཉིན།ལྗོངས་	-4301
▁དགོན།སྤྱི་	-4302
▁དགོས།ཁྱེད་	-4303
▁དགོས།དེའི་	-4304
▁དགོས།སྤྱི་	-4305
▁དེབ།གསུངས་	-4306
▁དྲན།སྐུའི་	-4307
▁བསྒྱུར།སྣ་	-4308
▁བསྡུས།མཚོ་	-4309
▁འགྱུར།གསར་	-4310
▁འདྲི།བྱིས་	-4311
▁ཡིན།ཀྲུའུ་	-4312
▁རོགས།ཁྱེད་	-4313
▁རྒྱུར།བོད་	-4314
▁རྒྱུར།རྒྱ་	-4315
▁རྩིས།དངུལ་	-4316
▁ཤེས།སྒྲུང་	-4317
▁སྒྲགས།ངེད་	-4318
▁སྤྲོད།ཆེད་	-4319
▁སྦྱངས།བུམ་	-4320
▁༣༠ཉིན།སྤྱི་	-4321
▁དགོས།༸རྒྱལ་	-4322
▁བརྟེན།ཕྱིས་	-4323
▁བསྐྲུན།ཤོག་	-4324
▁བསྒྱུར།རྒྱ་	-4325
▁བསྒྲིགས།ཟླ་	-4326
▁བསྟེན།འབོལ་	-4327
▁བྱུང་།གཅིག་	-4328
▁འགྱུར།བསྟན་	-4329
▁འདྲེས།འདྲེ་	-4330
▁རྒྱུ།ཕྱོགས་	-4331
▁རྩོམ།དབྱིན་	-4332
▁རྩོམ།འཕྲོད་	-4333
▁རྩོམ།རྒྱུན་	-4334
▁སྐོར།སྤྱོད་	-4335
▁སྦྱོར།བསིལ་	-4336
༡༨༩༣༨༠༤༡།༧༠༡༨	-4337
▁བསྒྲིགས།འཆར།	-4338
▁འཕེན།མགྱོགས་	-4339
▁རྒྱུས།སྒྱུར་	-4340
▁སྡེ།ངེད།དཔེ་	-4341
▁འགྱུར།བསྒྱུར་	-4342
▁འགྱུར།བོད།རྒྱ་	-4343
།་	-4344
།༡	-4345
།བ	-4346
༠་	-4347
༠༩	-4348
༡་	-4349
༡༽	-4350
༢༢	-4351
༢༤	-4352
༢༧	-4353
༢༨	-4354
༢༽	-4355
༣༣	-4356
༣ལ	-4357
༤༩	-4358
༥༡	-4359
༥༧	-4360
༥འ	-4361
༦་	-4362
༦༠	-4363
༦༧	-4364
༧ས	-4365
༨༧	-4366
༽ཟ	-4367
ཁ༦	-4368
གྷ	-4369
ངྐ	-4370
ཇི	-4371
ཉ༽	-4372
ཊ།	-4373
ཏྤ	-4374
ན༧	-4375
ནང	-4376
ནཚ	-4377
ནི	-4378
པ།	-4379
པཎ	-4380
བག	-4381
མཚ	-4382
མུ	-4383
མྱ	-4384
ཙ་	-4385
ཞི	-4386
ལྦ	-4387
སག	-4388
སར	-4389
སྙ	-4390
སྣ	-4391
སླ	-4392
ཨྱ	-4393
ིང	-4394
ིད	-4395
ིམ	-4396
ིཝ	-4397
ིལ	-4398
ུད	-4399
གབ	-4400
དེ	-4401
རཕ	-4402
ིར	-4403
ོམ	-4404
ོའ	-4405
ོས	-4406
ྨྱ	-4407
ྭ།	-4408
ྱ་	-4409
ྷོ	-4410
▁ི	-4411
།ང་	-4412
།རྒ	-4413
༠༢༦	-4414
༽དང	-4415
༽ས་	-4416
ཀུ་	-4417
ཁར་	-4418
ཁུ་	-4419
ཁྲ་	-4420
གཉི	-4421
གསྐ	-4422
གུ་	-4423
ངག་	-4424
ངར་	-4425
ཅང་	-4426
ཆང་	-4427
ཉན་	-4428
ཏི་	-4429
དན་	-4430
དམ་	-4431
དུ།	-4432
ན།།	-4433
ནཱ་	-4434
པད་	-4435
པན་	-4436
མན་	-4437
མར་	-4438
ཙག་	-4439
ཚག་	-4440
ཝེ་	-4441
ཞན་	-4442
ཞུ་	-4443
ཟླ༣	-4444
ཡག་	-4445
རས་	-4446
ལད་	-4447
ཤར་	-4448
ས།།	-4449
སལ་	-4450
སི་	-4451
ཧང་	-4452
ཧན་	-4453
ཨར་	-4454
ཱང་	-4455
ཱད་	-4456
ིགཞ	-4457
ེཎ་	-4458
ེེ་	-4459
ོའ་	-4460
ྐང་	-4461
ྔན་	-4462
ྟང་	-4463
ྡེ་	-4464
ྡོ་	-4465
ྣང་	-4466
ྨད་	-4467
ྭོ་	-4468
ླན་	-4469
ློ་	-4470
ྷི་	-4471
▁།༡	-4472
▁།༢	-4473
▁།ན	-4474
▁།ཕ	-4475
▁།ཟ	-4476
▁།ཨ	-4477
▁༢༣	-4478
▁༢༤	-4479
▁༣༩	-4480
▁༤༣	-4481
▁༤༥	-4482
▁༥༧	-4483
▁༧༨	-4484
▁གུ	-4485
▁དོ	-4486
▁པཀ	-4487
▁པན	-4488
▁པྲ	-4489
▁བཛ	-4490
▁མར	-4491
▁ཚན	-4492
▁ཟ།	-4493
▁འོ	-4494
▁ཡག	-4495
▁རེ	-4496
▁རྕ	-4497
▁ལམ	-4498
▁ལཱ	-4499
༢༨༥	-4500
ཆེ་	-4501
ཏུ་	-4502
དལ་	-4503
བོ་	-4504
མལ་	-4505
ཛུ་	-4506
ཞེས	-4507
ཡུ་	-4508
ཤུ་	-4509
ེཕ་	-4510
ྱལ་	-4511
ྲོ་	-4512
▁ཚང	-4513
▁ལྤ	-4514
▁ལྱ	-4515
▁སར	-4516
▁སོ	-4517
▁ཧཱ	-4518
།།ཛ་	-4519
།ཆུ་	-4520
།དང་	-4521
།ཚང་	-4522
།ལས་	-4523
།སྐྱ	-4524
༡ནས་	-4525
༥ནས་	-4526
༦༦༨༣	-4527
༦ནས་	-4528
༩༥ལ་	-4529
༽ཅན་	-4530
༽ཟེ་	-4531
ཁུང་	-4532
ཁོག་	-4533
ཁྱག་	-4534
ཁྱབ་	-4535
གཤམ་	-4536
ངུལ་	-4537
ངྐ།ས	-4538
ཆགས་	-4539
ཇོར་	-4540
ཉེས་	-4541
ཏུར་	-4542
དནང་	-4543
དིང་	-4544
དུས།	-4545
ན།བྷ	-4546
པགས་	-4547
ཕུན་	-4548
བཅད་	-4549
བབས་	-4550
མ།གཙ	-4551
མགར་	-4552
མིན།	-4553
མོང་	-4554
ཙོན་	-4555
ཙོས།	-4556
ཞེང་	-4557
ཟོལ་	-4558
འབར་	-4559
འིའཕ	-4560
ཡུལ།	-4561
རོང་	-4562
རྨང་	-4563
རྩལ་	-4564
ལྷན་	-4565
ལྷམ།	-4566
ཤུག་	-4567
ཧོང་	-4568
ཨའི་	-4569
ཨོར་	-4570
ཨྱོ་	-4571
ིངས།	-4572
ུའང་	-4573
ེལཝ་	-4574
ེས།ཤ	-4575
ེསུ།	-4576
ེསྦ་	-4577
ོན།།	-4578
ོམ།འ	-4579
ོརཔ་	-4580
ྔགས་	-4581
ྗོར་	-4582
ྤྱི་	-4583
ྱོར་	-4584
ྲོལ་	-4585
ློང་	-4586
ྷརྨ་	-4587
▁།གྲ	-4588
▁།ཇ་	-4589
▁།ན་	-4590
▁།ར་	-4591
▁།ལོ	-4592
▁༠༤་	-4593
▁༡༠་	-4594
▁༡༤་	-4595
▁༡༥་	-4596
▁༡༧་	-4597
▁༡༧༦	-4598
▁༡༩༨	-4599
༤༣་	-4600
ཟམ་	-4601
ཤམ་	-4602
▁ཁབ	-4603
▁ཁོ	-4604
▁ནམ	-4605
༣༣ན།	-4606
༦ཟླ་	-4607
ཐིག་	-4608
མིས་	-4609
ཚོར་	-4610
ཞིན་	-4611
ཟིག་	-4612
འོད་	-4613
རིས་	-4614
ཤིན་	-4615
སྦྲ་	-4616
ཨིན་	-4617
ྣོད་	-4618
▁༢༥་	-4619
▁༣ལྷ	-4620
▁༦ལ་	-4621
▁ཁགས	-4622
▁ཁང།	-4623
▁ཁན་	-4624
▁ཁམས	-4625
▁ཁལ་	-4626
▁ཁུ།	-4627
▁གནས	-4628
▁གབ་	-4629
▁གལ།	-4630
▁གསར	-4631
▁གྲོ	-4632
▁ཅཱར	-4633
▁ཅེ།	-4634
▁ཆུ།	-4635
▁ཉང་	-4636
▁ཉས་	-4637
▁ཉིན	-4638
▁ཏར།	-4639
▁དག།	-4640
▁ནོ།	-4641
▁པ།༧	-4642
▁པ།༽	-4643
▁པ།ཧ	-4644
▁པན་	-4645
▁བན་	-4646
▁བའམ	-4647
▁བརྫ	-4648
▁བུམ	-4649
▁བེ་	-4650
▁མམ་	-4651
▁ཙོ་	-4652
▁ཙྭ་	-4653
▁ཚད།	-4654
▁ཞཱ་	-4655
▁ཟམ།	-4656
▁ཟོ་	-4657
▁ཟླ༤	-4658
▁འང་	-4659
▁འུ་	-4660
▁ཡང།	-4661
▁ར།ས	-4662
▁ལ།ཅ	-4663
▁ལ།ཚ	-4664
▁ལགས	-4665
▁ས།༧	-4666
▁སད་	-4667
▁སྙོ	-4668
▁སླ།	-4669
▁ཧད་	-4670
▁ཧེ།	-4671
▁ཧོ་	-4672
▁ཨམ་	-4673
།གཟའ་	-4674
།གྲྭ་	-4675
།འཚང་	-4676
༠༠དང་	-4677
༠༠ནས་	-4678
༢ཉིན།	-4679
༢ལོར་	-4680
༤༥ནས་	-4681
༦༦ལོ་	-4682
༨ཟིན་	-4683
༨སོང་	-4684
༩༥ཅན་	-4685
ཁྲིག་	-4686
གསོད་	-4687
ང།ཚད་	-4688
དབོར་	-4689
དྭགས་	-4690
དྭངས་	-4691
ན།ཟམ་	-4692
ཕྱིར་	-4693
ཕྲིན་	-4694
བཟེར་	-4695
བྱིན་	-4696
བྱེད་	-4697
བྲིས་	-4698
ཚེས༠༩	-4699
༣༣༧	-4700
▁༣ག	-4701
༡༩༣༧	-4702
ཁུལ་	-4703
ཆུང་	-4704
ཐོས་	-4705
ན།པ་	-4706
ནུས་	-4707
མོན་	-4708
ཟངས་	-4709
འཆང་	-4710
ལོས་	-4711
སངས་	-4712
ུརཀ་	-4713
ེརབཅ	-4714
ྱོང་	-4715
ྲེས་	-4716
▁༡༨་	-4717
▁ཟུ་	-4718
༣༣༧༣བ	-4719
༸དཔལ་	-4720
ངས།ད་	-4721
དགོང་	-4722
དོགས་	-4723
ནགཙོ་	-4724
བཙོག་	-4725
འགེང་	-4726
འངལས་	-4727
ཡོངས་	-4728
རཞེས་	-4729
རོགས་	-4730
རྗོད་	-4731
རྡོར་	-4732
རྩོལ་	-4733
ལུགས་	-4734
སྒོར་	-4735
སྙུག་	-4736
སྤེན་	-4737
སྲོལ་	-4738
ི།མི་	-4739
ིགཉན་	-4740
ིགལི་	-4741
ིན།ཁ་	-4742
ིསརང་	-4743
ུ།པེ་	-4744
ེ།ཕར་	-4745
ེ།རོ།	-4746
ེན།ག་	-4747
ེན།ཐ་	-4748
ོ།ཨི་	-4749
ོག།དབ	-4750
ོགསོ་	-4751
ོད།ང་	-4752
ོར།སྤ	-4753
ྐྱེན་	-4754
ྒྱངས་	-4755
▁།།མ་	-4756
▁།ཀོ་	-4757
▁།གོ་	-4758
▁།གླ་	-4759
▁།ནར་	-4760
▁།པི་	-4761
▁།བལ་	-4762
▁།བླ་	-4763
▁།ཚད་	-4764
▁།རྩ་	-4765
▁།ཤི་	-4766
▁།སྔ་	-4767
▁།སྭ་	-4768
▁༡༢།༦	-4769
▁༡༥༤༣	-4770
▁༡༦༠༠	-4771
▁༡༩༥༡	-4772
▁༡ཆབ་	-4773
▁༡ལ།།	-4774
▁༢༠༠༣	-4775
▁༧༨ལ་	-4776
▁༧ལུ་	-4777
▁༩ནང་	-4778
▁༩ལས་	-4779
▁ཀཱོ་	-4780
▁ཀིར་	-4781
▁ཀེར།	-4782
▁ཀོས་	-4783
▁ཀྲུའ	-4784
▁ཁམས།	-4785
▁ཁའང་	-4786
▁ཁོད་	-4787
▁ཁོན་	-4788
▁ཁོབ་	-4789
▁ཁོས་	-4790
▁ཁྱུ་	-4791
▁ཁྲང་	-4792
▁གངྒ་	-4793
▁གཅན་	-4794
▁གཅུ་	-4795
▁གཉེན	-4796
▁གཏམ།	-4797
▁གཏའ་	-4798
▁གཏར་	-4799
ན།ས	-4800
ཅོག་	-4801
ཐེན་	-4802
ཚུལ་	-4803
ཞོར་	-4804
འཛར་	-4805
འོག་	-4806
ལུས་	-4807
ཤེན་	-4808
སུས་	-4809
ྒུལ་	-4810
ྡུས་	-4811
▁༣༥འ	-4812
▁གནང	-4813
▁ཕི་	-4814
▁ཙོ།	-4815
▁འགོ	-4816
▁ཤབ་	-4817
▁ཤམ་	-4818
།བསམ་	-4819
གཅོད་	-4820
▁།བུ་	-4821
▁ཀྱོག	-4822
▁ཁུས་	-4823
▁ཁེན་	-4824
▁གནག་	-4825
▁གནད།	-4826
▁གམས་	-4827
▁གཙི་	-4828
▁གཙོ།	-4829
▁གཟར་	-4830
▁གཟེར	-4831
▁གའམ་	-4832
▁གུག་	-4833
▁གུན་	-4834
▁གེས་	-4835
▁གོག་	-4836
▁གོན་	-4837
▁ངམ།།	-4838
▁ངྷི་	-4839
▁ཅུར་	-4840
▁ཅོན་	-4841
▁ཆའང་	-4842
▁ཇའོ།	-4843
▁ཉོན་	-4844
▁ཏེ།།	-4845
▁ཏེཛ་	-4846
▁ཏོར་	-4847
▁ཐིན་	-4848
▁ཐིས་	-4849
▁ཐེད་	-4850
▁ཐེས་	-4851
▁ཐོད་	-4852
▁དཀར།	-4853
▁དང།ར	-4854
▁དཔལ།	-4855
▁དུཟ་	-4856
▁དུར་	-4857
▁དུསྐ	-4858
▁དེད།	-4859
▁དྲར་	-4860
▁ནི།པ	-4861
▁ནིག་	-4862
▁ནེས་	-4863
▁པ།ཁྲ	-4864
▁པ།ང་	-4865
▁པ།བར	-4866
▁པ།ལ་	-4867
▁པགས་	-4868
▁པའེ།	-4869
▁པའོ་	-4870
▁པའོ།	-4871
▁པིང་	-4872
▁པུར་	-4873
▁པུར།	-4874
▁པུས་	-4875
▁པོས།	-4876
▁ཕིག་	-4877
▁ཕིན་	-4878
▁ཕེན་	-4879
▁ཕོང་	-4880
▁ཕྲི་	-4881
▁བ།ར་	-4882
▁བཀའ།	-4883
▁བགད་	-4884
▁བཅག་	-4885
▁བཅང་	-4886
▁བཙད་	-4887
▁བཞད།	-4888
▁བཞིན	-4889
▁བཞུ་	-4890
▁བཞོ་	-4891
▁བཤའ་	-4892
▁བེམ་	-4893
▁བོད།	-4894
▁བྱ།ས	-4895
▁བྱག་	-4896
▁བྱི་	-4897
▁བྱུང	-4898
▁བྲལ།	-4899
ཐའ་	-4900
ནའ་	-4901
ནས།	-4902
ྲི༽	-4903
▁།ཏ	-4904
མུན་	-4905
ཡུན་	-4906
སྦས་	-4907
ིས།།	-4908
ོོ།།	-4909
▁།ག་	-4910
▁ཏར་	-4911
▁ཐད།	-4912
▁ལའ་	-4913
▁སོག	-4914
▁སྒ་	-4915
༧༤ཙམ་	-4916
གྲོད་	-4917
ེ།ཡར་	-4918
ོད།ཨ་	-4919
▁།ངས་	-4920
▁།ཏཱ་	-4921
▁།ཤར་	-4922
▁ཀོབ་	-4923
▁གཅེས	-4924
▁གཞར་	-4925
▁གླུ།	-4926
▁ཇིག་	-4927
▁ཏིན་	-4928
▁ཏིས་	-4929
▁ཐུར་	-4930
▁དེས།	-4931
▁ནམ།མ	-4932
▁པུན་	-4933
▁བྷཱ་	-4934
▁བྷེ་	-4935
▁མངས།	-4936
▁མཆེ་	-4937
▁མཐརཕ	-4938
▁མཚན།	-4939
▁མཛས་	-4940
▁མཱེ་	-4941
▁མིས།	-4942
▁མུམ་	-4943
▁མེན།	-4944
▁མོག་	-4945
▁མོན་	-4946
▁ཙིག་	-4947
▁ཚམས་	-4948
▁ཚའི་	-4949
▁ཚིས་	-4950
▁ཚུང་	-4951
▁ཚེ།།	-4952
▁ཚེག་	-4953
▁ཚེས།	-4954
▁ཚོལ་	-4955
▁ཝིར་	-4956
▁ཝུན་	-4957
▁ཞེད་	-4958
▁ཞེན།	-4959
▁ཞེས།	-4960
▁ཞོད་	-4961
▁ཞོན་	-4962
▁ཟིག་	-4963
▁ཟིལ་	-4964
▁འགོག	-4965
▁འགྱོ	-4966
▁འགྲོ	-4967
▁འཐག་	-4968
▁འཐུས	-4969
▁འདན་	-4970
▁འདབ་	-4971
▁འདས།	-4972
▁འབྱ་	-4973
▁འཛི་	-4974
▁འོགཧ	-4975
▁འོངས	-4976
▁འོད།	-4977
▁ཡམས་	-4978
▁ཡིགཞ	-4979
▁ཡུས།	-4980
▁ཡེ།ར	-4981
▁ཡེས་	-4982
▁རབས།	-4983
▁རས།།	-4984
▁རུར་	-4985
▁རུས།	-4986
▁རེན།	-4987
▁རྒད་	-4988
▁རྒྱག	-4989
▁རྡི་	-4990
▁རྨས་	-4991
▁རྩིས	-4992
▁རྫབ།	-4993
▁རྫོང	-4994
▁ལ།ས་	-4995
▁ལཱར་	-4996
▁ལུར་	-4997
▁ལེས་	-4998
▁ལོ༡༠	-4999
ན།ཀ	-5000
▁༸ག	-5001
▁ངུ	-5002
༩༢༠༡	-5003
ཇུག་	-5004
དུད་	-5005
མཐོ་	-5006
འབའ་	-5007
ལུག་	-5008
སའུ་	-5009
▁ཉན།	-5010
▁ཊུ་	-5011
▁ན།།	-5012
▁ན།༣	-5013
▁བཞི	-5014
▁ཞན།	-5015
▁ཟེ་	-5016
▁ཡན།	-5017
▁རྩལ	-5018
▁རྩེ	-5019
▁ལིར	-5020
༩༢༠༡༡	-5021
ན།ཀཛ་	-5022
ལོངས་	-5023
▁གནན།	-5024
▁གསན།	-5025
▁ངུར་	-5026
▁ཏྲི་	-5027
▁བེལ་	-5028
▁མེང་	-5029
▁ཚེས༦	-5030
▁ཚོའི	-5031
▁ཟོས་	-5032
▁འཛག་	-5033
▁རིས།	-5034
▁རྨད་	-5035
▁རྩོམ	-5036
▁ལྷུག	-5037
▁ཤངས་	-5038
▁ཤིར་	-5039
▁ཤུབ་	-5040
▁ཤུས་	-5041
▁ཤོང་	-5042
▁ཤོད།	-5043
▁སཱན་	-5044
▁སུག་	-5045
▁སུང་	-5046
▁སེས་	-5047
▁སོན།	-5048
▁སྐོ་	-5049
▁སྒལ་	-5050
▁སྔར།	-5051
▁སྔསག	-5052
▁སྔོན	-5053
▁སྤྱོ	-5054
▁སྦལ་	-5055
▁སྨར་	-5056
▁སྨུ་	-5057
▁སྲད་	-5058
▁སྲབ་	-5059
▁སྲི་	-5060
▁ཧིང་	-5061
▁ཧྲག་	-5062
▁ཧྲཱི	-5063
▁ཧྲུའ	-5064
▁ཨུད།	-5065
▁ཨེབ་	-5066
▁ཨེལ།	-5067
།།ཞེས་	-5068
།ཀྲུང་	-5069
།གཙོས།	-5070
།མཛེས་	-5071
།རྒོད་	-5072
༠༠༠ལས་	-5073
༡༠གདན་	-5074
༡༠ལྷག་	-5075
༡༣བཅས་	-5076
༡༤ཉིན་	-5077
༡༩༣༧༧༤	-5078
༢༠ལྷག་	-5079
༢༽ཤེས་	-5080
༣༧༥ཐད་	-5081
༥༦ལོར་	-5082
༦༣༽ལས།	-5083
༨།དུས་	-5084
༨༣མཚོ་	-5085
༨༩ལོར་	-5086
༨ལོའི་	-5087
༩ལོའི་	-5088
གླེགས་	-5089
ངྐ།སི་	-5090
དགོངས་	-5091
ན།འདི་	-5092
བསྡུས་	-5093
མྦིའི་	-5094
འགྱངས་	-5095
འངལོར་	-5096
འདེམས་	-5097
འིཞེས་	-5098
འིའཐབ་	-5099
▁ཨང	-5100
▁ཨོ	-5101
ཁེད།	-5102
ཆུད་	-5103
ཐིམ་	-5104
འོལ་	-5105
ཡོལ་	-5106
རོལ་	-5107
རྩམ་	-5108
▁།ཤ་	-5109
▁ཏཱར	-5110
▁ཏིག	-5111
▁བྷྲ	-5112
▁མཐོ	-5113
▁མཚོ	-5114
▁ཝི་	-5115
▁ཨབ་	-5116
༤༩ལུ་	-5117
རྒོལ་	-5118
ི།ཏན་	-5119
▁ཁུད་	-5120
▁ཁོལ་	-5121
▁ཇོན་	-5122
▁དུབ་	-5123
▁དོལ་	-5124
▁ནང་།	-5125
▁ཕྱད་	-5126
▁ཕྱར་	-5127
▁མཐུན	-5128
▁མཚང་	-5129
▁མཚལ་	-5130
▁མཚེ་	-5131
▁ཞོལ་	-5132
▁ཡའང་	-5133
▁རི།ད	-5134
▁ལྟག་	-5135
▁ལྟས་	-5136
▁ལྷམ་	-5137
▁ལྷར་	-5138
▁སྒྲུ	-5139
▁སྨོན	-5140
▁ཨུན་	-5141
▁ཨེན་	-5142
འོ།།།།	-5143
ར།བོད་	-5144
རརྒྱལ་	-5145
ལས།ལྷ་	-5146
ས།ཆོས་	-5147
སྒྲིག་	-5148
སྒྲུབ་	-5149
སྒྲོན་	-5150
སྤྲུལ་	-5151
ི།གསོ་	-5152
ུགདུས་	-5153
ུགཟེར་	-5154
ུསདུས་	-5155
ེད།དེ་	-5156
ོད།གར་	-5157
ོར།སྤ་	-5158
ོསཀྱི་	-5159
▁།།རག་	-5160
▁།ཁྲལ་	-5161
▁།གསན་	-5162
▁།གློ་	-5163
▁།ཆོག་	-5164
▁།ཇེན་	-5165
▁།དཔའ་	-5166
▁།དཔེ་	-5167
▁།དབུ་	-5168
▁།དམག་	-5169
▁།དེར་	-5170
▁།མཁོ་	-5171
▁།མདང་	-5172
▁།མོས་	-5173
▁།ཞའོ་	-5174
▁།ཞིབ་	-5175
▁།ཟུར་	-5176
▁།འགན་	-5177
▁།འཚོ་	-5178
▁།རིན་	-5179
▁།རྡོ་	-5180
▁།རྨང་	-5181
▁།ཤེར་	-5182
▁།སེང་	-5183
▁།སྒོ་	-5184
▁༠༩ཚེས	-5185
▁༡༠ནང་	-5186
▁༡༠ཙམ་	-5187
▁༡༡གི་	-5188
▁༡༢༠༢༦	-5189
▁༡༢བར་	-5190
▁༡ཆེད་	-5191
▁༡ཉིན་	-5192
▁༢༠ནང་	-5193
▁༢༡གི་	-5194
▁༢ཉིན་	-5195
▁༣༡བར་	-5196
▁༤རིང་	-5197
▁༥གཞི་	-5198
▁༦༥ནས་	-5199
༩ནས་	-5200
དགག་	-5201
དཔག་	-5202
ཡུམ་	-5203
སུམ་	-5204
ེ།བྲ	-5205
ོོམ་	-5206
▁ཁོག	-5207
▁གླུ	-5208
▁དམག	-5209
▁ན།ཕ	-5210
▁བཟླ	-5211
༣ཉིན་	-5212
འདིས་	-5213
▁༢ལ།།	-5214
▁༧ནས་	-5215
▁ཀེང་	-5216
▁ཁང་།	-5217
▁ཁྱོ་	-5218
▁གྲངས	-5219
▁གླེ་	-5220
▁ཅིན།	-5221
▁ཆོད།	-5222
▁ནམཨ་	-5223
▁བཀང་	-5224
▁བཀབ་	-5225
▁བདའ་	-5226
▁བཟར་	-5227
▁མཁུ་	-5228
▁ཟོམ་	-5229
▁འཁང་	-5230
▁རྗན་	-5231
▁རྗི་	-5232
▁ལེང་	-5233
༡༥ལོར་	-5234
༢༠བོད་	-5235
༤༥ཐོག་	-5236
བ།རྒྱ་	-5237
མ།བཤད་	-5238
ེ།བྲན་	-5239
ོམཆོད་	-5240
▁༡༤ནས་	-5241
▁༤༢ནས་	-5242
▁༦ཉིན་	-5243
▁༧གདན་	-5244
▁ཀུའེ་	-5245
▁ཀོའི་	-5246
▁ཀྲུག་	-5247
▁ཀྲོན་	-5248
▁ཁུགས་	-5249
▁ཁུའི་	-5250
▁ཁྱམས་	-5251
▁ཁྲའི་	-5252
▁ཁྲི༥༧	-5253
▁ཁྲིལ་	-5254
▁ཁྲུང་	-5255
▁ཁྲུན།	-5256
▁གཅིན་	-5257
▁གཅུན་	-5258
▁གཅེན་	-5259
▁གཅོག་	-5260
▁གཉན།།	-5261
▁གཏོད།	-5262
▁གཏོལ་	-5263
▁གཙོས།	-5264
▁གཞིག་	-5265
▁གཞིཆ་	-5266
▁གཞུང།	-5267
▁གཞུས་	-5268
▁གཞེས་	-5269
▁གཞོག་	-5270
▁གཞོན།	-5271
▁གསིག་	-5272
▁གསིང་	-5273
▁གསོབ་	-5274
▁གསོར་	-5275
▁གིའི་	-5276
▁གྱེན་	-5277
▁གྱེལ་	-5278
▁གྲུང་	-5279
▁གྲོད་	-5280
▁གློང་	-5281
▁གྷིང་	-5282
▁ངོམས་	-5283
▁ཅི།ཇི	-5284
▁ཅིའི་	-5285
▁ཇུའི་	-5286
▁ཉེའི་	-5287
▁ཉོའི་	-5288
▁ཊོོམ་	-5289
▁ཏེ།ད་	-5290
▁ཏེ།བཅ	-5291
▁ཏེ།ཨ་	-5292
▁ཐན།ཝི	-5293
▁ཐོངས་	-5294
▁དགའི་	-5295
▁དཔྲལ་	-5296
▁དབང་ཆ	-5297
▁དུངས་	-5298
▁དྲའི་	-5299
སྲ་	-5300
༧༢༠༡	-5301
ྱིད་	-5302
▁༡༠༡	-5303
▁༡༩༢	-5304
▁ཁྲ།	-5305
▁གེ།	-5306
▁པེ།	-5307
▁ཕེ།	-5308
▁མེ།	-5309
▁ཚར།	-5310
▁ལེ།	-5311
▁ཤུ།	-5312
▁སར།	-5313
༧༢༠༡༣	-5314
མགོན་	-5315
མཆོག་	-5316
ལུའུ་	-5317
ོ།དར་	-5318
▁༡༠༡༡	-5319
▁ཁྲབ་	-5320
▁ཁྲེ་	-5321
▁གོས།	-5322
▁ཊོན་	-5323
▁མང་།	-5324
▁མཇའ་	-5325
▁འཇའ་	-5326
▁འཇུ་	-5327
▁འཇོ།	-5328
▁འོམ་	-5329
▁སྐྲ་	-5330
▁སྔས་	-5331
▁སློབ	-5332
▁ཧུབ་	-5333
▁ཧེལ་	-5334
།རིགས་	-5335
དཔྱིད་	-5336
ཨོ།དར་	-5337
▁།ཀོང་	-5338
▁ཁྲུན་	-5339
▁ཁྲུས་	-5340
▁ཁྲེན་	-5341
▁དྲིང་	-5342
▁དྲོས་	-5343
▁ན།དྲ་	-5344
▁ན།མི་	-5345
▁ནས།ཁ་	-5346
▁ནས།ད་	-5347
▁ནས།འབ	-5348
▁ནི།ཁ་	-5349
▁ནི།དཀ	-5350
▁ནིའུ་	-5351
▁པ།གང་	-5352
▁པ།ངས་	-5353
▁པ།ནང་	-5354
▁པ།བར་	-5355
▁པ།ཚན་	-5356
▁པ།ལི་	-5357
▁པ།སྐར	-5358
▁པམཚན་	-5359
▁པས།ཁ་	-5360
▁པས།བྱ	-5361
▁པས།འཆ	-5362
▁པསཞི་	-5363
▁པེའི་	-5364
▁པོ།ག་	-5365
▁པོའམ་	-5366
▁ཕོངས།	-5367
▁ཕྱགས་	-5368
▁ཕྱིད་	-5369
▁ཕྱིས།	-5370
▁ཕྱུང་	-5371
▁ཕྱེས།	-5372
▁ཕྱོགས	-5373
▁ཕྱོད་	-5374
▁བ།ཆུ་	-5375
▁བ།མགྲ	-5376
▁བཀུག་	-5377
▁བཀོད།	-5378
▁བཅགས་	-5379
▁བཏིང་	-5380
▁བཏུལ་	-5381
▁བཏུལ།	-5382
▁བབ།མ་	-5383
▁བཙུམ་	-5384
▁བཞིས་	-5385
▁བཞུག་	-5386
▁བཞེད།	-5387
▁བཟའི་	-5388
▁བཟེད་	-5389
▁བཟེར་	-5390
▁བཟླ།ས	-5391
▁བརྐོ་	-5392
▁བརྟས་	-5393
▁བརྡབ་	-5394
▁བརྩད་	-5395
▁བརྩེ།	-5396
▁བརྩྭ་	-5397
▁བཤགས་	-5398
▁བཤངས་	-5399
▁༡༽	-5400
▁ཙག	-5401
ཕྲུ་	-5402
མཛད་	-5403
ོམང་	-5404
ོརཁ་	-5405
▁གཟུ	-5406
▁ངོ།	-5407
▁དུག	-5408
▁མདོ	-5409
▁ཙན་	-5410
▁ཧཱ་	-5411
༥པའི་	-5412
རྫིང་	-5413
▁ཀའང་	-5414
▁ཀི།ཏ	-5415
▁གཟོ་	-5416
▁ཇེར་	-5417
▁བཙས་	-5418
▁འཐམ་	-5419
▁ཡ།ཐ་	-5420
▁རྡེ་	-5421
▁སྒུག	-5422
▁སྙད།	-5423
▁སྙི་	-5424
▁སྨག་	-5425
▁ཧྲམ་	-5426
ཁྲོམང་	-5427
རྒྱུས་	-5428
ུ།བྱང་	-5429
▁།།ཕན་	-5430
▁།གསར་	-5431
▁༡ཕྲུ་	-5432
▁༣༠ནས་	-5433
▁ཀུའི་	-5434
▁གཙོག་	-5435
▁གཟུངས	-5436
▁གི།མཐ	-5437
▁གུའི་	-5438
▁གེགས་	-5439
▁ཐིགས་	-5440
▁དངངས་	-5441
▁དུའི་	-5442
▁ནུའི་	-5443
▁པའིི་	-5444
▁བཤིག་	-5445
▁བཤུག་	-5446
▁བཤུས།	-5447
▁བས།མ་	-5448
▁བསམས།	-5449
▁བསྟི་	-5450
▁བསྡད།	-5451
▁བསྡུས	-5452
▁བསླུ་	-5453
▁བོ།ས་	-5454
▁བོའུ་	-5455
▁བྱས།།	-5456
▁བྱས།བ	-5457
▁བློར་	-5458
▁བྷདྲ་	-5459
▁བྷེག་	-5460
▁བྷོལ་	-5461
▁བྷྲཱུ	-5462
▁མ།།ཁྲ	-5463
▁མ།མི་	-5464
▁མགོར།	-5465
▁མཆོར་	-5466
▁མཐིང་	-5467
▁མཐུག་	-5468
▁མདའི་	-5469
▁མདེལ་	-5470
▁མདོང་	-5471
▁མདོས་	-5472
▁མན།པ་	-5473
▁མནོལ་	-5474
▁མཚོས་	-5475
▁མཛིན་	-5476
▁མརབརྩ	-5477
▁མེདཔ་	-5478
▁མོ།གཤ	-5479
▁ཙུའི་	-5480
▁ཙེའི་	-5481
▁ཚུགས།	-5482
▁ཚེའི་	-5483
▁ཚེས༢༦	-5484
▁ཞིའི་	-5485
▁ཞོའི་	-5486
▁ཟ༽ཟེ་	-5487
▁ཟད།ཁ་	-5488
▁ཟད།མ་	-5489
▁ཟད།རྩ	-5490
▁ཟུངས་	-5491
▁འཁོར།	-5492
▁འཁྱར་	-5493
▁འགགང་	-5494
▁འགགས་	-5495
▁འགངས་	-5496
▁འགེང་	-5497
▁འགྱོ་	-5498
▁འཐམས།	-5499
༢༠༠༦	-5500
▁།བར	-5501
▁ཏོག	-5502
▁ཕཱ་	-5503
▁ཕོ།	-5504
▁ཚོ།	-5505
▁ལབ།	-5506
▁ཨོ།	-5507
།གུས་	-5508
▁།རེ་	-5509
▁གིར་	-5510
▁ཇའི་	-5511
▁ཇིས་	-5512
▁ཇེན་	-5513
▁ཇོང་	-5514
▁ཐོས།	-5515
▁དེ།ར	-5516
▁ན།ས་	-5517
▁པོ།ས	-5518
▁བཟོ།	-5519
▁བྲོ།	-5520
▁མགར་	-5521
▁མཐོ།	-5522
▁ཟིར་	-5523
▁འཚག་	-5524
▁འཚལ་	-5525
▁འཚོ།	-5526
▁རྫུ་	-5527
▁ལིར་	-5528
ངས།ཉེ་	-5529
ོལ།བལ་	-5530
▁།ཟེར།	-5531
▁།སུན་	-5532
▁༦ཉིན།	-5533
▁ཀྲིག་	-5534
▁ཁུའུ་	-5535
▁གདོན་	-5536
▁གབོད་	-5537
▁གཡུག་	-5538
▁བསྔོ་	-5539
▁བསྡུག	-5540
▁འཐུམ་	-5541
▁འཐེང་	-5542
▁འཐོབ་	-5543
▁འཐོམ་	-5544
▁འདུད་	-5545
▁འདུམ་	-5546
▁འདེད།	-5547
▁འདོག་	-5548
▁འདོན།	-5549
▁འདོམ་	-5550
▁འཕུད་	-5551
▁འཕེན་	-5552
▁འཕོག་	-5553
▁འཕྲི་	-5554
▁འབབས་	-5555
▁འབྲང་	-5556
▁འབྲལ་	-5557
▁འབྲས།	-5558
▁འབྲུག	-5559
▁འབྲོ་	-5560
▁འཚངས་	-5561
▁འཚེར་	-5562
▁འཚོགས	-5563
▁འཚོང་	-5564
▁འཚོར་	-5565
▁འཛགས་	-5566
▁འཛངས་	-5567
▁འཛིས་	-5568
▁འཛུབ་	-5569
▁འཛེར་	-5570
▁འཛོག་	-5571
▁འཛོལ་	-5572
▁ཡོད།།	-5573
▁ཡོད།༡	-5574
▁ཡོད།༽	-5575
▁ཡོད།ར	-5576
▁རངགི་	-5577
▁རིམས་	-5578
▁རེད།་	-5579
▁རྐུན་	-5580
▁རྐུབ་	-5581
▁རྐྱལ་	-5582
▁རྒུད།	-5583
▁རྒེད་	-5584
▁རྒོལ།	-5585
▁རྒྱར་	-5586
▁རྔུབ་	-5587
▁རྗེད་	-5588
▁རྟིང་	-5589
▁རྟུལ་	-5590
▁རྡུང་	-5591
▁རྡོས་	-5592
▁རྨེང་	-5593
▁རྨོས་	-5594
▁རྩིག་	-5595
▁རྩིང་	-5596
▁རྩིར་	-5597
▁རྩྭི་	-5598
▁རྫའི་	-5599
▁༢༩	-5600
།༦།༡	-5601
སྤུ་	-5602
ོན༡༤	-5603
▁ཇི།	-5604
▁ཐི།	-5605
▁མམ།	-5606
▁ཞོག	-5607
▁ཡལ།	-5608
▁རུ།	-5609
▁རྒ་	-5610
འདིས།	-5611
ུ།དེ་	-5612
ུགསཔ་	-5613
ོན༡༤༣	-5614
▁༧ནང་	-5615
▁གཡབ་	-5616
▁གྱལ།	-5617
▁ངུས།	-5618
▁ཇེབ་	-5619
▁ཕེབ་	-5620
▁ཕྲང་	-5621
▁ཕྲད་	-5622
▁ཕྲར་	-5623
▁བ།ད་	-5624
▁བ།མཆ	-5625
▁བཡི་	-5626
▁འཆག་	-5627
▁འཆར།	-5628
▁རྐྱ།	-5629
▁ཤཱག་	-5630
▁སྐལ།	-5631
▁སྒམ།	-5632
▁ཧེབ་	-5633
▁ཧྲོའ	-5634
༩༥ཉིད་	-5635
▁གཡེལ་	-5636
▁གཡོད་	-5637
▁གཡོར་	-5638
▁གཡོས་	-5639
▁ན།ནོ་	-5640
▁ནའང།་	-5641
▁ནསཉིན	-5642
▁ཕྲའི་	-5643
▁བ།ཆབ་	-5644
▁བརྩི།	-5645
▁བརྩོ་	-5646
▁བསྙད་	-5647
▁བྲོས།	-5648
▁ཚ།ནས།	-5649
▁ཟད།ཐ་	-5650
▁འགྲོག	-5651
▁འདེབ་	-5652
▁རྒུས་	-5653
▁རྒྱམ།	-5654
▁རྨིག་	-5655
▁རྫུས་	-5656
▁རྫོངཆ	-5657
▁རྫོབ་	-5658
▁རློམ་	-5659
▁ལ།།བས	-5660
▁ལ།དང་	-5661
▁ལ།དལ་	-5662
▁ལ།དྲ་	-5663
▁ལ།པེ་	-5664
▁ལ།ཕར་	-5665
▁ལ།ཟླ་	-5666
▁ལ།སྦྱ	-5667
▁ལན།མ་	-5668
▁ལབོད་	-5669
▁ལམགོ་	-5670
▁ལུའི་	-5671
▁ལེའི་	-5672
▁ལོ༡༧༥	-5673
▁ལོནང་	-5674
▁ལྔའམ་	-5675
▁ལྟོག་	-5676
▁ལྡེང་	-5677
▁ལྡེབ་	-5678
▁ལྡེམ་	-5679
▁ལྡེས་	-5680
▁ལྤགས་	-5681
▁ཤངགི་	-5682
▁ཤཱིང་	-5683
▁སུལོ་	-5684
▁སྐུར་	-5685
▁སྐྱག་	-5686
▁སྐྱམ་	-5687
▁སྐྱི་	-5688
▁སྒོམ།	-5689
▁སྒྲས་	-5690
▁སྒྲོ་	-5691
▁སྒྲོག	-5692
▁སྔོག་	-5693
▁སྙུག་	-5694
▁སྙེག་	-5695
▁སྙོམས	-5696
▁སྟན།ཧ	-5697
▁སྟུག་	-5698
▁སྟེ།།	-5699
ཀཱ་	-5700
པཱ་	-5701
སཱ་	-5702
▁༧༢	-5703
༽རང་	-5704
གསའ་	-5705
དཔང་	-5706
བྲག་	-5707
འདམ་	-5708
འདོ་	-5709
རྩི་	-5710
▁ཁབ།	-5711
▁ཇཱ་	-5712
▁ཤཱ་	-5713
༥༠ཅན་	-5714
ནིའུ་	-5715
བརྟག་	-5716
མྱུར་	-5717
རྩིས་	-5718
རྩོན་	-5719
ེནསཱ་	-5720
▁།རུ་	-5721
▁ཀིམ་	-5722
▁ཏེ།ཏ	-5723
▁ཏེན།	-5724
▁པས།མ	-5725
▁མངལ་	-5726
▁འཆས་	-5727
▁རྟགས	-5728
▁ལིམ་	-5729
༡༡རེད།	-5730
▁།ཐུན་	-5731
▁།འདམ་	-5732
▁།ལུང་	-5733
▁༤༽རང་	-5734
▁༦རེས་	-5735
▁ཏེ།མ་	-5736
▁ནས།ང་	-5737
▁ནས།བཅ	-5738
▁པས།ང་	-5739
▁པས།ས་	-5740
▁བ།ཏང་	-5741
▁བསྒར་	-5742
▁འཆིང་	-5743
▁འདྲན་	-5744
▁འདྲེ་	-5745
▁རྟགས།	-5746
▁ཤཱཀྱ་	-5747
▁སྡུབ་	-5748
▁སྡུས་	-5749
▁སྡེས་	-5750
▁སྡོག་	-5751
▁སྣང་།	-5752
▁སྣུར་	-5753
▁སྤུང་	-5754
▁སྤོག་	-5755
▁སྤྲང་	-5756
▁སྤྲད།	-5757
▁སྤྲས་	-5758
▁སྦིན་	-5759
▁སྦུམ་	-5760
▁སྦེད་	-5761
▁སྦྱན་	-5762
▁སྨོས་	-5763
▁ཨོའི་	-5764
▁ཨོའུ་	-5765
།།སྐབས་	-5766
།།སྤྱི་	-5767
།༤༥ཐོག་	-5768
།གཟུགས་	-5769
།སྐྱབས་	-5770
གས།དམར་	-5771
གས།ཞེས་	-5772
ངས།འདི་	-5773
ཉིནརྡོ་	-5774
ན།དེའི་	-5775
ནིལོའི་	-5776
མ།གཙགས་	-5777
མས།བོད་	-5778
ཟླ༡༢ཚེས	-5779
འིའཕུར་	-5780
ལོར།ཀཱ་	-5781
ལོར།སི་	-5782
ིགསྣོད་	-5783
ིགསློབ་	-5784
ུགསཞེས་	-5785
ུབས།ནང་	-5786
ུམ།བོད་	-5787
ུརདགོས་	-5788
ུས།ཞེས་	-5789
ེལསྲིད་	-5790
ོར།ཁོང་	-5791
ོས།བོན་	-5792
▁།།དགྲ་	-5793
▁།ཁུངས་	-5794
▁།ཁྱོད་	-5795
▁།གཡོན་	-5796
▁།གསོན་	-5797
▁།ཐུགས་	-5798
▁།དམངས་	-5799
ཁ༦༦	-5800
རྣ་	-5801
ཀྲོ་	-5802
ཁ༦༦༤	-5803
ཐེམ་	-5804
མཁར་	-5805
སྤང་	-5806
▁༢༠༤	-5807
▁མྱོ	-5808
▁རྙི	-5809
།རིན་	-5810
༤ཉིན་	-5811
སཞེས་	-5812
སྐོམ་	-5813
ོན།མ་	-5814
▁ཅེས།	-5815
▁བེེ་	-5816
▁ཝོལ་	-5817
▁ལུས།	-5818
▁ལོ།།	-5819
།བསགས་	-5820
སྐྱིད་	-5821
སྐྱེས་	-5822
ོདཞིག་	-5823
▁།ཉིས་	-5824
▁ཆིངས་	-5825
▁ནས།རྫ	-5826
▁ནས།ས་	-5827
▁པྲའི་	-5828
▁བསྣན།	-5829
▁མཞེས་	-5830
▁ཚེས༢༧	-5831
▁འཁྱམ་	-5832
▁རྙེད་	-5833
▁ལུའོ་	-5834
▁སྐྱིད	-5835
▁ཧྲིག་	-5836
▁ཧྲེན་	-5837
▁།བཙོན་	-5838
▁།ཟློས་	-5839
▁།རྗོར་	-5840
▁།རྩིས་	-5841
▁།རྩོད་	-5842
▁།རྩོལ་	-5843
▁།སོགས་	-5844
▁།སྒྱུ་	-5845
▁།སྨིན་	-5846
▁༠༢ཉིན།	-5847
▁༠༩པའི་	-5848
▁༡།འཚང་	-5849
▁༡༣རིང་	-5850
▁༡༦པའི་	-5851
▁༡༧གྱི་	-5852
▁༡༨ཉིན་	-5853
▁༡༩ཉིན་	-5854
▁༡དབུས་	-5855
▁༢༠༡༢ལ་	-5856
▁༢༠༤ཅན་	-5857
▁༢༠ཉིན་	-5858
▁༢༠བཅས་	-5859
▁༢༡ཉིན་	-5860
▁༣༧༥ཐད་	-5861
▁༣གྲོས་	-5862
▁༣སྤྱི་	-5863
▁༤༥ཐོག་	-5864
▁༤མཐེབ་	-5865
▁༦༠༠དང་	-5866
▁ཀེར།།ས	-5867
▁ཀྲེའི་	-5868
▁ཀླུའི་	-5869
▁ཁགདུས་	-5870
▁ཁོགསོ་	-5871
▁ཁྱུའི་	-5872
▁ཁྲིམན་	-5873
▁ཁྲོའི་	-5874
▁གངྒཱར་	-5875
▁གཉེརབཅ	-5876
▁གནོདཔ་	-5877
▁གམ།ཆུ་	-5878
▁གཟུགས།	-5879
▁གར།ཨི་	-5880
▁གསུམ།བ	-5881
▁གིཞེས་	-5882
▁གིསཏེ་	-5883
▁གྲྭའུ་	-5884
▁གླུཞལ་	-5885
▁གླུའི་	-5886
▁ངགཆོས་	-5887
▁ཅན།མི་	-5888
▁ཅནཔོད་	-5889
▁ཅིག།མང	-5890
▁ཆ།ངའི་	-5891
▁ཆས།ཞལ་	-5892
▁ཆེ།ངས་	-5893
▁ཆོགརས་	-5894
▁ཉིན།ད་	-5895
▁ཏེ།ཏང་	-5896
▁ཏེ།ཕལ་	-5897
▁ཏེ།རང་	-5898
▁ཐི།ཀེ་	-5899
པཎ་	-5900
དང༧༢	-5901
དབྲ་	-5902
བྱེ་	-5903
ེན།ལ	-5904
▁༨༣བ	-5905
▁ཆཊ་	-5906
།།པཎ་	-5907
།རིམ་	-5908
།རྒྱ་	-5909
༧དང༧༢	-5910
༽རྒྱ་	-5911
ཁྲོག་	-5912
ངསདང་	-5913
དབེན་	-5914
བསགས་	-5915
བྱུང་	-5916
འཛུམ་	-5917
སྒེར་	-5918
▁།པར་	-5919
▁༡༨༦༠	-5920
▁དོར།	-5921
▁མོར།	-5922
▁ཚགས།	-5923
▁ཚོར།	-5924
༧དང༧༢༨	-5925
▁།ཐོག་	-5926
▁།དོང་	-5927
▁།དོལ་	-5928
▁།མཐའ་	-5929
▁།སུམ་	-5930
▁།སེར་	-5931
▁།སྟག་	-5932
▁དཔོན།	-5933
▁ན།ཆུ་	-5934
▁པོ།ཅ་	-5935
▁ཕྱུར༡	-5936
▁མཆིལ་	-5937
▁རྒོན།	-5938
▁རྡོར།	-5939
▁སྟངས།	-5940
▁ཧཱ།ལྷ	-5941
ེན།ལའོ་	-5942
▁།དགོང་	-5943
▁།དཔྲལ་	-5944
▁ཐུགཕག་	-5945
▁ཐུབ།ཚ་	-5946
▁ཐེངས༢༤	-5947
▁ཐོ།མི་	-5948
▁དགེདང་	-5949
▁དགེའི་	-5950
▁དགོས།།	-5951
▁དགོས།༢	-5952
▁དང་།བད	-5953
▁དང་།མཐ	-5954
▁དང།དེ་	-5955
▁དངའཛད་	-5956
▁དབུའི་	-5957
▁དབྱུང་	-5958
▁དར།མི་	-5959
▁དུ།ཕོ་	-5960
▁དུ།མི་	-5961
▁དུམདོ་	-5962
▁དུཞིང་	-5963
▁དུའོ།།	-5964
▁དུསྐམ་	-5965
▁དྲུགད་	-5966
▁དྲེའུ་	-5967
▁ན།ཀོན་	-5968
▁ན།གངས་	-5969
▁ན།གསོ་	-5970
▁ན།གླུ་	-5971
▁ན།དུས་	-5972
▁ན།རིང་	-5973
▁ན།རྨང་	-5974
▁ན།ཤེས་	-5975
▁ན།སྙན་	-5976
▁ན།སྡེ་	-5977
▁ན༧གོང་	-5978
▁ནམ།ཡང་	-5979
▁ནས།ཞལ་	-5980
▁ནས།རང་	-5981
▁ནསཞེས་	-5982
▁ནསའོས་	-5983
▁ནི།དེ་	-5984
▁ནི།ཟླ་	-5985
▁ནི།རང་	-5986
▁ནི།ལས་	-5987
▁ནིདབུ་	-5988
▁པ།ཁོག་	-5989
▁པ།གཙང་	-5990
▁པ།གཟི་	-5991
▁པ།ཉེན་	-5992
▁པ།ཐོག་	-5993
▁པ།དཀར་	-5994
▁པ།བརྡ་	-5995
▁པ།ཞབས་	-5996
▁པ།ཞིབ་	-5997
▁པ།འཚོ་	-5998
▁པ།རྒྱ་	-5999
▁༣་	-6000
▁༣༨	-6001
▁༣༽	-6002
༤ལོ་	-6003
ཁྲག་	-6004
ཊེམ་	-6005
ལྟས་	-6006
ལྟོ་	-6007
▁༣༠༡	-6008
དགོས།	-6009
དེའང་	-6010
བཀོལ་	-6011
ལྟེབ་	-6012
ལྟོས་	-6013
▁།གད་	-6014
▁།མུ་	-6015
▁༢༠༡༤	-6016
▁༣རང་	-6017
▁ནེམ་	-6018
▁བདྨ་	-6019
▁ཡ།ཨ་	-6020
▁ལྟཝ་	-6021
བསྟོད་	-6022
ལྟོགས་	-6023
ེར།དེ་	-6024
▁།གུས་	-6025
▁།དངན་	-6026
▁༡ཚེས་	-6027
▁༢ཚེས་	-6028
▁༣༨པར་	-6029
▁༣༽བལ་	-6030
▁༣རྒྱ་	-6031
▁༦༠ནས་	-6032
▁གཉེར།	-6033
▁དཔེར།	-6034
▁དུངར་	-6035
▁བགྲས་	-6036
▁བསླད་	-6037
▁ཞོགས།	-6038
▁འཆམས།	-6039
▁རྡེག་	-6040
▁རྨུར་	-6041
▁སྒེག་	-6042
▁སྟེར།	-6043
༢༠༡༤ལོ་	-6044
ིགསྒུལ་	-6045
▁།གྲུབ་	-6046
▁།མིའི་	-6047
▁ཆོགགལ་	-6048
▁ན།མདོ་	-6049
▁པ།འདི་	-6050
▁པ།ཧོར་	-6051
▁པདྨའི་	-6052
▁པརྩོམ་	-6053
▁པས།ཁོ་	-6054
▁པས།ངས་	-6055
▁པས།དད་	-6056
▁པས།དམ་	-6057
▁པས།དེ་	-6058
▁པས།པི་	-6059
▁པས།མི་	-6060
▁པས།ཚང་	-6061
▁པས།ལྷ་	-6062
▁པསྤྱི་	-6063
▁པེ།རོ།	-6064
▁པོ།དར་	-6065
▁པོ།ལམ་	-6066
▁ཕྱུར༢༣	-6067
▁བ།ཆོས་	-6068
▁བ།ཐིག་	-6069
▁བ།དགའ་	-6070
▁བ།དཔལ་	-6071
▁བ།ནུབ་	-6072
▁བ།བསམ་	-6073
▁བ།མངའ་	-6074
▁བ།མིས་	-6075
▁བ།ཚེས་	-6076
▁བ།རིས་	-6077
▁བ།རྒན་	-6078
▁བ།རྒྱ་	-6079
▁བ།སྔོ་	-6080
▁བ།ཧོང་	-6081
▁བཀྲེན་	-6082
▁བཀྲེས་	-6083
▁བགེགས་	-6084
▁བཅུགཨ་	-6085
▁བདུགས་	-6086
▁བཞོགས་	-6087
▁བཟོའི་	-6088
▁བར།ལོ་	-6089
▁བརྔོན་	-6090
▁བརྟུལ་	-6091
▁བརྡབས་	-6092
▁བརྡམས་	-6093
▁བརྡའི་	-6094
▁བརྡུང་	-6095
▁བརྡེག་	-6096
▁བརྡོལ་	-6097
▁བརླགས་	-6098
▁བཤིགས་	-6099
༡༡༦	-6100
གཁ་	-6101
།།ང་	-6102
༩ལས་	-6103
གཡང་	-6104
མཁན་	-6105
ེའོ་	-6106
▁༡༠༠	-6107
▁༡༩་	-6108
▁༢༧་	-6109
▁པ༧༢	-6110
▁ས།།	-6111
།དུང་	-6112
།འདམ་	-6113
▁།ཁང་	-6114
▁།བོ་	-6115
▁།རབ་	-6116
▁༡དང་	-6117
▁༡ནས་	-6118
▁༣དང་	-6119
▁ཀདང་	-6120
▁ཐའོ་	-6121
▁དང།།	-6122
▁དམ།།	-6123
▁པ།ཨ་	-6124
▁པ༧༢༩	-6125
▁བབས།	-6126
▁བའོ་	-6127
▁བྷོ་	-6128
▁རྐམ་	-6129
▁ཤདང་	-6130
▁ཧའོ་	-6131
།།བོད་	-6132
།།འདི་	-6133
▁།བདེ་	-6134
▁།རིང་	-6135
▁།རིམ་	-6136
▁།ལོར་	-6137
▁༡ཆོས་	-6138
▁༢༠དང་	-6139
▁༧མཁན་	-6140
▁ཏེ།ཁ་	-6141
▁པ།ཚོ་	-6142
▁པནཚད་	-6143
▁བརྔས་	-6144
▁བྷིར་	-6145
▁བྷེང་	-6146
▁མི།ཤ་	-6147
▁ཚེས༡༢	-6148
▁འགུལ།	-6149
▁རྨགཔ་	-6150
▁ལཆོས་	-6151
▁ལྕུམ་	-6152
རེད།མུ་	-6153
▁།བྱིས་	-6154
▁།རིགས་	-6155
▁༣།མདོ་	-6156
▁ཁམསནི་	-6157
▁ན།ཆོས་	-6158
▁ན།ཕྱི་	-6159
▁པ༧༢༩༦༧	-6160
▁པོ།ཟླ་	-6161
▁བཞེདནང	-6162
▁བརླགཁ་	-6163
▁བས།ཅི་	-6164
▁བསེའི་	-6165
▁བསྐངས་	-6166
▁བསྐུར།	-6167
▁བསྐུལ།	-6168
▁བསྐོན་	-6169
▁བསྐོལ་	-6170
▁བསྔུས་	-6171
▁བསྡམས་	-6172
▁བསྲེས་	-6173
▁བྱ།པར་	-6174
▁བྱ།ལྷ་	-6175
▁བྱུགས་	-6176
▁བླུགས།	-6177
▁བྷེའི་	-6178
▁མ།ཉམས་	-6179
▁མགཞེས་	-6180
▁མགོའི་	-6181
▁མཆོངས་	-6182
▁མཐུན༧༥	-6183
▁མམ།ཡང་	-6184
▁མཚུངས།	-6185
▁མསོགས་	-6186
▁མི།ཡང་	-6187
▁མེད།བྷ	-6188
▁མོ།ཡང་	-6189
▁མོ།ལྷ་	-6190
▁མོད།དྲ	-6191
▁མོད།ས་	-6192
▁ཞུ།དེ་	-6193
▁ཟད།༢༠༠	-6194
▁ཟད།ཆང་	-6195
▁ཟད།མང་	-6196
▁ཟད།མི་	-6197
▁ཟད།རང་	-6198
▁ཟིགལི་	-6199
༠༨༨	-6200
༣ཡི་	-6201
།སོན་	-6202
༠༨༨༨༨	-6203
ཀཔའི་	-6204
བློས་	-6205
འབུམ་	-6206
▁།ཞུ་	-6207
▁ཆོག།	-6208
▁དེ།།	-6209
▁མའམ་	-6210
▁ཟླཔ་	-6211
▁སྣོད	-6212
།འདིས་	-6213
༠༨༨༨༨་	-6214
༠ལོའི་	-6215
༽གྱིས་	-6216
ངས།ལྷ་	-6217
དངབོད་	-6218
▁།ངེད་	-6219
▁།ཇུས་	-6220
▁།དཀའ་	-6221
▁༡༠ལུ་	-6222
▁༡གཟའ་	-6223
▁༩པའི་	-6224
▁གིསམ་	-6225
▁གྲྭས་	-6226
▁ཆེནལ་	-6227
▁ཆོགད་	-6228
▁དུ།ང་	-6229
▁དེ།ས་	-6230
▁པ།ལྷ་	-6231
▁རྕེར་	-6232
▁ལ།ལྷ་	-6233
▁༠༧ཉིན་	-6234
▁༡༨༣ཡི་	-6235
▁༡༩ཡིན་	-6236
▁༢༧ཉིན་	-6237
▁༣༩༢༠༡༦	-6238
▁༣ལྷགཔ་	-6239
▁གཏུགས།	-6240
▁དེ།དང་	-6241
▁ནས།ལྷ་	-6242
▁པར།དྲ་	-6243
▁པས།ནང་	-6244
▁ཕྱུགས།	-6245
▁བ།མགོ་	-6246
▁བསྙོབ་	-6247
▁མས།དེ་	-6248
▁མིགདང་	-6249
▁ཟེར།ཕ་	-6250
▁ཟེར།མ་	-6251
▁ཟེར།ཨ་	-6252
▁ཟླབའི་	-6253
▁འཁྱམས་	-6254
▁འཁྱུག་	-6255
▁འཁྲིག་	-6256
▁འཁྲིས་	-6257
▁འཁྲུང་	-6258
▁འཁྲུད་	-6259
▁འཁྲེང་	-6260
▁འགེངས་	-6261
▁འགེམས་	-6262
▁འགྱེད་	-6263
▁འགྱེལ་	-6264
▁འགྲིབ་	-6265
▁འགྲུན་	-6266
▁འགྲུས་	-6267
▁འཇེབས་	-6268
▁འཐོམས་	-6269
▁འདུགང་	-6270
▁འདུགམ་	-6271
▁འདྲའང་	-6272
▁འཕེབས་	-6273
▁འཕྱངས་	-6274
▁འཕྲུག་	-6275
▁འཕྲེང་	-6276
▁འཕྲོས་	-6277
▁འབུངས་	-6278
▁འབུའི་	-6279
▁འབྲོང་	-6280
▁འཚེའི་	-6281
▁འཚོ།ཁ་	-6282
▁འཛེམས་	-6283
▁ཡ།ལྷོ་	-6284
▁ཡ།སེང་	-6285
▁ཡགཅེས་	-6286
▁ཡི།ལས་	-6287
▁ཡིགལས་	-6288
▁ཡིན།།ར	-6289
▁ཡིན།ཕ་	-6290
▁ཡིན།མ་	-6291
▁ཡིན།ཨ་	-6292
▁ཡེ།རྔ་	-6293
▁ཡོད།བཀ	-6294
▁ཡོད།ཡ་	-6295
▁ཡོད།ཨ་	-6296
▁ཡོདཟླ༣	-6297
▁ཡོན།ཧྲ	-6298
▁ར།སྨད་	-6299
ཁྲི་	-6300
▁༥༦་	-6301
▁ཨམུ	-6302
༡ལྷག་	-6303
ནེའུ་	-6304
མདོར་	-6305
▁༥པར་	-6306
▁༧བར་	-6307
▁ཅི།༽	-6308
▁དོམ།	-6309
▁པར།།	-6310
▁ཡིག།	-6311
།གཉིད་	-6312
།རྫོང་	-6313
གཟུགས་	-6314
▁།འཇམ་	-6315
▁།ཡིག་	-6316
▁༧གནས་	-6317
▁༧སྐུ་	-6318
▁༸སྐུ་	-6319
▁དཀྲི་	-6320
▁པ།ཚེ་	-6321
▁པར།ད་	-6322
▁བལྷག་	-6323
▁བསྲེ་	-6324
▁མིའང་	-6325
▁ལ།ཆུ་	-6326
▁ལས།ད་	-6327
▁སིངས་	-6328
▁སེའུ་	-6329
▁སྦྲག་	-6330
▁སྦྲང་	-6331
ོག།ཉིན་	-6332
ོད།བྱས་	-6333
▁༡༤པའི་	-6334
▁༥༡ལྷག་	-6335
▁ཁྲིདཔ་	-6336
▁གྲོིང་	-6337
▁ངོ༩ཡི་	-6338
▁ཇི།ཉི་	-6339
▁དྭོགས་	-6340
▁ནི།ཆུ་	-6341
▁པོས།གཏ	-6342
▁བགོའི་	-6343
▁བཏིངས་	-6344
▁ཚེསནས་	-6345
▁ཟད།ནང་	-6346
▁འཛིངས་	-6347
▁ཡིན།དང	-6348
▁ར༽འདི་	-6349
▁རབསནང་	-6350
▁རིགཏུ་	-6351
▁རེ།ཕར་	-6352
▁རེད།ཁ་	-6353
▁རེད།པ་	-6354
▁རེད།མ་	-6355
▁རོ།།སྲ	-6356
▁རྐྱབས་	-6357
▁རྐྱེས་	-6358
▁རྒྱངས་	-6359
▁རྒྱུ།༽	-6360
▁རྒྱུན།	-6361
▁རྡེའུ་	-6362
▁རྡོའི་	-6363
▁རྨོངས་	-6364
▁རྩིསཔ་	-6365
▁རྩེའི་	-6366
▁རྫོགས།	-6367
▁ལ།།ཐལ་	-6368
▁ལ།།ནས་	-6369
▁ལ།གཞན་	-6370
▁ལ།གཞི་	-6371
▁ལ།དཔག་	-6372
▁ལ།ཕྱི་	-6373
▁ལ།བཤད་	-6374
▁ལ།བོན་	-6375
▁ལ།མཛད་	-6376
▁ལ།ཚབས་	-6377
▁ལ།ཚིག་	-6378
▁ལ།ཚོང་	-6379
▁ལ།རྒྱ་	-6380
▁ལ།སྐུ་	-6381
▁ལགཟེར་	-6382
▁ལགཡུལ་	-6383
▁ལགྲིབ་	-6384
▁ལམ།ལྷ་	-6385
▁ལརྒྱལ་	-6386
▁ལས།ཆུ་	-6387
▁ལས།བྱ་	-6388
▁ལོ།རི་	-6389
▁ལོ༩ཡི་	-6390
▁ལོཞེས་	-6391
▁ལྕོགས་	-6392
▁ལྟདམོ་	-6393
▁ལྟར།གཤ	-6394
▁ལྟོགས་	-6395
▁ལྡན།ད་	-6396
▁ལྡེའུ་	-6397
▁ཤགཐོག་	-6398
▁ཤིགགལ་	-6399
༠༡།	-6400
▁༤༨	-6401
▁༦༧	-6402
༡པར་	-6403
གྱང་	-6404
ིསི་	-6405
ིསུ་	-6406
▁༠༡།	-6407
▁༥སྟ	-6408
▁རཏ་	-6409
▁ས།ར	-6410
གྱོད་	-6411
▁༣བར་	-6412
▁༦ནང་	-6413
▁གཤིས	-6414
▁གྱ།ར	-6415
▁པན།ཧ	-6416
▁བཛྲ་	-6417
▁ཟླ༡༡	-6418
▁ལ།བྲ	-6419
།བཤེས་	-6420
མས།ཡང་	-6421
ིངབཅས་	-6422
▁༠༡།༡༠	-6423
▁༤༨ལང་	-6424
▁༦རིང་	-6425
▁༦ལྷག་	-6426
▁ཀིསུ་	-6427
▁ཁེབས།	-6428
▁གདམས།	-6429
▁ཏིསི་	-6430
▁ཏེ།མཛ	-6431
▁བ།ཚན་	-6432
▁བ།ཤམ་	-6433
▁བཀྲལ།	-6434
▁བཀྲས་	-6435
▁བཀྲུ་	-6436
▁རཡིན།	-6437
▁རྣམས།	-6438
▁ལ།བར་	-6439
།ཕྱོགས་	-6440
ཉིན།ཨེ་	-6441
བརྒྱུད་	-6442
ོར།ཏུར་	-6443
▁།།༡པར་	-6444
▁།དགོན་	-6445
▁།བཀོལ་	-6446
▁༤རྒྱལ་	-6447
▁༥སྟེ།ར	-6448
▁གིས།ང་	-6449
▁གིས།ད་	-6450
▁ཏོག།ང་	-6451
▁ན།།དམ་	-6452
▁ནགགྲྭ་	-6453
▁པན།ཧན་	-6454
▁བཀྲམས་	-6455
▁བཀྲིས་	-6456
▁བཀྲུས་	-6457
▁འགྲུབ།	-6458
▁ལ།བྲང་	-6459
▁ལོལོར་	-6460
▁ཤེས།ང་	-6461
▁ཤོད།ད་	-6462
▁ས།རིས་	-6463
▁སམ།ཟླ་	-6464
▁སུ།ལེ་	-6465
▁སོ།།།།	-6466
▁སོ།པཱ་	-6467
▁སོགརྒྱ	-6468
▁སོཟེར་	-6469
▁སྐྱབས།	-6470
▁སྐྱིད།	-6471
▁སྐྱིལ་	-6472
▁སྐྱུག་	-6473
▁སྐྱོས་	-6474
▁སྒྱེད་	-6475
▁སྒྲིང་	-6476
▁སྒྲེང་	-6477
▁སྒྲོས་	-6478
▁སྙེགས་	-6479
▁སྟེ།ད་	-6480
▁སྟེ།ལ་	-6481
▁སྟེ།ས་	-6482
▁སྟེ།ཧྲ	-6483
▁སྟོངས་	-6484
▁སྤོབས་	-6485
▁སྤྲིན་	-6486
▁སྤྲུལ།	-6487
▁སྦྱིན།	-6488
▁སྦྲུམ་	-6489
▁སྲིའི་	-6490
▁སླེའི་	-6491
▁ཧྲིའི་	-6492
▁ཧྲུའི་	-6493
▁ཨུད།འཇ	-6494
།གཙོས།ཙ་	-6495
༡༩༥༦ལོར་	-6496
༢༠༡༧།༦།༡	-6497
༥༠༠བརྒལ་	-6498
ཁ༦༦༤༽ལས།	-6499
གྷ་	-6500
།གར་	-6501
ཊ།ཨོ	-6502
འགའ་	-6503
ཱའམ་	-6504
▁དིཝ	-6505
▁མ།པ	-6506
བཙུན་	-6507
བཙེམ་	-6508
བཙོན་	-6509
▁།དྷ་	-6510
▁ཀྲིན	-6511
▁ཁགད་	-6512
▁གཞོན	-6513
༦༦༨༣༧༥	-6514
འབྲོང་	-6515
▁།འགའ་	-6516
▁།ཤེས་	-6517
▁༢མཚོ་	-6518
▁༥ཉིན།	-6519
▁ཆཟིན་	-6520
▁ཆེ།ད་	-6521
▁ནམདོ་	-6522
▁ཕཊ།ཨོ	-6523
▁མ།རང་	-6524
▁མ།ལས་	-6525
▁ཡ།དེ་	-6526
▁སྐྱ།ག	-6527
༦༦༨༣༧༥༡	-6528
འ།བཙེམ་	-6529
▁།འདིར་	-6530
▁།རྒྱས་	-6531
▁༢༤ཉིན།	-6532
▁༢༩ཉིན་	-6533
▁གཞོནཔ་	-6534
▁ཏེ།ཕར་	-6535
▁ན།དེར་	-6536
▁ན།འཛམ་	-6537
▁ནས།དྲ་	-6538
▁པ།མདོ་	-6539
▁པ།མཚོ་	-6540
▁པ།ཞིང་	-6541
▁བ།དེང་	-6542
▁བ།མཚོ་	-6543
▁མ།པའེ་	-6544
▁འགྱོཝ་	-6545
▁རི།གར་	-6546
▁ལ།མདོ་	-6547
▁ལ།འཛམ་	-6548
▁སྒྲའམ་	-6549
པའི༡ཉིན་	-6550
ེབ།སློབ་	-6551
▁།ཕྱུགས་	-6552
▁།བརྗོད་	-6553
▁།བརྩོན་	-6554
▁།འགྲུལ་	-6555
▁།རྒྱུད་	-6556
▁།སྤྱིར་	-6557
▁༡༠བཙོན་	-6558
▁༡༢།༦རང་	-6559
▁༡༨སྟེང་	-6560
▁༡༩༦༡ཟླ་	-6561
▁༡༩༩༢བར་	-6562
▁༡༩དགོང་	-6563
▁༢༠༠ལྷག་	-6564
▁༢༠༡༥ཟླ་	-6565
▁༢༠༡༧བར་	-6566
▁༢༡༤༢དང་	-6567
▁༢༥གསུམ་	-6568
▁༢༧༧༢༠༡༣	-6569
▁༣།ཚོགས་	-6570
▁༥༠༠༠ལས་	-6571
▁༥༠འཁོར་	-6572
▁༦༠འཁོར་	-6573
▁༦༧༨སོང་	-6574
▁༩༠༠ལྷག་	-6575
▁ཀའཕྲུལ་	-6576
▁ཀིིརྟི་	-6577
▁ཀེར།།སྒ	-6578
▁ཀྱིཚགས་	-6579
▁ཀླད།དེ་	-6580
▁ཁགཐེངས་	-6581
▁ཁགསྤྱི་	-6582
▁ཁྱབ།ནད་	-6583
▁ཁྱོན༡༤༣	-6584
▁ཁྲ།རྩལ་	-6585
▁ཁྲིད།ཆ་	-6586
▁གངྒཱའམ་	-6587
▁གཅིགགི་	-6588
▁གཉིས།མ་	-6589
▁གཞི།དེ་	-6590
▁གར།དྲི་	-6591
▁གསལ།དེ་	-6592
▁གསལ།ཟླ་	-6593
▁གསུམ།སྡ	-6594
▁གིའཕགས་	-6595
▁གིརྒྱལ་	-6596
▁གིས།ངས་	-6597
▁གིས།ཡང་	-6598
▁གིསགསར་	-6599
༡ཟླ	-6600
༡ཟླ༩	-6601
༽གལ་	-6602
གཉེ་	-6603
སྦི་	-6604
▁།ཀ་	-6605
▁།འཕ	-6606
▁༡༡་	-6607
▁༨ལ་	-6608
▁མམཆ	-6609
▁ལཐ་	-6610
དབྱང་	-6611
ན༧ལས་	-6612
སྨོན་	-6613
ོ།།སྒ	-6614
▁།ཐང་	-6615
▁༡༠པ་	-6616
▁༡༩༦༧	-6617
▁༨བར་	-6618
▁ཕིི་	-6619
▁ཚ།ཁ་	-6620
།འདུལ་	-6621
དབྱངས་	-6622
▁༡༠བར་	-6623
▁༡༠ལོ་	-6624
▁༩ཉིན་	-6625
▁དུ།ཟླ	-6626
▁པ།ཉེ་	-6627
▁བསྭོ་	-6628
▁འདུན།	-6629
▁འཕེལ།	-6630
༡ཟླ༩པའི	-6631
ཡིན།ཁོ་	-6632
ོནརླུང་	-6633
▁།གཉིས་	-6634
▁།བརྒལ་	-6635
▁།འཕེན་	-6636
▁དུས།ད་	-6637
▁པས།གལ་	-6638
▁ཚེ།དྲ་	-6639
▁འདུན།༽	-6640
▁རེད།ཐ་	-6641
▁ལ།ཉེན་	-6642
▁སུ།ལོ་	-6643
▁སྟེ།ཟ་	-6644
▁༡༩༦༧ལུ་	-6645
▁༢༠༠༨ནང་	-6646
▁ཁགགཞུང་	-6647
▁གོལ།བལ་	-6648
▁གྱ།རྒན་	-6649
▁གྱུར།ད་	-6650
▁ངགབདུད་	-6651
▁ངེས།དེ་	-6652
▁ངེས།ནམ་	-6653
▁ངོས།ཝེ་	-6654
▁ཅན༽ཞེས་	-6655
▁ཅིང་།ལ་	-6656
▁ཅེསབོད་	-6657
▁ཆ།འདུལ་	-6658
▁ཆགས།རབ་	-6659
▁ཆར།གླུ་	-6660
▁ཆས།འདུ་	-6661
▁ཆུངཟེར་	-6662
▁ཆེད།ལོ་	-6663
▁ཆེན།དེ་	-6664
▁ཆེན།ལས་	-6665
▁ཆོགཅེས་	-6666
▁ཏུ།ཆོས་	-6667
▁ཏུ།བོད་	-6668
▁ཏུསེམས་	-6669
▁ཏེ།གཞན་	-6670
▁ཏེ།གྲུ་	-6671
▁ཏེ།དོན་	-6672
▁ཏེ།མདོ་	-6673
▁ཏེ།མཚོ་	-6674
▁ཏེ།ཞིང་	-6675
▁ཏེ།ཞེས་	-6676
▁ཏེ།འདི་	-6677
▁ཏེ།འཚོ་	-6678
▁ཏེ།རྗེ་	-6679
▁ཏེ།ལྷོ་	-6680
▁ཏེཁྱོད་	-6681
▁ཐད།བོད་	-6682
▁ཐུགརྣམ་	-6683
▁ཐུབ།ཅི་	-6684
▁ཐེངསབརྩ	-6685
▁ཐོགདེང་	-6686
▁ཐོགབོད་	-6687
▁དག།མིག་	-6688
▁དགའ།ལད་	-6689
▁དགེའོ།།	-6690
▁དགོན།ཀ་	-6691
▁དགོན།ས་	-6692
▁དགོས།ཁ་	-6693
▁དགོས།ད་	-6694
▁དགོས།ས་	-6695
▁དང་།བར་	-6696
▁དང་།ཟླ་	-6697
▁དང་།རང་	-6698
▁དང་།རེ་	-6699
༡༡་	-6700
འམག	-6701
ཡ།་	-6702
བྷི་	-6703
མཁལ་	-6704
འཇུ་	-6705
▁།ཝ་	-6706
▁ཛམ་	-6707
▁ཛར་	-6708
༨དབང་	-6709
༽ཐོག་	-6710
འཇིག་	-6711
▁ཀྲུར	-6712
▁ཙའེ་	-6713
▁ཟླཝ་	-6714
▁རོལ།	-6715
▁ལམཔ།	-6716
འམགིས་	-6717
སྦྱོང་	-6718
▁།ཤོག་	-6719
▁༽ཞེས་	-6720
▁ཀིཡ།་	-6721
▁ཁགདེ་	-6722
▁གྲོལ།	-6723
▁ཉའོ།།	-6724
▁ཏེ།ཝ་	-6725
▁ནའོ།།	-6726
▁བ།རི་	-6727
▁བསྲོ་	-6728
▁མཟེར་	-6729
ཚེསཉིན་	-6730
▁།།མཁལ་	-6731
▁༡༧ཉིན་	-6732
▁༨ཕྱུར་	-6733
▁ཀྲུརུ་	-6734
▁ཁགགཞན་	-6735
▁ཁྲའོ།།	-6736
▁ཏྲིའི་	-6737
▁ན།ཐོག་	-6738
▁བསྲུང་	-6739
▁བྱེད།།	-6740
▁མ།བྷང་	-6741
▁ཡོད།༡༩	-6742
▁ལགས།ད་	-6743
▁ལོ།དེ་	-6744
༢༠༡༨དབང་	-6745
ུན།གྲོང་	-6746
▁ཁགཚོགས་	-6747
▁དང་།ཨུ་	-6748
▁དང།གུས་	-6749
▁དང།ཕྱི་	-6750
▁དང༧གོང་	-6751
▁དབྱེའི་	-6752
▁དུ།ཁོང་	-6753
▁དུ།གནའ་	-6754
▁དུ།ཆོས་	-6755
▁དུ།བདག་	-6756
▁དུ།མདོ་	-6757
▁དུ།ཞེས་	-6758
▁དུ།རྟག་	-6759
▁དུརྩོམ་	-6760
▁དུས།ཚེ་	-6761
▁དུས།རྣ་	-6762
▁དེ།གུང་	-6763
▁དེ།གོང་	-6764
▁དེ།ངེས་	-6765
▁དེ།དཔལ་	-6766
▁དེ།དེང་	-6767
▁དེ།ཞིང་	-6768
▁དེ།འཚོ་	-6769
▁དེསབོད་	-6770
▁དོན།མི་	-6771
▁དྲགཅེས་	-6772
▁ན།ཁྱེད་	-6773
▁ན།གློག་	-6774
▁ན།ཐེངས་	-6775
▁ན།དེའི་	-6776
▁ན།བཟོད་	-6777
▁ན།ལོའི་	-6778
▁ན།སྤྱི་	-6779
▁ནས།ཁོང་	-6780
▁ནས།ཐོག་	-6781
▁ནས།དཔེ་	-6782
▁ནས།ཕྱག་	-6783
▁ནས།བཀའ་	-6784
▁ནས།མདོ་	-6785
▁ནས།ཚིག་	-6786
▁ནས།འཛད་	-6787
▁ནས།རིག་	-6788
▁ནས།རྒྱ་	-6789
▁ནས།རྫས་	-6790
▁ནས།ལྷག་	-6791
▁ནས།སྟག་	-6792
▁ནི།གཙོ་	-6793
▁ནི།གཞན་	-6794
▁ནི།ཆོས་	-6795
▁ནི།དབུ་	-6796
▁ནི།ཕྱི་	-6797
▁ནི།བྷར་	-6798
▁ནི།མོན་	-6799
སརྦ་	-6800
ན།ཡི་	-6801
▁།ཉན་	-6802
▁།ཚེ་	-6803
▁ཆིབ་	-6804
▁ཛིལ་	-6805
▁ཞུན།	-6806
▁རྔོ་	-6807
▁ཤིབ་	-6808
།ལྷུན་	-6809
གསུངས།	-6810
▁།སྡེ་	-6811
▁ཁགགི་	-6812
▁གཤིབ་	-6813
▁ནརྣམ་	-6814
▁པ།མང་	-6815
▁པ།ལམ་	-6816
▁བསྙམ་	-6817
▁བསྙས་	-6818
▁ཛུའི་	-6819
▁ཡུལ།།	-6820
▁རྔུལ་	-6821
▁།སྒོམ་	-6822
▁དེ།གང་	-6823
▁ན།དགེ་	-6824
▁ནི།གང་	-6825
▁པ།གནས་	-6826
▁བ།ལུག་	-6827
▁བསྐྲད་	-6828
▁བསྙམས་	-6829
▁མིིའི་	-6830
▁ལ།གནས་	-6831
▁སུཞེས་	-6832
▁སྒྱོག་	-6833
༣༣༧༣བཏང་	-6834
▁།དབྱིན་	-6835
▁༨༣བཞེས་	-6836
▁༸སྒྲུབ་	-6837
▁ཁོགཟེར་	-6838
▁གམ།སྙན་	-6839
▁གཞསསྐལ་	-6840
▁ཏུ།རྒྱ་	-6841
▁དེ།དགེ་	-6842
▁དེ།རྣམ་	-6843
▁དོ།།བུ་	-6844
▁ན།རྒྱུ་	-6845
▁ནི།།དེ་	-6846
▁ནི།མྱི་	-6847
▁ནི།འཛམ་	-6848
▁ནི།རྐང་	-6849
▁ནི།རྣམ་	-6850
▁ནི།ལུས་	-6851
▁ནི།སྔར་	-6852
▁པ།༽བློ་	-6853
▁པ།ཁྱོད་	-6854
▁པ།གསོལ་	-6855
▁པ།གྲོང་	-6856
▁པ།དཔོན་	-6857
▁པ།དབུས་	-6858
▁པ།དབོར་	-6859
▁པ།དབྱར་	-6860
▁པ།མཚོན་	-6861
▁པ།ཚོགས་	-6862
▁པ།རྩོལ་	-6863
▁པ།ལེགས་	-6864
▁པ།ལོའི་	-6865
▁པ།སྐྱེ་	-6866
▁པ།སྟོད་	-6867
▁པའི།མི་	-6868
▁པའིཆོས་	-6869
▁པར།འདི་	-6870
▁པར།རྒྱ་	-6871
▁པས།ཁོང་	-6872
▁པས།ཁོས་	-6873
▁པས།གསར་	-6874
▁པས།ཉིན་	-6875
▁པས།ཐོན་	-6876
▁པས།དུས་	-6877
▁པས།བཀའ་	-6878
▁པས།ཟུར་	-6879
▁པས།ལོར་	-6880
▁པོ།ཐུབ་	-6881
▁པོ།དཔེ་	-6882
▁པོ།དེང་	-6883
▁པོ།འདོ་	-6884
▁པོ།རོང་	-6885
▁པོ།རྣམ་	-6886
▁པོ༽རྒྱ་	-6887
▁ཕྱིན།ས་	-6888
▁ཕྱུར༡༡༦	-6889
▁བ།༧གོང་	-6890
▁བ།གྲོང་	-6891
▁བ།དངོས་	-6892
▁བ།མཆེད་	-6893
▁བ།རྒྱུ་	-6894
▁བ།རྩོམ་	-6895
▁བ།ལྕགས་	-6896
▁བཀྲོངས་	-6897
▁བབ།སྦི་	-6898
▁བམ།འཛམ་	-6899
ངསམ་	-6900
འགག་	-6901
སསྦ་	-6902
ོནམ་	-6903
▁ཡ།ཧ	-6904
▁ལྔ།	-6905
།བསད་	-6906
ང།ལག་	-6907
རྡུལ་	-6908
▁།པེ་	-6909
▁གྱོན	-6910
▁དྷོ་	-6911
▁བགམ་	-6912
▁འོགས	-6913
▁ཡ།མ་	-6914
▁རཱི་	-6915
▁ཤཱི་	-6916
▁སཱི་	-6917
▁སྟོན	-6918
༣༠ཉིན།	-6919
▁།ཞིན་	-6920
▁།ཤེལ་	-6921
▁།སྐད་	-6922
▁པ།ལག་	-6923
▁ཕུབས་	-6924
▁བསྣག་	-6925
▁ཟད།ཕ་	-6926
▁འི།དྲ	-6927
▁ཡ།ཡི་	-6928
ཞིང།ལག་	-6929
▁གྲིམས་	-6930
▁དེ།རྔ་	-6931
▁ན།དཀར་	-6932
▁ནགཧོར་	-6933
▁ནི།ཏང་	-6934
▁པ།བདེ་	-6935
▁བ།དཀར་	-6936
▁བ།འགག་	-6937
▁བརྟགསྐ	-6938
▁བསྣུན་	-6939
▁ཚོསསྦ་	-6940
▁འཇོགལ་	-6941
▁འོགསྨྱ	-6942
▁ཡ།རྒྱ་	-6943
▁རེད།ཕ་	-6944
▁སྐོམ།འ	-6945
▁སྟོབས།	-6946
▁༸སྐུའི་	-6947
▁ཀློགནང་	-6948
▁གསུངསམ་	-6949
▁གསུམ།ས་	-6950
▁ཆེན།པེ་	-6951
▁དོན།ཏང་	-6952
▁ནུག།དེ་	-6953
▁པ།དཔེར་	-6954
▁པ།བརླན་	-6955
▁པ།སྲིད་	-6956
▁བ།སྤུས་	-6957
▁བཙནགཙོ་	-6958
▁བཞགཞེས་	-6959
▁བཞིན།ད་	-6960
▁བཞིན།ཨ་	-6961
▁བཟོས།ད་	-6962
▁བའམམགོ་	-6963
▁བའི།མི་	-6964
▁བའིཞེས་	-6965
▁བའོ།།ཁ་	-6966
▁བར།ཐེམ་	-6967
▁བར།མགོ་	-6968
▁བརྙོགས་	-6969
▁བརྡུངས།	-6970
▁བརྩིགས་	-6971
▁བསྐྱབས་	-6972
▁བསྐྱིལ་	-6973
▁བསྐྱོན་	-6974
▁བསྐྱོན།	-6975
▁བསྐྱོར་	-6976
▁བསྒྲིས་	-6977
▁བསྡེབས་	-6978
▁བསྣུབས་	-6979
▁བསྲུངས་	-6980
▁བསློགས་	-6981
▁བུ།ཡིག་	-6982
▁བུའོ།ཨ་	-6983
▁བོན།མེ་	-6984
▁བྱས།དེ་	-6985
▁བྱས།པར་	-6986
▁བྱས།རང་	-6987
▁བྱེད།རྙ	-6988
▁བྲལ།དེ་	-6989
▁བྲིས།ད་	-6990
▁བླུནནི་	-6991
▁མ།གླིང་	-6992
▁མ།འགྲོ་	-6993
▁མ།རྟགས་	-6994
▁མཁན༧ལས་	-6995
▁མཇལ།རི་	-6996
▁མཛད།དེ་	-6997
▁མེད།མི་	-6998
▁མེད།ཚེ་	-6999
རྡ་	-7000
མཐའ་	-7001
▁༩༨ས	-7002
▁ཚོད	-7003
དྲིས་	-7004
དྲེག་	-7005
ོདནི་	-7006
▁།ངག་	-7007
▁གཏོད	-7008
▁པ།ཆ་	-7009
▁བནི་	-7010
▁མཛོད	-7011
▁མྱུར	-7012
གཟེངས་	-7013
འོ།ཅི་	-7014
ེའུའི་	-7015
▁།དབང་	-7016
▁།བརྡ་	-7017
▁༡༡ཙམ་	-7018
▁༢༠ཙམ་	-7019
▁གར།བྲ	-7020
▁དུ།ཡ་	-7021
▁དུངམ་	-7022
▁དེ།ཡ་	-7023
▁ན།ཅི་	-7024
▁པདྨས་	-7025
▁བ།ཅི་	-7026
▁བར།ཨ་	-7027
▁བརླག་	-7028
▁བྱའོ།	-7029
▁མིགཡ་	-7030
▁ཞིགད་	-7031
▁ལ།རི་	-7032
▁ལ།རྟ་	-7033
▁ལསཅི་	-7034
▁ལསནི་	-7035
▁ལྕངམ་	-7036
▁སྤྱོད	-7037
▁།དངུལ་	-7038
▁།སྒོས་	-7039
▁༩༨སོན་	-7040
▁གམ།ཟླ་	-7041
▁གམ།ཡང་	-7042
▁གམ།རི་	-7043
▁ཆས།མི་	-7044
▁ནས།རི་	-7045
▁པར།ཐད་	-7046
▁བ།མཐའ་	-7047
▁བཅིངས།	-7048
▁མགཉིས་	-7049
▁ཚནཞེས་	-7050
▁ལ།ཅིག་	-7051
▁ལའངལས་	-7052
▁།ཀྲོའུ་	-7053
▁།དཀྱོག་	-7054
▁༢༠༡༦ནང་	-7055
▁གར།བྲོ་	-7056
▁ཆེད།ཟླ་	-7057
▁ཆོགརྗེ་	-7058
▁དེ།ཁོར་	-7059
▁པ།འདིར་	-7060
▁བར།འདི་	-7061
▁བསྒྱངས་	-7062
▁བུ།དབང་	-7063
▁མཆོགརང་	-7064
▁མཛོདདུ་	-7065
▁མེད།རྫ་	-7066
▁མེད།ལོ་	-7067
▁མེདཞེས་	-7068
▁མོ།རིག་	-7069
▁མོ།སྐལ་	-7070
▁མོད།བྱ་	-7071
▁མོའིནང་	-7072
▁ཙགམཐེབ་	-7073
▁ཙམ།བཤད་	-7074
▁ཙོ།ཀུན་	-7075
▁ཚབ།རྒྱ་	-7076
▁ཚེ།ཆོས་	-7077
▁ཚེ།རྩེ་	-7078
▁ཚེས།།གཟ	-7079
▁ཚེསབཅས་	-7080
▁ཚོགས༢༠༡	-7081
▁ཛ།ཀྲུང་	-7082
▁ཞིགཁོང་	-7083
▁ཞུ།དུས་	-7084
▁ཞུ།ཡིན་	-7085
▁ཞུདགོས།	-7086
▁ཞུས།མི་	-7087
▁ཟ།དབུལ་	-7088
▁ཟད།གངས་	-7089
▁ཟད།གནའ་	-7090
▁ཟད།ནོར་	-7091
▁ཟད།བོན་	-7092
▁ཟད།རྒྱ་	-7093
▁ཟེར།གང་	-7094
▁ཟེར།ངས་	-7095
▁ཟླ༥པའི་	-7096
▁འཁྲིགས་	-7097
▁འཁྲུངས།	-7098
▁འགོགཐད་	-7099
ངྒེ་	-7100
▁༡༧༡	-7101
▁༡༨༥	-7102
༡༤ལོ་	-7103
༽བཅས་	-7104
ཕྲེང་	-7105
ེའུར་	-7106
▁༤༥༠༠	-7107
▁༽དང་	-7108
▁༽དེ་	-7109
▁ཡོཀ་	-7110
དཀྱིལ་	-7111
▁།གནམ་	-7112
▁།གསལ་	-7113
▁།ཚིག་	-7114
▁༡༦དང་	-7115
▁༢༠༡༧་	-7116
▁༤བཅས་	-7117
▁༧ཞབས་	-7118
▁པ།ཕན་	-7119
▁ཧེ།ང་	-7120
▁།གཟིག་	-7121
▁༡༨ཡིན་	-7122
▁༤༥༠༠༠་	-7123
▁༥དབུས་	-7124
▁ཀྱོགལྦ	-7125
▁གཞན།ད་	-7126
▁ངོས།ཆ་	-7127
▁ངོས།ཕ་	-7128
▁དཀྲོག་	-7129
▁དུ།ཉི་	-7130
▁པ།དབང་	-7131
▁བ།ཞབས་	-7132
▁བསྟན།།	-7133
▁ལ།།སོ་	-7134
▁ལེའུར་	-7135
▁སེངྒེ་	-7136
▁སྒྱུར།	-7137
▁ཨིན།ཁ་	-7138
▁༡༣ཕྲེང་	-7139
▁༡༩༡༤ལོ་	-7140
▁ཁག༧གོང་	-7141
▁གསོ།ཆུ་	-7142
▁ཆེ།ཚིག་	-7143
▁ནས།བསམ་	-7144
▁ནས།བློ་	-7145
▁ནསལོའི་	-7146
▁ནུག།བྱ་	-7147
▁པ།༧གོང་	-7148
▁པ།དངུལ་	-7149
▁པ།རླུང་	-7150
▁པ།སྔོན་	-7151
▁པར།འཚོ་	-7152
▁མར།བོད་	-7153
▁ཟད།མིག་	-7154
▁འགྱིངས་	-7155
▁འཇུགདང་	-7156
▁འདུགཁོ་	-7157
▁འདུགགོ་	-7158
▁འདུགདྲ་	-7159
▁འདུགཔར་	-7160
▁འདུགཔེ་	-7161
▁འདུགམུ་	-7162
▁འདུགམོ་	-7163
▁འདུགརང་	-7164
▁འདུགརབ་	-7165
▁འདུགརེ་	-7166
▁འདུགལམ་	-7167
▁འདུགལོ་	-7168
▁འབྱུང་།	-7169
▁འི།མཁའ་	-7170
▁ཡང་།མི་	-7171
▁ཡས།འཇམ་	-7172
▁ཡི།ཁམས་	-7173
▁ཡིགབོད་	-7174
▁ཡིགཡུལ་	-7175
▁ཡིན།གང་	-7176
▁ཡིན།གཉི	-7177
▁ཡིན།ཐག་	-7178
▁ཡིན།ཐང་	-7179
▁ཡིན།དར་	-7180
▁ཡིན།དྲ་	-7181
▁ཡིན།ནང་	-7182
▁ཡིན།ནད་	-7183
▁ཡིན།ནམ་	-7184
▁ཡིན།མི་	-7185
▁ཡིན།ཚེ་	-7186
▁ཡིན།ལམ་	-7187
▁ཡིན།ལས་	-7188
▁ཡིསབདེ་	-7189
▁ཡུལ།༽དང	-7190
▁ཡུལ།ཀན་	-7191
▁ཡུལ།ཨུ་	-7192
▁ཡུལ།ཨོ་	-7193
▁ཡོད།གང་	-7194
▁ཡོད།ངོ་	-7195
▁ཡོད།ཆུ་	-7196
▁ཡོད།ཉེ་	-7197
▁ཡོད།དང་	-7198
▁ཡོད།པེ་	-7199
བཟའ་	-7200
▁༡༦་	-7201
མཛོད།	-7202
▁།ཀན་	-7203
▁།ཡར་	-7204
▁དྲུང	-7205
སྒྲོལ་	-7206
▁།ནུབ་	-7207
▁༡༩༩༤་	-7208
▁༣༤པར་	-7209
▁དུཚག་	-7210
▁ནགགི་	-7211
▁ནསཞི་	-7212
▁པ།ཐང་	-7213
▁བོ།ཨ་	-7214
▁ལ།བུ་	-7215
▁།དགོས་	-7216
▁།བརྩེ་	-7217
▁།སྒེར་	-7218
▁༡༦ཉིན་	-7219
▁༢གྲོས་	-7220
▁༣༤པའི་	-7221
▁གྱིསན་	-7222
▁དང།ཡང་	-7223
▁ན།གྱི་	-7224
▁ན།འོས་	-7225
▁པ།འོས་	-7226
▁པ།ཡིག་	-7227
▁པས།།ཅ་	-7228
▁ཚེ།ཨེ་	-7229
▁ཞུགས།།	-7230
▁ཟི།ཏན་	-7231
▁རྙིངམ་	-7232
▁ལ།རིན་	-7233
▁ཤོགགལ་	-7234
མཛོད།ཕར་	-7235
▁༡༩༥༩ལོ་	-7236
▁༢༠༠༨༢༠༡	-7237
▁༢༠༠༨ཅན་	-7238
▁ཀྱིས།ས་	-7239
▁ཆེ།མཁས་	-7240
▁ཆེན།ཀན་	-7241
▁ཏེ།རིང་	-7242
▁དཀྲུགས་	-7243
▁དཀྲོགས་	-7244
▁དང་།།ས་	-7245
▁ནས།རིམ་	-7246
▁ནི།མཁས་	-7247
▁པའིཆེད་	-7248
▁པས།ཉིད་	-7249
▁པོ།རིན་	-7250
▁པོརྒྱལ་	-7251
▁བ།གྲོས་	-7252
▁བར།འཇུ་	-7253
▁འདྲགྱི་	-7254
▁ཡོད།བུ་	-7255
▁ཡོད།མང་	-7256
▁ཡོད།ལམ་	-7257
▁ཡོད།ལས་	-7258
▁ཡོད།ལྷ་	-7259
▁ཡོད།ཧང་	-7260
▁ཡོདཤེས་	-7261
▁ཡོན།རྩ་	-7262
▁རབསཔའི་	-7263
▁རིགགཏམ་	-7264
▁རེད།།།།	-7265
▁རེད།ཁོ་	-7266
▁རེད།གལ་	-7267
▁རེད།ངས་	-7268
▁རེད།ཐང་	-7269
▁རེད།པེ་	-7270
▁རེད།བར་	-7271
▁རེད།ཚན་	-7272
▁རེད།རང་	-7273
▁རེད།ལག་	-7274
▁རེད།ལེ་	-7275
▁རེད།ལྷ་	-7276
▁རེད།སུ་	-7277
▁རེད།སོ་	-7278
▁རེད།ཧན་	-7279
▁རེདགསལ་	-7280
▁རྒྱུར།ཧ	-7281
▁རྗེས།ད་	-7282
▁རྗེས།ཨ་	-7283
▁རྩེདམོ་	-7284
▁རྫོངཆུས	-7285
▁ལ།།བསེ་	-7286
▁ལ།ཀྲུང་	-7287
▁ལ།ཁྲོག་	-7288
▁ལ།གྲོང་	-7289
▁ལ།ཐེངས་	-7290
▁ལ།དངོས་	-7291
▁ལ།དབུས་	-7292
▁ལ།ཕྱུག་	-7293
▁ལ།བརྙན་	-7294
▁ལ།འདིར་	-7295
▁ལ།སྤྱི་	-7296
▁ལ།སློབ་	-7297
▁ལགས།ཀན་	-7298
▁ལགས།དེ་	-7299
།།ཤ་	-7300
ཀརྨ་	-7301
ུལལ་	-7302
▁༢༤་	-7303
▁ཤེལ	-7304
ནཚོད་	-7305
མགུར་	-7306
ེ།རྨ་	-7307
▁།ཐར་	-7308
▁།ཕག་	-7309
▁།སྣ་	-7310
▁།ཧན་	-7311
▁།ཧེ་	-7312
▁༡༩༨༨	-7313
▁༢།༣༠	-7314
▁༨།༣༠	-7315
▁གྷི་	-7316
▁དཱན་	-7317
▁པ།ཉ་	-7318
▁པོཕ་	-7319
▁ཧཡེ་	-7320
ུལདགེ་	-7321
▁།གཞི་	-7322
▁།བྱང་	-7323
▁།འདས་	-7324
▁༢༠༡༦་	-7325
▁༣༠ཙམ་	-7326
▁གྷུལ་	-7327
▁ཆེའམ་	-7328
▁དྷརྨ་	-7329
▁པ།ཕབ་	-7330
▁ཚུལལ་	-7331
▁འབྲེལ	-7332
ུའེ།རྨ་	-7333
▁།ཁྱིམ་	-7334
▁།འཁོར་	-7335
▁།རྩེད་	-7336
▁གིསདེ་	-7337
▁གོ།ཟླ་	-7338
▁ཏེ།བལ་	-7339
▁དང།ནད་	-7340
▁ནམ།ངོ་	-7341
▁ནམ།ཡེ་	-7342
▁པ།མཉམ་	-7343
▁བར།བྱ་	-7344
▁བྱིའུ་	-7345
▁མོ།།མ་	-7346
▁ཞུས།༡༩	-7347
▁ལན།པར་	-7348
▁ཤེལདང་	-7349
▁༢།༣༠ཡས་	-7350
▁༨།༣༠ཙམ་	-7351
▁གཉིསརང་	-7352
▁གིསཞབས་	-7353
▁དང།ཁྲག་	-7354
▁དུ།ཁམས་	-7355
▁པ།འབྲས་	-7356
▁ཕྲན།ཟམ་	-7357
▁བཞགཅེས་	-7358
▁བཞེདནང་	-7359
▁བོ།ཚོང་	-7360
▁མི།བཀའ་	-7361
▁མི།བོད་	-7362
▁ལ།སྟོན་	-7363
▁ལངྐ།སི་	-7364
▁ལན།ངའི་	-7365
▁ལན།དུང་	-7366
▁ལམ།བོད་	-7367
▁ལའཇིགས་	-7368
▁ལས།ཆུད་	-7369
▁ལས།དོན་	-7370
▁ལས།མཁའ་	-7371
▁ལས།མཚན་	-7372
▁ལས།ཞེས་	-7373
▁ལས།འཛམ་	-7374
▁ལེགས།ང་	-7375
▁ལེགས།ཨ་	-7376
▁ལེན།ངོ་	-7377
▁ལོ༥༠ཅན་	-7378
▁ལོསྐབས་	-7379
▁ལྟར།ཉེ་	-7380
▁ལྡནཚོད་	-7381
▁ཤིང་།ཁ་	-7382
▁ཤེས།དེ་	-7383
▁ཤོག༢༠༠༨	-7384
▁ཤོགབོད་	-7385
▁ས།༧དཔལ་	-7386
▁སརཟློས་	-7387
▁སུ།དཔལ་	-7388
▁སུ།བོད་	-7389
▁སུ།རྒྱ་	-7390
▁སུརྒྱལ་	-7391
▁སོ།།ཁོ་	-7392
▁སོ།།དེ་	-7393
▁སྐོར།པ་	-7394
▁སྒྲེངས་	-7395
▁སྙམ།གང་	-7396
▁སྟབས།ས་	-7397
▁སྟེ།གོ་	-7398
▁སྟེ།ངོ་	-7399
▁ངོས	-7400
གདོད་	-7401
ཨགཏམ་	-7402
▁།ལབ་	-7403
▁༡སྦ་	-7404
▁༧བླ་	-7405
▁ཀརུ་	-7406
༽སྟེང་	-7407
▁།གཏམ་	-7408
▁།གཡས་	-7409
▁།གཡོ་	-7410
▁།ཐོན་	-7411
▁།དཔང་	-7412
▁།ལིག་	-7413
▁༢༥ནས་	-7414
▁༢༧ནས་	-7415
▁༧ཐོན་	-7416
▁ཏེལོ་	-7417
▁ན།མོ་	-7418
▁ན།སྦ་	-7419
▁པ།བླ་	-7420
▁ཕུལ།ཞ	-7421
▁འཕྱར་	-7422
▁འོགད་	-7423
▁ལ།རུ་	-7424
▁ལ།ལེ་	-7425
▁སྐྲན་	-7426
▁སྨྲེ་	-7427
▁།གཏུག་	-7428
▁།དཔུང་	-7429
▁༢༥ཉིན་	-7430
▁༨སྟེང་	-7431
▁༸གཡུང་	-7432
▁གེསྐད་	-7433
▁ཏེ།མེ་	-7434
▁ཏེཞེས་	-7435
▁དམ།ཡང་	-7436
▁ན།དགྲ་	-7437
▁ན།འཛད་	-7438
▁ནི།ཞལ་	-7439
▁པ།གཏམ་	-7440
▁པ།མངལ་	-7441
▁པོ།མུ་	-7442
▁ཕན།དེ་	-7443
▁བ།ཐོན་	-7444
▁བ།འཇམ་	-7445
▁བཀྱོན་	-7446
▁ལ།ཟུར་	-7447
▁ལགཤེས་	-7448
▁སྒྲབླ་	-7449
▁༢༠༡༥ཡི་	-7450
▁ཁྲིམསདང	-7451
▁ངོའཁོར་	-7452
▁ངོས༣༣ན།	-7453
▁ཆར།གསར་	-7454
▁དུ།ཀུན་	-7455
▁པ།གསུམ་	-7456
▁པའིདམག་	-7457
▁པར།རྡོ་	-7458
▁པས།གཙང་	-7459
▁ཕན།ཞེས་	-7460
▁མ།།ཁྲོ་	-7461
▁ཚེ།ངེས་	-7462
▁ཚོད།ལེ་	-7463
▁འོགཁམས་	-7464
▁འོགམདོ་	-7465
▁ཡོདཅེས་	-7466
▁སུ།ངེས་	-7467
▁སྐད།དེ་	-7468
▁སྟེ།ཏང་	-7469
▁སྟེ།མེ་	-7470
▁སྟེ།ཚན་	-7471
▁སྟེ།ལས་	-7472
▁སྟེ།ལོ་	-7473
▁སྣ།དེང་	-7474
▁སྦྱྱོར་	-7475
▁སྲིད།མ་	-7476
▁ཨིན།དེ་	-7477
༡༡རེད།གལ་	-7478
༡ཟླ༩པའི༢༢	-7479
༢༠༡༦ལོའི་	-7480
༦༦༨༣༧༥༡༥༩	-7481
༩༢༠༡༡བོད་	-7482
ཉིན།རྒྱལ་	-7483
ཚེས༠༩བོད་	-7484
ཞེསགསུངས།	-7485
ོག།དབུགས་	-7486
▁།༧སྐྱབས་	-7487
▁།བརྒྱུད་	-7488
▁༡༦༡༥ལོར་	-7489
▁༡༩༥༩ལོར་	-7490
▁༡༩༩༥ལོར་	-7491
▁༡༩༩༨ལོར་	-7492
▁༢༠༠༨བོད་	-7493
▁༢༠༡༠ཕྱི་	-7494
▁༢༠༡༢ཤེས་	-7495
▁༢༠༡༥ལོར་	-7496
▁༢༠༡༧ཕྱི་	-7497
▁༣༠འགྱངས་	-7498
▁༦ཉིན།ཆུ་	-7499
༥རབ་	-7500
ལཏེ་	-7501
ིངྒ་	-7502
▁།ཡང	-7503
▁༦༠་	-7504
▁ཐོབ	-7505
▁སིང	-7506
༤བའི་	-7507
༨ཀྱི་	-7508
༩༢ཙམ་	-7509
ལྡོང་	-7510
ོབནི་	-7511
▁།ཆེ་	-7512
▁།ཕལ་	-7513
▁༡༩༣༧	-7514
▁ཁྱེར	-7515
▁ཏྲོ་	-7516
▁ན།བག	-7517
▁ནཱེ་	-7518
▁པཱེ་	-7519
▁མིཨ་	-7520
▁ར།མ་	-7521
▁སིའི	-7522
▁སྩལ།	-7523
འབྱོར་	-7524
▁།གསང་	-7525
▁།མདོ་	-7526
▁༢༩ཡི་	-7527
▁ཉ།མི་	-7528
▁ཏྲེས་	-7529
▁ཏྲོམ་	-7530
▁པ།རེ་	-7531
▁པར།ཚ་	-7532
▁མོརྟ་	-7533
▁འཛུགས	-7534
▁སིངྒ་	-7535
▁།ཆུའི་	-7536
▁༡༣པའི་	-7537
▁༢༡པའི་	-7538
▁ཁངཞེས་	-7539
▁ཆེ།དད་	-7540
▁ཆེ།རྩ་	-7541
▁དང།ཡན་	-7542
▁དུ།དད་	-7543
▁པ།གནད་	-7544
▁པ།དཀའ་	-7545
▁པ།དྲག་	-7546
▁པར།ཞང་	-7547
▁པོ།ཕོ་	-7548
▁བ།དྲག་	-7549
▁ཟད།སྔ་	-7550
▁༢༡༤༥རབ་	-7551
▁གསལ།ནག་	-7552
▁ཏེ།གནད་	-7553
▁ཐོགཡིད་	-7554
▁ནས།བརྡ་	-7555
▁པུསདུས་	-7556
▁མི།མངའ་	-7557
▁ཡ།སིངྒ་	-7558
▁རེད།སང་	-7559
▁ལམ།དཀའ་	-7560
▁སུ།བདག་	-7561
▁།རྒྱུགས་	-7562
▁༡༩༣༧ལོར་	-7563
▁ཀྱང་།ཉི་	-7564
▁ཀློགབོད་	-7565
▁ཁམས།ཞིང་	-7566
▁ཁར།རོགས་	-7567
▁ཁྱེར།དེ་	-7568
▁ཁྲིམས།ས་	-7569
▁ཁྲིམསདང་	-7570
▁གཅོད།ཆད་	-7571
▁གཅོད།ནག་	-7572
▁གཉིས།དེ་	-7573
▁གཉིས།ལྷ་	-7574
▁གཏན།བརྡ་	-7575
▁གཏོདཅེས་	-7576
▁གནས།གསལ་	-7577
▁གནསལོའི་	-7578
▁གམ།།གཟི་	-7579
▁གཟུངསལྟ་	-7580
▁གསན།རྗེ་	-7581
▁གསུམ།ཐར་	-7582
▁གསུམ།ནཱ་	-7583
▁གསུམ།ལྷ་	-7584
▁གི།བརྩེ་	-7585
▁གིས།ཁོང་	-7586
▁གིས།གཞན་	-7587
▁གིས།དཀར་	-7588
▁གིས།མཚོ་	-7589
▁གིས།འཚོ་	-7590
▁གོས།གནའ་	-7591
▁གྱིས།རང་	-7592
▁གྲས།ཐོད་	-7593
▁གྲིབཟེར་	-7594
▁གྲུབ།བླ་	-7595
▁གྲྭརྒྱལ་	-7596
▁གླིང་།ཚ་	-7597
▁གླིངབཅས་	-7598
▁ཅི།ཀྲུང་	-7599
▁།གླང་	-7600
▁།གླུ་	-7601
▁།བཅས་	-7602
▁།འདུ་	-7603
▁།སྐམ་	-7604
▁།སྨན་	-7605
▁པ།མན་	-7606
▁ཕོགཔ་	-7607
▁འཕྱང་	-7608
▁།སྨྲེ་	-7609
▁༧གྲུབ་	-7610
▁ཀྱངསྦ་	-7611
▁ཁར།རང་	-7612
▁ཆུངལས་	-7613
▁དེབཚན་	-7614
▁པ།མེས་	-7615
▁འཛུམས་	-7616
▁ཡགླེང་	-7617
▁རྩྭའི་	-7618
▁ལོ།ལྷ་	-7619
▁།དམིགས་	-7620
▁༢༠༡༠ཟླ་	-7621
▁ཁར།ཁོང་	-7622
▁གཅིགམི་	-7623
▁དགའ།སྐར	-7624
▁ནས།ཡིད་	-7625
▁པ།རྒྱང་	-7626
▁པ།རྟེན་	-7627
▁པ།ལྕགས་	-7628
▁པ།སྐྱོ་	-7629
▁པར།ཟུག་	-7630
▁བ།སྤུན་	-7631
▁བ།སྤེལ་	-7632
▁བབ།གསར་	-7633
▁བོ།ལྟོ་	-7634
▁བོན།ཧི་	-7635
▁ཡི།འདི་	-7636
▁རྒྱུམང་	-7637
▁ལ།།ཟུག་	-7638
▁ལ།རྟེན་	-7639
▁ལ།སྐྱོ་	-7640
▁ལཀྲུའུ་	-7641
▁༡༩༦༠ལོར་	-7642
▁༡༩༩༦ལོར་	-7643
▁༢༠༠༢ལོར་	-7644
▁༢༠༠༦ལོར་	-7645
▁ཀྱང་།ནང་	-7646
▁ཀྱིགཞིས་	-7647
▁ཀྱིརྒྱལ་	-7648
▁གཅིགརྒྱ་	-7649
▁གཏན།བྱང་	-7650
▁ངམ།སེམས་	-7651
▁ངམ།སྤྱི་	-7652
▁ཅི།རྒྱལ་	-7653
▁ཅིག།མངྒ་	-7654
▁ཅིགཕྱིས་	-7655
▁ཅིགརྒྱང་	-7656
▁ཅིང་།དེ་	-7657
▁ཆགས།ཁོང་	-7658
▁ཆར།ཀྲུང་	-7659
▁ཆས།གློག་	-7660
▁ཆུང༽ཞེས་	-7661
▁ཆེད།གནམ་	-7662
▁ཆེད།གཞི་	-7663
▁ཆེད།དཔལ་	-7664
▁ཆེད།དམར་	-7665
▁ཆེད།སྡེ་	-7666
▁ཆེན།གནའ་	-7667
▁ཆེན།དཔེ་	-7668
▁ཆེན།ནུབ་	-7669
▁ཆེན།བོད་	-7670
▁ཆེན།རྩེ་	-7671
▁ཆོགདེའི་	-7672
▁ཆོགསྙུག་	-7673
▁ཉིན།གསར་	-7674
▁ཉིན།གུང་	-7675
▁ཉིན།ནུབ་	-7676
▁ཉིན།མཚོ་	-7677
▁ཉིན།འཛམ་	-7678
▁ཏིགདམངས་	-7679
▁ཏེ།ཁྱོད་	-7680
▁ཏེ།གསོལ་	-7681
▁ཏེ།གློག་	-7682
▁ཏེ།དགོན་	-7683
▁ཏེ།དངུལ་	-7684
▁ཏེ།དབྱར་	-7685
▁ཏེ།བཙོག་	-7686
▁ཏེ།མཛོད་	-7687
▁ཏེ།འཕེལ་	-7688
▁ཏེ།རིགས་	-7689
▁ཏེ།རྡུལ་	-7690
▁ཏེ།རྩེད་	-7691
▁ཏེ།སྒྱུ་	-7692
▁ཏེ།སྤྱི་	-7693
▁ཐན།ཝིཏི་	-7694
▁ཐུབ།ཁོང་	-7695
▁ཐུབ།གོང་	-7696
▁ཐུས།ཞེས་	-7697
▁ཐོབ།གཞན་	-7698
▁དགའ།དབང་	-7699
གཉན་	-7700
ཱིཀ་	-7701
▁༠༡་	-7702
༡༽ལས་	-7703
༦༢ཟླ་	-7704
གཅེན་	-7705
འཁྲབ་	-7706
ི།ཝི་	-7707
▁།ཐེ་	-7708
▁༡༧༦༢	-7709
▁༡༩༥༠	-7710
▁༦༠༠༠	-7711
▁གཏོང	-7712
▁པཱཤ་	-7713
▁མངྒ་	-7714
▁མེཀ་	-7715
▁ཚོཊ་	-7716
▁རཱས་	-7717
▁སུཝི	-7718
འཁྲིས་	-7719
▁།།ངན་	-7720
▁།བཙན་	-7721
▁།སྔས་	-7722
▁༢༠༠༡་	-7723
▁༣༡ལུ་	-7724
▁༣༤ལང་	-7725
▁༤༠ཡི་	-7726
▁༧༠ཡས་	-7727
▁ཅཱརྱ་	-7728
▁ཊཱིཀ་	-7729
▁དམ།༡༣	-7730
▁ན།ཁང་	-7731
▁ན།ལྟ་	-7732
▁ནིརི་	-7733
▁རཱོག་	-7734
▁༢༨ཉིན་	-7735
▁༢༽ལྷག་	-7736
▁༥༠ལྷག་	-7737
▁གཅོད།།	-7738
▁གུཞེས་	-7739
▁ཆོགཆད་	-7740
▁དེ།ཐལ་	-7741
▁ནས།ཁང་	-7742
▁ནས།ཡན་	-7743
▁པ།།རང་	-7744
▁པོ།སོ་	-7745
▁བརྗིད།	-7746
▁ཡངཟེར་	-7747
▁རེད།ཧ་	-7748
▁ལས།ཐག་	-7749
▁ལྔ།དམ་	-7750
▁སྤྱིི་	-7751
▁༢༨གཉིས་	-7752
▁༢༽དབུས་	-7753
▁༤༠སྐོར་	-7754
▁༧༠སྐོར་	-7755
▁ཆ།གྲོས་	-7756
▁དྲིས།ད་	-7757
▁བདགགཉན་	-7758
▁བཞུགསཔ་	-7759
▁བཞེདདུ་	-7760
▁འདྲ།གལ་	-7761
▁རྒྱལ།ཨ་	-7762
▁ལ།སྦྱར་	-7763
▁ཤགགསུམ་	-7764
▁སྟེཀླུ་	-7765
▁སྡོད།ང་	-7766
༢༠༡༧ལོའི་	-7767
▁།༡༩༦༢ཟླ་	-7768
▁༡༧༦༢ལོར་	-7769
▁༡༩༥༠ལོར།	-7770
▁༣༠༡གཅིག་	-7771
▁གཏོངལགས་	-7772
▁གསུམགྱི་	-7773
▁ཅིང་།གལ་	-7774
▁དགོས།ཆབ་	-7775
▁དགོས།ནམ་	-7776
▁དགོས།མང་	-7777
▁དགོས།ཚད་	-7778
▁དགོས།ལམ་	-7779
▁དང་།གསང་	-7780
▁དང་།ཐབས་	-7781
▁དང་།དབུ་	-7782
▁དང་།འདས་	-7783
▁དང་།འཛམ་	-7784
▁དང་།ལྷག་	-7785
▁དང་།སྤུ་	-7786
▁དང།།བཀའ་	-7787
▁དང།སེམས་	-7788
▁དངཕྱོགས་	-7789
▁དཔལ།ཡོང་	-7790
▁དུ།དགོན་	-7791
▁དུ།དགོས་	-7792
▁དུ།བསྟན་	-7793
▁དུ།སྐབས་	-7794
▁དུ།སྔོན་	-7795
▁དུས།ཁོང་	-7796
▁དུས།གནས་	-7797
▁དུས།གསར་	-7798
▁དུས།བློ་	-7799
ཤྲཱི་	-7800
༡༥ཉིན་	-7801
▁།།རི་	-7802
▁།ཀྲང་	-7803
▁།བཀས་	-7804
▁།བཟོ་	-7805
▁།མཛད་	-7806
▁།རྫས་	-7807
▁།སྦས་	-7808
▁༢ཚོན་	-7809
▁གྲི༡༩	-7810
▁པསྐར་	-7811
▁ཞངམོ་	-7812
▁ཤྲཱི་	-7813
▁ཧུའེ་	-7814
▁།༽འདི་	-7815
▁།གདོང་	-7816
▁།བཟོད་	-7817
▁།མཆིས་	-7818
▁།མཆོད་	-7819
▁།མཛེས་	-7820
▁།རྫུན་	-7821
▁།སྦྲག་	-7822
▁༡༢ཚུན་	-7823
▁༣༠༠ལས་	-7824
▁༩༠༠བར་	-7825
▁གྲྲོང་	-7826
▁གླངམོ་	-7827
▁དུཤེལ་	-7828
▁དྲགོས་	-7829
▁བ།སྐར་	-7830
▁བཀྱགས་	-7831
▁བཀྱེད་	-7832
▁བལྟ།ང་	-7833
▁ཡས།ནི་	-7834
▁རམ།ཡང་	-7835
▁ལསལྕེ་	-7836
▁ལི།གལ་	-7837
▁སམ།དེ་	-7838
▁།རྨོངས་	-7839
▁༡༠༨༨༨༨་	-7840
▁ཁུ།སྔོ་	-7841
▁གཞསཞེས་	-7842
▁གཞིཞིང་	-7843
▁གྲྭགྲུ་	-7844
▁ཅན།ཤོག་	-7845
▁ཆེ།སྟག་	-7846
▁ཏན།ཐའེ་	-7847
▁ཏེ།མིང་	-7848
▁ཏེ།སྔར་	-7849
▁ཐུབཅེས་	-7850
▁ནི།ཤེལ་	-7851
▁པས།གཟའ་	-7852
▁པས།བསང་	-7853
▁པས།འགོ་	-7854
▁པོ།ལགས་	-7855
▁བམ།ངའི་	-7856
▁བཞགམིང་	-7857
▁བར།རྣམ་	-7858
▁བས།ཐབས་	-7859
▁ཚེ།བུད་	-7860
▁འཆརགྱི་	-7861
▁འདིའོ།།	-7862
▁ཡིནལྷོ་	-7863
▁ཡིསགུང་	-7864
▁རྒྱོབས།	-7865
▁ལམ།ཐེག་	-7866
▁ལོ༡༧༥༣ལ	-7867
▁སུ།འཐབ་	-7868
▁སྤྲོདཔ་	-7869
▁ཨེལ།ཉི་	-7870
▁གསར།ཡིག་	-7871
▁གིས།ཐེག་	-7872
▁ཐོ།རིགས་	-7873
▁དང་།ཁྱད་	-7874
▁དུས།རྒྱ་	-7875
▁དུས།རྣམ་	-7876
▁དེ།།བསམ་	-7877
▁དེ།དཔེར་	-7878
▁དེ།སློབ་	-7879
▁དོ།།སེར་	-7880
▁དོན།བོད་	-7881
▁དོན།མིག་	-7882
▁དོན།རྒྱ་	-7883
▁དྲོར།ཆབ་	-7884
▁ན།ཁྲིམས་	-7885
▁ན།བསྐྱར་	-7886
▁ནམ།།སངས་	-7887
▁ནམ།ཁྱེད་	-7888
▁ནམ།ཐེངས་	-7889
▁ནས།ཀྲུང་	-7890
▁ནས།ཁྱིམ་	-7891
▁ནས།ཁྱོད་	-7892
▁ནས།ཐུགས་	-7893
▁ནས།དངོས་	-7894
▁ནས།བདུད་	-7895
▁ནས།བྱིས་	-7896
▁ནས།ཚོགས་	-7897
▁ནས།རྒྱུ་	-7898
▁ནས།རྩོམ་	-7899
ིལཟེར་	-7900
▁།གནའ་	-7901
▁།འགྲན་	-7902
▁༽སོགས་	-7903
▁གཞས།ག་	-7904
▁ཆའཕེལ་	-7905
▁པོ།ཐོ་	-7906
▁།དཀྱུས་	-7907
▁།འབྲེལ་	-7908
▁།སྒྲུང་	-7909
▁།སྒྲུབ་	-7910
▁༡༩༨༩ལོ་	-7911
▁ཁྲི།ཨུ་	-7912
▁དྷརྨཤཱ་	-7913
▁ནའང་།ད་	-7914
▁ནི།།ལམ་	-7915
▁པ།གྲགས་	-7916
▁བ།འགྲན་	-7917
▁བཙལ།ཉི་	-7918
▁བརྐྱངས་	-7919
▁འདྲ།ལོ་	-7920
▁རྒྱན།ཏ་	-7921
▁ལ།།སེར་	-7922
▁ལ།མདུང་	-7923
▁ལ།རྫོང་	-7924
ཉིན།གཞོན་	-7925
▁༡༧༦ཕྱིར་	-7926
▁༡༩༨༩ལོར་	-7927
▁༢༠༠༧ལོར་	-7928
▁ཀྱིསལོར་	-7929
▁གར།རྩེད་	-7930
▁གྲུབ།རྨ་	-7931
▁ཆེ།འབྲི་	-7932
▁དྲུགཕྱག་	-7933
▁ནས།རྐོང་	-7934
▁ནས།སྤྱི་	-7935
▁ནི།དཀོན་	-7936
▁ནི།རྡོར་	-7937
▁ནི།སྐབས་	-7938
▁ནུག།ཞབས་	-7939
▁ནུས།ཡིན་	-7940
▁ནོ།།དབང་	-7941
▁པ།༧གཡུང་	-7942
▁པ།དཀྱུས་	-7943
▁པ།ཕྱུགས་	-7944
▁པ།རྒྱུན་	-7945
▁པ།ལྗོངས་	-7946
▁པ།སྤྱོད་	-7947
▁པའིཀྲུང་	-7948
▁པའིགསེར་	-7949
▁པའིའགུལ་	-7950
▁པའིལོའི་	-7951
▁པར།རྩོམ་	-7952
▁པར།སྐབས་	-7953
▁པར།སྲིད་	-7954
▁པརཕྱོགས་	-7955
▁པས།།ཡིད་	-7956
▁པས།ཀྲུང་	-7957
▁པས།གདོད་	-7958
▁པས།ཐུགས་	-7959
▁པས།ཐེངས་	-7960
▁པས།བདུད་	-7961
▁པས།བྱེས་	-7962
▁པས།འདིར་	-7963
▁པས།རྒྱབ་	-7964
▁པས།རྒྱལ་	-7965
▁པུར།ཐའེ་	-7966
▁པོ།གཉིས་	-7967
▁པོ།ཕྱུག་	-7968
▁པོ།སྲིབ་	-7969
▁ཕྱེས།ནང་	-7970
▁བ།ཁྲིམས་	-7971
▁བ།ཕྱོགས་	-7972
▁བ།མགྲིན་	-7973
▁བ།འབྲོག་	-7974
▁བ།སྤྱོད་	-7975
▁བཅད།ཅེས་	-7976
▁བཅད།བཤད་	-7977
▁བཅས།བོད་	-7978
▁བཏབ།འཇམ་	-7979
▁བཏབ།རིག་	-7980
▁བཏབ།ཧོར་	-7981
▁བཏུལ།གར་	-7982
▁བཞགགཞུང་	-7983
▁བཞིན།ལོ་	-7984
▁བཞིན།སོ་	-7985
▁བཞེདཀྱི་	-7986
▁བཟོ།ཁྱད་	-7987
▁བཟོས།ཡང་	-7988
▁བའམ།དབང་	-7989
▁བརྒྱའོས་	-7990
▁བརྗོདནི་	-7991
▁བརྟགསྐད་	-7992
▁བཤད།ཕྱག་	-7993
▁བཤད།བཀའ་	-7994
▁བསཕྱོགས་	-7995
▁བསམ།དེར་	-7996
▁བསིལཟེར་	-7997
▁བསྐྱུགས་	-7998
▁བསྒྲུབས།	-7999
གྷུ་	-8000
ཏྤལ་	-8001
སྣར་	-8002
སླད་	-8003
▁༧༧ས	-8004
▁ཏིམ	-8005
▁སྷོ	-8006
▁ཧྭ།	-8007
༨༧ལོ་	-8008
གབུས་	-8009
མཚམས་	-8010
▁།ནུ་	-8011
▁བྟང་	-8012
▁མཐུད	-8013
▁ཡཱང་	-8014
▁ས༽ས་	-8015
▁ཧོའ་	-8016
▁ཨེཕ་	-8017
▁ིནས་	-8018
དུ།རུ་	-8019
▁།ཁྲོ་	-8020
▁།བཤུ་	-8021
▁།བློ་	-8022
▁།སྣང་	-8023
▁།ཨུད་	-8024
▁༤༣བར་	-8025
▁གེཛུ་	-8026
▁དམྱལ་	-8027
▁དོོན་	-8028
▁པ།ཡུ་	-8029
▁བརྔན་	-8030
▁མ།ཀུ་	-8031
▁ཡ།ཁུ་	-8032
▁ཡ།མལ་	-8033
▁རིསལ་	-8034
▁ལཱེན་	-8035
▁ལྱེང་	-8036
▁སྦཱད་	-8037
༢༨༥རེད།	-8038
ཉ༽བདུད་	-8039
ེས།ཤེར་	-8040
▁།ཕུགས་	-8041
▁།སྲོལ་	-8042
▁༥༧པའི་	-8043
▁༧༧སེང་	-8044
▁གསལ།པཎ	-8045
▁ཐན།ཨར་	-8046
▁དེ།མར་	-8047
▁དེབ།༡་	-8048
▁ནས།ངག་	-8049
▁མོ།པད་	-8050
▁སུ།ཞུ་	-8051
▁སྒོརཁ་	-8052
▁ཨུཏྤལ་	-8053
▁།༡མིའི་	-8054
▁ཟེར།ཅང་	-8055
▁ཡིན།བོ་	-8056
▁ལ།གབུས་	-8057
▁ལེན།ཤར་	-8058
▁སྒམ།དང་	-8059
▁།༡༩༨༧ལོ་	-8060
▁གསོལ།གུ་	-8061
▁དགོན།ཙག་	-8062
▁དེར།བོད་	-8063
▁བཞིན།ཆེ་	-8064
▁བརྡ།གྲྭ་	-8065
▁བསྟན།ཁྲ་	-8066
▁བསྟན།དར་	-8067
▁བསྡད།དེ་	-8068
▁བུའོ།དེ་	-8069
▁བོ།རླུང་	-8070
▁བོན།རེབ་	-8071
▁བྱ།།ཞེས་	-8072
▁བྱ།བསྟན་	-8073
▁བྱའོ།།།།	-8074
▁བྱས།མཚོ་	-8075
▁བྱས།འོད་	-8076
▁བྱས།རྒྱ་	-8077
▁བྱས།སེར་	-8078
▁བྱུང།དེ་	-8079
▁བྱེད།ཨེ་	-8080
▁བླུགས།ས་	-8081
▁མཁན།ཐོས་	-8082
▁མཁན།དགག་	-8083
▁མཁན།དབྲ་	-8084
▁མཁན།བོད་	-8085
▁མཁན།རྒྱ་	-8086
▁མཁན།ལྷག་	-8087
▁མགོབསིལ་	-8088
▁མཆན།འདི་	-8089
▁མཐུདཡིན་	-8090
▁མཐུན།རྩ་	-8091
▁མཚན།བཀའ་	-8092
▁མཛད།ཁོང་	-8093
▁མཛད།གངས་	-8094
▁མཛད།རྣམ་	-8095
▁མཛོད།ཞང་	-8096
▁མིན།གཙོ་	-8097
▁མིན།འདི་	-8098
▁མིན།ཡིན་	-8099
▁ཝན།ས	-8100
ན།བྷཧ་	-8101
ལྷམ།ས་	-8102
▁༡༢༤༣་	-8103
▁༡གཤམ་	-8104
▁༢མིན།	-8105
▁༣གནང་	-8106
▁ཀྲུའུ	-8107
▁ཁོའང་	-8108
▁གནང།།	-8109
▁གསརཔ་	-8110
▁ཆུ།ས་	-8111
▁ཆུའང་	-8112
▁ཏེསྦ་	-8113
▁མ༩༥ལ་	-8114
▁ཚད།ད་	-8115
ཡུལ།མི་	-8116
▁།གྲོག་	-8117
▁།དྷརྨ་	-8118
▁།མྱོང་	-8119
▁༧༠༠ནས་	-8120
▁༨༨ཟིན་	-8121
▁ཁོ།ཨི་	-8122
▁ཇའོ།ས་	-8123
▁ཏར།ཨུ་	-8124
▁དང།རྔ་	-8125
▁ན།ཁྱབ་	-8126
▁ན།ཤུག་	-8127
▁པ།པགས་	-8128
▁པ།བབས་	-8129
▁པ།ཟོལ་	-8130
▁པ།འཛར་	-8131
▁པ།ལྷན་	-8132
▁པིན།ཁ་	-8133
▁བཞད།གས	-8134
▁བརྫངས་	-8135
▁ཡང།དེ་	-8136
▁སྐོརཔ་	-8137
▁སྤེལཝ་	-8138
།སྐྱེམས་	-8139
ེསུ།མོང་	-8140
▁༡༩༦༡ནས་	-8141
▁༡༩༨༢ནས་	-8142
▁༢༠༠༦ཟླ་	-8143
▁གཉེནཉེ་	-8144
▁གལ།བོད་	-8145
▁ཅི།ཨྱོ་	-8146
▁ཅུ།བྱང་	-8147
▁ཇན།བྷཧ་	-8148
▁དུ།ཞིན་	-8149
▁དུ།འོག་	-8150
▁ནས།མགར་	-8151
▁ནས།ཨིན་	-8152
▁ནི།དིང་	-8153
▁ནི།པཱཤ་	-8154
▁པ།ཁྲོན་	-8155
▁པའིགཉན་	-8156
▁བདེན།ག་	-8157
▁བར།བཅད་	-8158
▁བརྩོན།།	-8159
▁བྱ།ཚོར་	-8160
▁ཝན།སིབ་	-8161
▁ཟླ༤པའི་	-8162
▁ཡང་།ཚང་	-8163
▁ཡོངས།ད་	-8164
▁ལ།།གཟའ་	-8165
▁ལ།ཅིའི་	-8166
▁ལགསཞེས་	-8167
▁སླ།འོན་	-8168
▁༡༥༤༣ལོར་	-8169
▁༡༦༠༠ལོར་	-8170
▁༡༩༥༡ལོར་	-8171
▁༣༥འཚོགས་	-8172
▁ཅེ།ཏུའུ་	-8173
▁ཆེ།ཁྲིག་	-8174
▁ཏེ།ཕྲིན་	-8175
▁ཏེ།ལུགས་	-8176
▁ཏེ།སྒོར་	-8177
▁དཀར།དཀར་	-8178
▁པའེ།དྲག་	-8179
▁པོ།དྭགས་	-8180
▁བཀའ།རྒྱ་	-8181
▁བྱས།ཁུལ་	-8182
▁མེ།ཡོངས་	-8183
▁མེད།།དེ་	-8184
▁མེད།ཉམས་	-8185
▁མེད།དེར་	-8186
▁མེད།ཕྱི་	-8187
▁མེད།བོད་	-8188
▁མེད།མཁས་	-8189
▁མེད།མདོ་	-8190
▁མེད།འགོ་	-8191
▁མེད།རྒན་	-8192
▁མེད།རྒྱ་	-8193
▁མེད།སུས་	-8194
▁མོ།བྱིས་	-8195
▁མོ།རིགས་	-8196
▁མོད།ཉིན་	-8197
▁མོད།ཕྲན་	-8198
▁མོད།བོད་	-8199
▁ངུའམ་	-8200
▁ན།ཕཱ་	-8201
▁འབྲི༽	-8202
▁།མཇུག་	-8203
▁༡༽བོན་	-8204
▁གོ།སྲ་	-8205
▁དམགཕོ་	-8206
▁ན།ཡུམ་	-8207
▁པའོོ།།	-8208
▁པེ།ལྷ་	-8209
▁མཐོངམ་	-8210
▁འདིས།།	-8211
▁ཡིགཞང་	-8212
▁རི།དན་	-8213
▁ཨངཟེར་	-8214
ཁ༦༦༣༽ལས།	-8215
▁།བགྲོད་	-8216
▁༡༠༡༡དང་	-8217
▁༡༥༤༩ལུ་	-8218
▁༡༩༦༩ནས་	-8219
▁ངོར།སྤ་	-8220
▁དུགྲིབ་	-8221
▁དེས།འོ་	-8222
▁ན།།ཕྱི་	-8223
▁ནམ།མཁོ་	-8224
▁ནས།འབད་	-8225
▁ནི།སྦས་	-8226
▁པས།འཆི་	-8227
▁བ།རྒོལ་	-8228
▁མཐརཕྲི་	-8229
▁མདོབཅས་	-8230
▁ཚན།འབའ་	-8231
▁ཚུགས།མ་	-8232
▁ཞེས།ཕག་	-8233
▁ཡིགརོལ་	-8234
▁རས།།མེ་	-8235
▁རུགཟེར་	-8236
▁ལིརགནམ་	-8237
▁ཤོསཀྱི་	-8238
▁སར།གྱི་	-8239
▁སུ།སའུ་	-8240
▁སོན།ཟླ་	-8241
ཁེད།གསེར་	-8242
རྫིང་།ཆུ་	-8243
▁༡༢༡༣བཅས་	-8244
▁༡༧༡༠གདན་	-8245
▁༡༩༢༥ལོར་	-8246
▁ཀྱི།གསོ་	-8247
▁ཁྱོད།གར་	-8248
▁ཁྲོད།གྷ་	-8249
▁གྲས།སུམ་	-8250
▁གླུ།གནའ་	-8251
▁ཆོད།ཚིག་	-8252
▁ཉན།དབུལ་	-8253
▁ཏེ།བཅོས་	-8254
▁པ།༢༽ཤེས་	-8255
▁བཞིནམིག་	-8256
▁བའམ།རྩམ་	-8257
▁བོད།ཅེས་	-8258
▁བྱ།སློབ་	-8259
▁མོད།ཡུན་	-8260
▁མྱོང།ཚད་	-8261
▁ཚགས།གཙོ་	-8262
▁ཚན།སྤྱི་	-8263
▁ཚུལ།བོད་	-8264
▁ཚེ།ཁྱོད་	-8265
▁ཚེ།རྒྱུ་	-8266
▁ཚེ།སྔོན་	-8267
▁ཚེས༡ཉིན་	-8268
▁ཚོད།༦ནས་	-8269
▁ཚོད།བོད་	-8270
▁ཚོད།འཛམ་	-8271
▁ཞིང་།ཡང་	-8272
▁ཞུ།རིགས་	-8273
▁ཞུགས།དེ་	-8274
▁ཞུའཛུགས་	-8275
▁ཞེན།སྐད་	-8276
▁ཞོག།ཉིན་	-8277
▁ཟད།ཚོགས་	-8278
▁ཟད།ཟློས་	-8279
▁ཟད།སེམས་	-8280
▁ཟད།སློབ་	-8281
▁ཟིན།ཡིན་	-8282
▁ཟེར།གནའ་	-8283
▁ཟེར།ཕྱི་	-8284
▁ཟེར།བུད་	-8285
▁ཟེར།མིག་	-8286
▁ཟེར།ཞོར་	-8287
▁ཟླ༨།དུས་	-8288
▁འཁོདཞིག་	-8289
▁འགན།མཉམ་	-8290
▁འགན།ཤེས་	-8291
▁འགྲིགལྷ་	-8292
▁འགྲོགཞན་	-8293
▁འཆམ།བོད་	-8294
▁འཇོ།གསོ་	-8295
▁འདུག།ཡར་	-8296
▁འདུགགནད་	-8297
▁འདུགགནས་	-8298
▁འདུགགོང་	-8299
▁ཁབ།ཐེ་	-8300
▁ན།གསའ་	-8301
▁ནོན།མ་	-8302
▁ཚོ།ཡག་	-8303
▁རེནསཱ་	-8304
▁ལངསདང་	-8305
▁ལོ།།ཆ་	-8306
▁ཧྲོའར་	-8307
འདིས།ཡར་	-8308
▁༡༠༠ལྷག་	-8309
▁དོར།དེ་	-8310
▁ནས།བཅའ་	-8311
▁པ།སྐོམ་	-8312
▁པས།མའོ་	-8313
▁མིགཊེམ་	-8314
▁ཞོགབོན་	-8315
▁ཟད།དཔང་	-8316
▁འདི༩ལས་	-8317
▁འདུ།དེ་	-8318
▁ཡལ།ཁོས་	-8319
▁ས།།སྒྲ་	-8320
▁༡༨༦༠ལོར་	-8321
▁༨།༤༥ཐོག་	-8322
▁ཀི།ཏུརཀ་	-8323
▁ཁུརདགོས་	-8324
▁གི།མཐིལ་	-8325
▁ངུས།འོན་	-8326
▁ཅེས།གསང་	-8327
▁ཏིགསྣོད་	-8328
▁ཏོགསྔོན་	-8329
▁དགོསཞེས་	-8330
▁དང།ལྟེབ་	-8331
▁དྲངས།ཉེ་	-8332
▁བཤད།གཡང་	-8333
▁བསྡུགདན་	-8334
▁བྲོ།གནའ་	-8335
▁བྲོས།གར་	-8336
▁མགོར།ཚན་	-8337
▁མཐོ།རྩྭ་	-8338
▁མེད།བྷོ་	-8339
▁མོ།གཤེན་	-8340
▁མོད།དྲང་	-8341
▁ཞོགས།དེ་	-8342
▁ཟད།རྩོད་	-8343
▁འཆམས།ནག་	-8344
▁འདུགངའི་	-8345
▁འདུགདགྲ་	-8346
▁འདུགདེར་	-8347
▁འདུགཕྱི་	-8348
▁འདུགཕྲན་	-8349
▁འདུགབཀའ་	-8350
▁འདུགབསམ་	-8351
▁འདུགབྱས་	-8352
▁འདུགམདོ་	-8353
▁འདུགཚུལ་	-8354
▁འདུགའདི་	-8355
▁འདུགརྒན་	-8356
▁འདུགརྒྱ་	-8357
▁འདུགརྗེ་	-8358
▁འདུགལྷག་	-8359
▁འདུགསྔོ་	-8360
▁འདོད།ཁོ་	-8361
▁འདོད།ངས་	-8362
▁འདྲ།ཞེས་	-8363
▁འདྲེན།ཐ་	-8364
▁འཕྲོད།ཨ་	-8365
▁འི།དྲོད་	-8366
▁འོགཧུའུ་	-8367
▁འོད།བོད་	-8368
▁ཡང་།བོད་	-8369
▁ཡན།སྤྱི་	-8370
▁ཡིགདྲིས་	-8371
▁ཡིན།༢༠༠༦	-8372
▁ཡིན།ཀླུ་	-8373
▁ཡིན།ཁོས་	-8374
▁ཡིན།གངས་	-8375
▁ཡིན།གཡར་	-8376
▁ཡིན།ཉིས་	-8377
▁ཡིན།དགེ་	-8378
▁ཡིན།དུས་	-8379
▁ཡིན།དེར་	-8380
▁ཡིན།དེས་	-8381
▁ཡིན།བསང་	-8382
▁ཡིན།འོན་	-8383
▁ཡིན།རྐང་	-8384
▁ཡིན།རྣམ་	-8385
▁ཡིན།སྐུ་	-8386
▁ཡིན།སྦྲ་	-8387
▁ཡུལ།བྷར་	-8388
▁ཡུལ།བྷི་	-8389
▁ཡུས།གནམ་	-8390
▁ཡོད།གཙོ་	-8391
▁ཡོད།གཡར་	-8392
▁ཡོད།གསར་	-8393
▁ཡོད།ངའི་	-8394
▁ཡོད།ཆོས་	-8395
▁ཡོད།ཉིན་	-8396
▁ཡོད།ཐུན་	-8397
▁ཡོད།ཐོག་	-8398
▁ཡོད།དགེ་	-8399
▁འབྱོནམ་	-8400
▁ལམཔ།ཀན་	-8401
ོ།།སྒོགཔ་	-8402
▁༡༨༥༨ལོར་	-8403
▁༡༩༨༨ལོར་	-8404
▁ཀྱིས༽གལ་	-8405
▁ཀྱོགལྦང་	-8406
▁གཤིསགནས་	-8407
▁ཆེན༽ཐོག་	-8408
▁ཏན།དབྱང་	-8409
▁དྲུངབོན་	-8410
▁ན།བགེགས་	-8411
▁ནས།གཅེན་	-8412
▁པཡིན།ཁོ་	-8413
▁པར༽གྱིས་	-8414
▁པས།འཇིག་	-8415
▁མཚེའུའི་	-8416
▁ཚོདསྟེང་	-8417
▁ཞུན།བཀའ་	-8418
▁འཕེལ།ཞི་	-8419
▁འོགསྨྱན་	-8420
▁ཡུལ།།ཏེ་	-8421
▁ཡོད།དམར་	-8422
▁ཡོད།དུས་	-8423
▁ཡོད།དེས་	-8424
▁ཡོད།དྲན་	-8425
▁ཡོད།ནུས་	-8426
▁ཡོད།ཕྱི་	-8427
▁ཡོད།བཀྲ་	-8428
▁ཡོད།བྱང་	-8429
▁ཡོད།མངའ་	-8430
▁ཡོད།མཐོ་	-8431
▁ཡོད།ཚེས་	-8432
▁ཡོད།འོན་	-8433
▁ཡོད།རིན་	-8434
▁ཡོད།རྒྱ་	-8435
▁ཡོད།རྣམ་	-8436
▁ཡོད།ལྕེ་	-8437
▁ཡོན།ཞིང་	-8438
▁ཡོན།ཞེས་	-8439
▁རིགཀྲུང་	-8440
▁རིས།ཞེང་	-8441
▁རུས།ཨའི་	-8442
▁རེད།ཀོན་	-8443
▁རེད།ཁོར་	-8444
▁རེད།གུང་	-8445
▁རེད།གོང་	-8446
▁རེད།ཆུས་	-8447
▁རེད།ཉིན་	-8448
▁རེད།ཉེན་	-8449
▁རེད།དཀའ་	-8450
▁རེད།དཀར་	-8451
▁རེད།དབུ་	-8452
▁རེད།དུས་	-8453
▁རེད།ནོར་	-8454
▁རེད།ཕྱག་	-8455
▁རེད།བསམ་	-8456
▁རེད།མཚོ་	-8457
▁རེད།མིག་	-8458
▁རེད།ཚེས་	-8459
▁རེད།ཞིང་	-8460
▁རེད།འདས་	-8461
▁རེད།རྩི་	-8462
▁རེད།སངས་	-8463
▁རེད།སྡེ་	-8464
▁རོ།།ཞེས་	-8465
▁རོ།།སྲབ་	-8466
▁རོགས།ཐང་	-8467
▁རོགས།མུ་	-8468
▁རྒྱགརིམ་	-8469
▁རྒྱརྒྱས་	-8470
▁རྒྱུ།རང་	-8471
▁རྒྱུདནང་	-8472
▁རྗེས།ཅི་	-8473
▁རྗེས།མི་	-8474
▁རྙེད།པར་	-8475
▁རྙེད།རུ་	-8476
▁རྟོན།ལམ་	-8477
▁རྩལ།བོད་	-8478
▁རྩུབ།རང་	-8479
▁རྩྭ།རྒྱ་	-8480
▁རྫས།ཆོས་	-8481
▁ལ།།སློང་	-8482
▁ལ།གླེགས་	-8483
▁ལ།མཆིམས་	-8484
▁ལ།འཇིགས་	-8485
▁ལ།རྫོགས་	-8486
▁ལ།སྤྱིར་	-8487
▁ལགས།གུས་	-8488
▁ལགས།ཆུང་	-8489
▁ལགས།དགའ་	-8490
▁ལགས།ཕྲན་	-8491
▁ལགས།རྐང་	-8492
▁ལངས།ཆགས་	-8493
▁ལངས།ཡིན་	-8494
▁ལས།ཁྱིམ་	-8495
▁ལས།ཕྱུར་	-8496
▁ལས།མདུང་	-8497
▁ལས།རྩོམ་	-8498
▁ལི།ཁྱོད་	-8499
▁ལུགས།མི་	-8500
▁ལུགསཞེས་	-8501
▁ལུམྦིའི་	-8502
▁ལེ།དགུན་	-8503
▁ལོ༡༠རིང་	-8504
▁ལོ༡༨ཀྱི་	-8505
▁ལོར།ཁོང་	-8506
▁ལྔ།རྫོང་	-8507
▁ལྟར།མཉམ་	-8508
▁ལྟར།མདོ་	-8509
▁ལྟར།ཚིག་	-8510
▁ལྟར།འདས་	-8511
▁ལྷུགགཙོ་	-8512
▁ཤིགསློབ་	-8513
▁ཤིང་།ནས་	-8514
▁ཤིང་།པན་	-8515
▁ཤེས།ཁོང་	-8516
▁ཤེས།དཀར་	-8517
▁ཤེས།བསམ་	-8518
▁ཤེས།འོལ་	-8519
▁ཤོགཀཔའི་	-8520
▁ཤོར།འདས་	-8521
▁ཤོར།ལོས་	-8522
▁སིངཕྱུར་	-8523
▁སུ།མཆོག་	-8524
▁སུ།རྒྱལ་	-8525
▁སུཏན།ཡི་	-8526
▁སེམས།ཡང་	-8527
▁སོགས།།མ་	-8528
▁སོང་།དེ་	-8529
▁སྐབས།ཚད་	-8530
▁སྐབསདུས་	-8531
▁སྐོར།དེ་	-8532
▁སྐོར།པར་	-8533
▁སྐོར།ཞང་	-8534
▁སྐོར།ཡེ་	-8535
▁སྐྱ།བློ་	-8536
▁སྐྱོབནི་	-8537
▁སྒྲ།བོན་	-8538
▁སྒྲིགལམ་	-8539
▁སྔརརྒྱལ་	-8540
▁སྔསགྲིབ་	-8541
▁སྙམ།གོང་	-8542
▁སྟབས།བལ་	-8543
▁སྟབས།རང་	-8544
▁སྟེ།གོང་	-8545
▁སྟེ།དཔལ་	-8546
▁སྟེ།དུས་	-8547
▁སྟེ།དེར་	-8548
▁སྟེ།ཕྱི་	-8549
▁སྟེ།མཁར་	-8550
▁སྟེ།མདོ་	-8551
▁སྟེ།མཚོ་	-8552
▁སྟེ།མིག་	-8553
▁སྟེ།ཞིབ་	-8554
▁སྟེ།ཞེས་	-8555
▁སྟེ།འདུ་	-8556
▁སྟེ།རྟག་	-8557
▁སྟེརཞེས་	-8558
▁སྣ།བྱུང་	-8559
▁སྣང་།སོ་	-8560
▁སྣེ།ཤིན་	-8561
▁སྤྲད།ཕག་	-8562
▁སྨོནཞེས་	-8563
▁སྲིད།ཆུ་	-8564
▁སློབ།དེ་	-8565
▁ཧཱ།ལྷའི་	-8566
▁ཧུའེ།རྨ་	-8567
▁ཧྭ།གྲོང་	-8568
▁ཨིན།གཞན་	-8569
▁ཨུད།འཇར་	-8570
༡༩༣༧༧༤མནན་	-8571
༧དང༧༢༨རེད།	-8572
▁།༢༠༡༨དབང་	-8573
▁༠༡།༡༠ཐོག་	-8574
▁༡༡།༣༠ཐོག་	-8575
▁༡༡།༣༠ཡོལ་	-8576
▁༡༩༥༩ལོའི་	-8577
▁༡༩༩༠ལོའི་	-8578
▁༡༩༩༨ལོའི་	-8579
▁༢༠༠༣ལོའི་	-8580
▁༢༠༠༧ལོའི་	-8581
▁༢༠༡༢ལོའི་	-8582
▁༢༠༡༤ལོའི་	-8583
▁༢༠༡༧ལོའི་	-8584
▁༢༠༡༨སྤྱི་	-8585
▁༢༠༡༩ལོའི་	-8586
▁༢༣ཉིན།ཨེ་	-8587
▁༢༦ཉིནརྡོ་	-8588
▁༢མིན།ངའི་	-8589
▁༥ཉིན།རྒྱ་	-8590
▁༥སྟེ།རེས་	-8591
▁༦༠༠༠བརྒལ་	-8592
▁༦༥༠༠བརྒལ་	-8593
▁༧༢རེད།མུ་	-8594
▁ཀྱང་།ཞིབ་	-8595
▁ཀྱང༢༠ལྷག་	-8596
▁ཀྱང༩༥ཉིད་	-8597
▁ཀྱིས།བཙན་	-8598
▁ཀྱིས།བོད་	-8599
▁ཀྱིས།བློ་	-8600
▁ཀྱིས།འདི་	-8601
▁ཀྲིནལོའི་	-8602
▁ཀློགགཡུང་	-8603
▁ཀློགདཔྱད་	-8604
▁ཁང་།གློག་	-8605
▁ཁུངས།ཁམས་	-8606
▁ཁུངས།ངེད་	-8607
▁ཁུངས།མཚོ་	-8608
▁ཁུངས།ཡུལ་	-8609
▁ཁུལའམགིས་	-8610
▁ཁུལའཛུགས་	-8611
▁ཁོངས།ཤེས་	-8612
▁ཁྲི།བསྟན་	-8613
▁ཁྲིན།ཞིང་	-8614
▁ཁྲུན།ཐེན་	-8615
▁ཁྲོད།དུད་	-8616
▁གཅིགསྒུལ་	-8617
▁གཉིས།བཀའ་	-8618
▁གཉེརབཅོལ་	-8619
▁གཏམ།ཀྲུང་	-8620
▁གཏོགས།གོ་	-8621
▁གཏོགས།དེ་	-8622
▁གནད།གསུང་	-8623
▁གནས།གཙུག་	-8624
▁གནས།བརྙན་	-8625
▁གཙོ།ཚོགས་	-8626
▁གཞན།སློབ་	-8627
▁གཞས།ཚོགས་	-8628
▁གཞུང་།མི་	-8629
▁གཞུང།ཡུལ་	-8630
▁གཟིགས།དེ་	-8631
▁གསར།འབྲི་	-8632
▁གསལ།༡༽ལས་	-8633
▁གསལ།ཀྲུང་	-8634
▁གསལ།སྤེན་	-8635
▁གསུམ།ཁོང་	-8636
▁གསུམ།བཞི་	-8637
▁གསུམགླེང་	-8638
▁གསོ།ཀྲུང་	-8639
▁གསོ།དངོས་	-8640
▁གསོནརླུང་	-8641
▁གིས།།རིམ་	-8642
▁གིས།སེམས་	-8643
▁གིས།སྲིད་	-8644
▁གྱལ།བསྟན་	-8645
▁གྱིས།།རང་	-8646
▁གྱིས།གངས་	-8647
▁གྱིས།བོད་	-8648
▁གྱུར།དུས་	-8649
▁གྱུར།ཞེས་	-8650
▁གྱུར།ཡིག་	-8651
▁གྲགས།དམར་	-8652
▁གྲངས།མཚན་	-8653
▁གྲངས༩༥ཅན་	-8654
▁གླེང་ཞིག་	-8655
▁ངེས།གྲོང་	-8656
▁ཅི།ཇིཨོར་	-8657
▁ཅིང་།ཆོས་	-8658
▁ཅིང་།བོད་	-8659
▁ཆེད།ནེའུ་	-8660
▁ཆེན།གཙུག་	-8661
▁ཆེན།ནིའུ་	-8662
▁ཆེན།རྒྱལ་	-8663
▁ཆེན།རླུང་	-8664
▁ཆེན།སྤྱི་	-8665
▁ཆོགདམིགས་	-8666
▁ཆོས།སློབ་	-8667
▁ཉིན།༸དཔལ་	-8668
▁ཉིན།ཀྲུང་	-8669
▁ཉིན།རྒྱལ་	-8670
▁ཉིན།སྟོད་	-8671
▁ཉོན།།རིན་	-8672
▁ཉོན།དགོན་	-8673
▁ཏེ།།གསེར་	-8674
▁ཏེ།ཏེ།ཡར་	-8675
▁ཏེ།བཞུགས་	-8676
▁ཏོག།གསེར་	-8677
▁ཐབས།མིའི་	-8678
▁ཐུབ།ཁོའི་	-8679
▁ཐུབ།དེའི་	-8680
▁ཐུབ།བརྙན་	-8681
▁ཐོན།ཀྲུང་	-8682
▁ཐོས།དེའི་	-8683
▁དགའ།།དྲི་	-8684
▁དགའ།།ཞེས་	-8685
▁དགའ།།རྩྭ་	-8686
▁དགོན།ཟངས་	-8687
▁དགོན།སྣར་	-8688
▁དགོས།གཟི་	-8689
▁དགོས།ཆོས་	-8690
▁དགོས།བསམ་	-8691
▁དགོས།བྱེ་	-8692
▁དགོས།འགན་	-8693
▁དགོས།འཆར་	-8694
▁དགོས།འདི་	-8695
▁དགོས།འཚང་	-8696
▁དགོས།འོན་	-8697
▁དགོས།ཡིན་	-8698
▁དགོས།རིན་	-8699
▁དགོས།ཤོག་	-8700
▁དང་།།གསལ་	-8701
▁དང་།།བཟའ་	-8702
▁དང་།།བསད་	-8703
▁དང་།།ཟུར་	-8704
▁དང་།།སོན་	-8705
▁དང་།གྲགས་	-8706
▁དང་།དགོན་	-8707
▁དང་།བདུན་	-8708
▁དང་།བྱམས་	-8709
▁དང་།བྱིས་	-8710
▁དང་།མཐུན་	-8711
▁དང་།འབྲས་	-8712
▁དང་།རྒྱལ་	-8713
▁དང་།ལྡོང་	-8714
▁དང་།སྐོར་	-8715
▁དང་།སྔགས་	-8716
▁དང་།སྲིད་	-8717
▁དཔེར།གནའ་	-8718
▁དབྱངས།༡༡་	-8719
▁དུ།ཁྲིམས་	-8720
▁དུ།ཟླབའི་	-8721
▁དེ།།གསོལ་	-8722
▁དེ།ཀིརྟི་	-8723
▁དེ།སྐྱིད་	-8724
▁དེ།སྤྱིར་	-8725
▁དེབ།དཔྱད་	-8726
▁དེབ༽སྟེང་	-8727
▁དོན།ཀྲུང་	-8728
▁དོན།སྐབས་	-8729
▁དོན།སྤྱི་	-8730
▁དོམ།སྟོང་	-8731
▁དྲན།གྲོས་	-8732
▁དྲིས།ཁོས་	-8733
▁དྲིས།བསམ་	-8734
▁ན།བསྒྲིག་	-8735
▁ནགམགྱོགས་	-8736
▁ནའང་།དུས་	-8737
▁ནའང་།བོད་	-8738
▁ནའང།འདིར་	-8739
▁ནས།ཕྱོགས་	-8740
▁ནས།འགྲེལ་	-8741
▁ནས།འཕྲིན་	-8742
▁ནས།རྒྱུད་	-8743
▁ནས།སྤྲོས་	-8744
▁ནི།།དྲེག་	-8745
▁ནུགདམིགས་	-8746
▁ནུས།རྩིས་	-8747
▁པ།བསྒྱུར་	-8748
▁པའོ།།སརྦ་	-8749
▁པས།དཔྱིད་	-8750
▁པེ།རོ།དང་	-8751
▁པོས།གཏེར་	-8752
▁ཕུལ།བརྟག་	-8753
▁ཕོངས།དམག་	-8754
▁ཕོར།།བསེ་	-8755
▁ཕོར།ཤྲཱི་	-8756
▁ཕྱིན།ཁོང་	-8757
▁ཕྱིར།གཟི་	-8758
▁ཕྱིར།བཙན་	-8759
▁ཕྱིས།ཡིན་	-8760
▁ཕྱོགས།མང་	-8761
▁བཀྲལ།དཔལ་	-8762
▁བཅིངས།ཟླ་	-8763
▁བཏགས།ཞེས་	-8764
▁བཏོན།ཕྱི་	-8765
▁བབས།དེའི་	-8766
▁བཙལ།བློན་	-8767
▁བཞིན།དཔེ་	-8768
▁བཞིན།སྐུ་	-8769
▁བཞིའིའཐབ་	-8770
▁བཟའ།བཙེམ་	-8771
▁བཟླ།སྔགས་	-8772
▁བའམ།བཙུན་	-8773
▁བའོ།།དེས་	-8774
▁བརྒྱདཀྱི་	-8775
▁བརྒྱབ།ལྷ་	-8776
▁བརྗེ།བྲན་	-8777
▁བརྟགསློབ་	-8778
▁བརྟན།བོད་	-8779
▁བརྟེན།བུ་	-8780
▁བརྩེ།ཕུན་	-8781
▁བཤད།དྭངས་	-8782
▁བཤད།མངོན་	-8783
▁བཤེར།བོད་	-8784
▁བསྟན།གངས་	-8785
▁བསྟན།དམར་	-8786
▁བསྡད།ཁོས་	-8787
▁བསྡུས།དེ་	-8788
▁བསྡུས།ཨུ་	-8789
▁བསྡུསའཛམ་	-8790
▁བསྲེགས།ད་	-8791
▁བུམ།གཙགས་	-8792
▁བུའོ།ཞེས་	-8793
▁བོ།བརྗོད་	-8794
▁བྱས།བལྟས་	-8795
▁བྱས།བསྟན་	-8796
▁བྱས།མཆོད་	-8797
▁བྱས།ཟློས་	-8798
▁བྱུང་།དང་	-8799
▁བྱེད།གསལ་	-8800
▁བྱེད།འདི་	-8801
▁བྱེད།འོན་	-8802
▁བྲིས།གངས་	-8803
▁བྲིས།དེས་	-8804
▁མཁན།ཁྱུང་	-8805
▁མཁན།རྒྱབ་	-8806
▁མགོའངལོར་	-8807
▁མང་།རྒྱལ་	-8808
▁མངས།དམངས་	-8809
▁མཆིས།དུས་	-8810
▁མཆོག༸གོང་	-8811
▁མཆོགདགུང་	-8812
▁མཆོགསྤྱི་	-8813
▁མཇལ།བརྩེ་	-8814
▁མཐུན།ཞིང་	-8815
▁མཐོང་།ཁར་	-8816
▁མཚམས།བོད་	-8817
▁མཛད།གཡུང་	-8818
▁མཛད།དགུང་	-8819
▁མཛད།སྔོན་	-8820
▁མཛེས།ཤེར་	-8821
▁མཛོད།གནས་	-8822
▁མཛོད།དཀར་	-8823
▁མཛོད།དུས་	-8824
▁མརབརྩལཏེ་	-8825
▁མིན།ཀྲུང་	-8826
▁མིན།དངོས་	-8827
▁མིས།ཁྲོམ་	-8828
▁མེད།།སངས་	-8829
▁མེད།ཀྲུང་	-8830
▁མེད།གཅིག་	-8831
▁མེད།ལྕགས་	-8832
▁མོ།།སློབ་	-8833
▁མོད།འགྲོ་	-8834
▁མོད།རྒྱལ་	-8835
▁མོད།སྤྱི་	-8836
▁མོའིརྩོམ་	-8837
▁མོར།ཁྱེད་	-8838
▁ཚ།ནས།རྒྱ་	-8839
▁ཚུན།གྲོང་	-8840
▁ཚུལ།འཁྲབ་	-8841
▁ཚུལ།སྟོད་	-8842
▁ཚེ།།སེམས་	-8843
▁ཚེ།།སྐྱོ་	-8844
▁ཚེ།དབྱིན་	-8845
▁ཚེས།།གཟར་	-8846
▁ཚེས༡༤ཉིན་	-8847
▁ཚེས༢༦ཉིན་	-8848
▁ཚེས༢༧ཉིན་	-8849
▁ཚེས༣༠ཉིན།	-8850
▁ཚེསཉིནཔེ་	-8851
▁ཚོགས།དགའ་	-8852
▁ཚོགས།ཕྱག་	-8853
▁ཚོགས།རིག་	-8854
▁ཚོགས༢༠༡༨།	-8855
▁ཚོགསསྐབས་	-8856
▁ཚོའིརྒྱལ་	-8857
▁ཞིང་།འདམ་	-8858
▁ཟིན།བརྩེ་	-8859
▁ཟེར།ཁོའི་	-8860
▁ཟེར།རླུང་	-8861
▁ཟེར།སྟོན་	-8862
▁ཟླཚེསརེས་	-8863
▁ཟློས།བོན་	-8864
▁འགྱུར།ཚན་	-8865
▁འགྲེལ།ཚད་	-8866
▁འགྲེལ།ལག་	-8867
▁འགྲོ།ངེས་	-8868
▁འཆར།སྲིད་	-8869
▁འཇུག༽ཞེས་	-8870
▁འཇུགབསོད་	-8871
▁འཐུས།ཕྱི་	-8872
▁འདུགཁྱེད་	-8873
▁འདུགགླིང་	-8874
▁འདུགའདིར་	-8875
▁འདུགརྒྱལ་	-8876
▁འདུགརྒྱུ་	-8877
▁འདུགརྩོམ་	-8878
▁འདུགསྟོན་	-8879
▁འདུགསློབ་	-8880
▁འདུས།དམག་	-8881
▁འདེབས།ནོ་	-8882
▁འདོད།གཞན་	-8883
▁འདྲ།རྗེས་	-8884
▁འཕྲིན།ཉེ་	-8885
▁འབུམ།མགོ་	-8886
▁འབོད།དགྲ་	-8887
▁འབྱོར།ལོ་	-8888
▁འབྲས།ཡིག་	-8889
▁འབྲུགྲོང་	-8890
▁འབྲེལ།དོ་	-8891
▁འབྲེལ།མི་	-8892
▁འཚོགས།ཉི་	-8893
▁འཛིན།།ཡང་	-8894
▁ཡང་།རྗེས་	-8895
▁ཡིན།།གསོ་	-8896
▁ཡིན།།ཟུག་	-8897
▁ཡིན།།རྐང་	-8898
▁ཡིན།ཀྲུང་	-8899
▁ཡིན།གཉིས་	-8900
▁ཡིན།གླེང་	-8901
▁ཡིན།ཐུགས་	-8902
▁ཡིན།དེའང་	-8903
▁ཡིན།བསྟན་	-8904
▁ཡིན།བྱེད་	-8905
▁ཡིན།འཛུམ་	-8906
▁ཡིན།རྒྱལ་	-8907
▁ཡིན།རྒྱུ་	-8908
▁ཡིན།རྗེས་	-8909
▁ཡིན།རྩོམ་	-8910
▁ཡིན།ལོའི་	-8911
▁ཡིན།ལྟོས་	-8912
▁ཡིན།སྐོར་	-8913
▁ཡིན།སྤྱི་	-8914
▁ཡོད།ཁྱེད་	-8915
▁ཡོད།གཞུང་	-8916
▁ཡོད།གཞོན་	-8917
▁ཡོད།གྲོང་	-8918
▁ཡོད།གློག་	-8919
▁ཡོད།ཐུགས་	-8920
▁ཡོད།དགོན་	-8921
▁ཡོད།བགྲོ་	-8922
▁ཡོད།བསྟན་	-8923
▁ཡོད།བྲིས་	-8924
▁ཡོད།བློས་	-8925
▁ཡོད།འབྲས་	-8926
▁ཡོད།རྒྱང་	-8927
▁ཡོད།རྒྱས་	-8928
▁ཡོད།རྩོམ་	-8929
▁ཡོད།ལེགས་	-8930
▁ཡོད།སྒེར་	-8931
▁ཡོད།སྤྱི་	-8932
▁ཡོན།མཆོད་	-8933
▁ཡོན།སྲིད་	-8934
▁ཡོན།ཧྲིན་	-8935
▁རབས།བསོད་	-8936
▁རཡིན།བྷང་	-8937
▁རིགའཕྲུལ་	-8938
▁རིགས།ཕྱི་	-8939
▁རིའིའཕུར་	-8940
▁རུ།།བསགས་	-8941
▁རེད།ཁོའི་	-8942
▁རེད།ཁྲོམ་	-8943
▁རེད།གཉིས་	-8944
▁རེད།གྱོད་	-8945
▁རེད།ཐུགས་	-8946
▁རེད།དགུན་	-8947
▁རེད།དགོས་	-8948
▁རེད།དཔེར་	-8949
▁རེད།ཕྱུག་	-8950
▁རེད།མདོར་	-8951
▁རེད།ཚོགས་	-8952
▁རེད།འགྲོ་	-8953
▁རེད།རྒྱལ་	-8954
▁རེད།རྒྱུ་	-8955
▁རེན།ཀྲུང་	-8956
▁རོགས།ཞེས་	-8957
▁རོགས།རིན་	-8958
▁རོགས།སྐུ་	-8959
▁རྒུད།འཆང་	-8960
▁རྒོན།དབང་	-8961
▁རྒྱལ།ཀུན་	-8962
▁རྒྱལ།རེབ་	-8963
▁རྒྱུ།ཚོང་	-8964
▁རྒྱུད།ཆབ་	-8965
▁རྒྱུར།གལ་	-8966
▁རྗེས།ཐོག་	-8967
▁རྗེས།དུང་	-8968
▁རྗེས།མགོ་	-8969
▁རྗེས།འདི་	-8970
▁རྗེས།རིག་	-8971
▁རྟགསགཉིས་	-8972
▁རྟོན།རིག་	-8973
▁རྩལདངབོད་	-8974
▁རྩུབ།མུན་	-8975
▁རྩོམ།ཚིག་	-8976
▁ལ།།བསྲེས་	-8977
▁ལགས།ཁྱོད་	-8978
▁ལན།སྤྱོད་	-8979
▁ལས།གཟུགས་	-8980
▁ལསནིལོའི་	-8981
▁ལུགས།ཁོར་	-8982
▁ལུས།སྒྱུ་	-8983
▁ལེན།༸གོང་	-8984
▁ལེན།ཀྲུང་	-8985
▁ལེན།རྩོམ་	-8986
▁ལོ༡༩༤༥ནས་	-8987
▁ལོ༡༩༩༢ཙམ་	-8988
▁ལྔ།ཁྲིམས་	-8989
▁ལྟར།གཤིན་	-8990
▁ལྟར།ཐུགས་	-8991
▁ལྟར།བསྟན་	-8992
▁ལྟར།རྒྱལ་	-8993
▁ལྷོ།སྟོད་	-8994
▁ཤིང་།ངའི་	-8995
▁ཤིང་།དམག་	-8996
▁ཤུ།འབྲུག་	-8997
▁ཤེས།རྒྱལ་	-8998
▁ཤོགབསྟོད་	-8999
▁སིའིམཛེས་	-9000
▁སོ།།བསགས་	-9001
▁སོ།།འདིས་	-9002
▁སོང་།རྣམ་	-9003
▁སྐབས།གཙང་	-9004
▁སྐབས།དགའ་	-9005
▁སྐབས།རིན་	-9006
▁སྐབས།རྒྱ་	-9007
▁སྐབས།སྐལ་	-9008
▁སྐབསསྤྱི་	-9009
▁སྐལ།སྤྱི་	-9010
▁སྐོར།དཔེ་	-9011
▁སྐོར།ནོར་	-9012
▁སྐོར།འདི་	-9013
▁སྐྱ།གདོང་	-9014
▁སྐྱ།བློན་	-9015
▁སྐྱ།འབུམ་	-9016
▁སྐྱ།རྒོད་	-9017
▁སྐྱབས།ཚེ་	-9018
▁སྐྱིདཞིབ་	-9019
▁སྐྱེས།ཕལ་	-9020
▁སྒོམ།ཉིན་	-9021
▁སྒྱུར།ཆུ་	-9022
▁སྒྲིག།ལས་	-9023
▁སྒྲིགགཙང་	-9024
▁སྔར།སྤྱི་	-9025
▁སྔོནརྟགས་	-9026
▁སྙད།བརྙན་	-9027
▁སྙམ།༧གོང་	-9028
▁སྙམ།སྔགས་	-9029
▁སྙོམསཀྱི་	-9030
▁སྟངས།བོད་	-9031
▁སྟབས།ཡུལ་	-9032
▁སྟབས།རྒྱ་	-9033
▁སྟེ།ཁྱོད་	-9034
▁སྟེ།གཞུང་	-9035
▁སྟེ།དངོས་	-9036
▁སྟེ།བྱམས་	-9037
▁སྟེ།རྒྱལ་	-9038
▁སྟོན།ཐོད་	-9039
▁སྟོན།མཚོ་	-9040
▁སྟོན༽ཞེས་	-9041
▁སྣེ།ཀྲུང་	-9042
▁སྤེལ།ཁོང་	-9043
▁སྤེལ།གྱང་	-9044
▁སྤྱོདཀྱི་	-9045
▁སྤྲུགདུས་	-9046
▁སྤྲུལདགེ་	-9047
▁སྦྱོར།དོ་	-9048
▁སྦྲགས།དེ་	-9049
▁སྦྲགས།རང་	-9050
▁སྲིད།ཅེས་	-9051
▁སྲིད།དཔལ་	-9052
▁ཧྲུའུ།པེ་	-9053
▁ཨོ།ཨོ།དར་	-9054
དུས།ཡུལ།མི་	-9055
▁༢༠༡༦༨༣མཚོ་	-9056
▁༢༠༡༨དབྱིན་	-9057
▁༢༤ཉིན།བོད་	-9058
▁༣༩༢༠༡༦ཚུན་	-9059
▁༨༦༦༨༣༧༥༡༥༩	-9060
▁ཀྱིས།ཁྱུང་	-9061
▁ཁོངས།རྒོད་	-9062
▁ཁྲའོ།།གསར་	-9063
▁ཁྲི༢༨༥རེད།	-9064
▁ཁྲིད།བརྙན་	-9065
▁ཁྲིན།ཏུའུ་	-9066
▁ཁྲིམས།ཀུན་	-9067
▁ཁྲིམས།དཔལ་	-9068
▁ཁྲིམསདངནར་	-9069
▁གཉན།།གྲངས་	-9070
▁གཉེར།སྲིད་	-9071
▁གཏུགས།རྒྱ་	-9072
▁གཏོགས།ཀྲོ་	-9073
▁གཏོགས།བོད་	-9074
▁གཏོད།དགོན་	-9075
▁གདམས།འབོལ་	-9076
▁གཙོས།སྤྱི་	-9077
▁གཞོན།རྒོད་	-9078
▁གཟུགས།བོད་	-9079
▁གསུམ།དགོན་	-9080
▁གསུམ།འཕགས་	-9081
▁གསུམ།སྡོམ་	-9082
▁གྱ།གཙོས།ཙ་	-9083
▁གྱིས།དངུལ་	-9084
▁གྱིས།འདྲི་	-9085
▁གྱུར།གཅོད་	-9086
▁གྱུར།དབྱར་	-9087
▁གླིང་།ཅོག་	-9088
▁གླིང་།དུང་	-9089
▁གླིང་།འབར་	-9090
▁ཅིང་།མངོན་	-9091
▁ཏིམོར།ཏུར་	-9092
▁ཐེངས༢༤རྒྱ་	-9093
▁ཐེངསབརྩོན་	-9094
▁དགོས།གྲོང་	-9095
▁དགོས།བཀོལ་	-9096
▁དགོས།མྱུར་	-9097
▁དགོས།འགེང་	-9098
▁དགོས།འདིར་	-9099
▁དགོས།རྒྱལ་	-9100
▁དགོས།རྙིང་	-9101
▁དགོས།རྫོང་	-9102
▁དགོས།ལོངས་	-9103
▁དང་།།གསུང་	-9104
▁དང་།།གསོལ་	-9105
▁དཔོན།འདྲི་	-9106
▁དབྱངས།གཏམ་	-9107
▁དུའོ།།སྤང་	-9108
▁དུས།སྤྱིར་	-9109
▁དེད།ལྟོགས་	-9110
▁དོན།འབྱུང་	-9111
▁དྲོ།ལྗོངས་	-9112
▁དྲོར།ཁྱིམ་	-9113
▁དྲོར།རྒྱལ་	-9114
▁དྷརྨཤྲིའི་	-9115
▁ནས།༧སྐྱབས་	-9116
▁པ༧༢༩༦༧ཡོད་	-9117
▁པའི།སྐུའི་	-9118
▁ཕེ།བསྒྱུར་	-9119
▁ཕོག།དབུགས་	-9120
▁ཕྱུགས།ཕྱི་	-9121
▁ཕྱུར༡༠༠ལས་	-9122
▁ཕྱུར༢༣༢དང་	-9123
▁ཕྱོགས།གཞི་	-9124
▁བཀླུབས།ནང་	-9125
▁བཅུགདབྱིན་	-9126
▁བཅོས།དབུས་	-9127
▁བཅོས།དོགས་	-9128
▁བཏུས།རྩོམ་	-9129
▁བཏོན།ཀྲུང་	-9130
▁བཙུགས།ཁོང་	-9131
▁བཙུགས།སྡེ་	-9132
▁བཞིན།མགོན་	-9133
▁བཞུགས།ཀརྨ་	-9134
▁བཞེངས།འདི་	-9135
▁བཞེད།དེའི་	-9136
▁བཞེདནངམདོ་	-9137
▁བརྐྱངས།ལྷ་	-9138
▁བརྒྱུད།ཟླ་	-9139
▁བརྗོད།འཚོ་	-9140
▁བརྟན།ཁྱོད་	-9141
▁བརྟེན།ཆེད་	-9142
▁བརྟེན།ཉེས་	-9143
▁བརྟེན།དཀར་	-9144
▁བརྟེན།མདོ་	-9145
▁བརྟེན།སླད་	-9146
▁བསམ།སྒྲོན་	-9147
▁བསྐྱེད།དེ་	-9148
▁བསྒྲགས།ལས་	-9149
▁བསྡུས།དེང་	-9150
▁བྱས།ཁྲིམས་	-9151
▁བྱེད།མཚམས་	-9152
▁བྱེད།རྙེད་	-9153
▁བྱེད།སློབ་	-9154
▁བླངས།ཀྲུང་	-9155
▁བླངས།རྐོང་	-9156
▁མ།མཛོད།ཕར་	-9157
▁མཐུན༧༥ཡོད་	-9158
▁མམཆན།དེའི་	-9159
▁མཚུངས།ཡིན་	-9160
▁མཛོད།།བོན་	-9161
▁མཛོད།༡༠ཕབ་	-9162
▁མིན།མགྲོན་	-9163
▁མེད།།གཡུང་	-9164
▁མེད།།གཤེན་	-9165
▁མེད།།སེམས་	-9166
▁མེད།དབྱིན་	-9167
▁མོད།ཕྱུགས་	-9168
▁མོད།སྐྱབས་	-9169
▁མོད།སྐྱེས་	-9170
▁ཚིགས།ཁྱུང་	-9171
▁ཚིགས།སྐབས་	-9172
▁ཚུལ།རྫོགས་	-9173
▁ཚེས༡༢རྗེས་	-9174
▁ཚེསཉིནབདེ་	-9175
▁ཚོགས།གཞུང་	-9176
▁ཚོགས།གསུམ་	-9177
▁ཚོགས།མགུར་	-9178
▁ཚོགས།རྒྱལ་	-9179
▁ཚོགས།རྟེན་	-9180
▁ཚོགས།སློབ་	-9181
▁ཚོར།ཕྱོགས་	-9182
▁ཞིང་།བསོད་	-9183
▁ཞིང་།རྗེས་	-9184
▁འཁོར།དགོན་	-9185
▁འགུལ།དཔྱད་	-9186
▁འགྱུར།ཉིན་	-9187
▁འགྱུར།འགན་	-9188
▁འགྲེལ།སྨན་	-9189
▁འགྲོ།དབུས་	-9190
▁འཆམ།དཀྱིལ་	-9191
▁འདུག༣༧༥ཐད་	-9192
▁འདུགའགྱུར་	-9193
▁འདུགའགྲུལ་	-9194
▁འདུགའགྲེལ་	-9195
▁འདུགའཕྲོད་	-9196
▁འདུགའབྱུང་	-9197
▁འདེད།གྲུབ་	-9198
▁འདེམས།ངེད་	-9199
▁འདོད།སྲོལ་	-9200
▁འཕྲིན།གནས་	-9201
▁འཕྲིན།གསར་	-9202
▁འཕྲིན།ཚགས་	-9203
▁འཕྲིན།ཤེས་	-9204
▁འཕྲོས།ཁམས་	-9205
▁འཕྲོས།བདེ་	-9206
▁འབེབ།སློབ་	-9207
▁འབྱོར།རིག་	-9208
▁འཛིན།།ཞེས་	-9209
▁ཡིན།།བསོད་	-9210
▁ཡིན།དབྱིན་	-9211
▁ཡིན།སྤྱིར་	-9212
▁ཡིན།སྦྱོང་	-9213
▁ཡོད།ཕྱོགས་	-9214
▁ཡོད།འགྲེམ་	-9215
▁ཡོད།འདིའི་	-9216
▁ཡོད།རྐྱེན་	-9217
▁ཡོད།རྒྱུན་	-9218
▁ཡོད།སྐྱབས་	-9219
▁ཡོདཟླ༣པའི་	-9220
▁རིགས།སྒྱུ་	-9221
▁རེད།གཟེངས་	-9222
▁རེད།ཕྱོགས་	-9223
▁རེད།མགྲོན་	-9224
▁རེད།འགྲེམ་	-9225
▁རེད།རྒྱུས་	-9226
▁རེད།སྤྱིར་	-9227
▁རེད།སྤྲུལ་	-9228
▁རྒོལ།སྤྱི་	-9229
▁རྒྱམ།ཁྱིམ་	-9230
▁རྒྱས།འདིར་	-9231
▁རྒྱས།སྲིད་	-9232
▁རྒྱུ།རྒྱལ་	-9233
▁རྒྱུ།སྤྱི་	-9234
▁རྒྱུར།གུས་	-9235
▁རྒྱུར།བོན་	-9236
▁རྒྱུས།གནས་	-9237
▁རྗེས།ཁྱོད་	-9238
▁རྗེས།གྲོང་	-9239
▁རྗེས།འཕགས་	-9240
▁རྗེས།རྒྱུ་	-9241
▁རྟགས།སྐབས་	-9242
▁རྣམས།སྔོན་	-9243
▁རྩོམ༡༠ལྷག་	-9244
▁རྫོགས།མཚན་	-9245
▁རྫོངཆུསགི་	-9246
▁ལོ༢༠༠༥ལོར་	-9247
▁ལྗོངས།མྱི་	-9248
▁ལྟར།མཆིམས་	-9249
▁ཤིང་།གློག་	-9250
▁ཤེས།ཕྱོགས་	-9251
▁ཤོག༢༠༠༨༢༠༠	-9252
▁སུཏེན།ལའོ་	-9253
▁སྐད།།མཛེས་	-9254
▁སྐབས།རྒྱལ་	-9255
▁སྐབས།སློབ་	-9256
▁སྐོམ།འཁྱག་	-9257
▁སྐོར།རྒྱལ་	-9258
▁སྐྱེས།འཆར་	-9259
▁སྐྱེས།རེབ་	-9260
▁སྒྲིགདམངས་	-9261
▁སྒྲིགསློབ་	-9262
▁སྟེ།།བཟོད་	-9263
▁སྟེ།དགོངས་	-9264
▁སྟེ།ཕྱོགས་	-9265
▁སྟེ།མཆིམས་	-9266
▁སྟེ།ཧྲུའུ་	-9267
▁སྟེ༢༠༡༤ལོ་	-9268
▁སྟེགས།ཆེད་	-9269
▁སྟེར།ཁྱོད་	-9270
▁སྟོབས།བློ་	-9271
▁སྣང་།འདིས་	-9272
▁སྤྱོད།བྱས་	-9273
▁སྤྲོད།ཚགས་	-9274
▁སྦྱངས།ཁོང་	-9275
▁སྦྱངས།དགེ་	-9276
▁སྦྱོར།གཞན་	-9277
▁སྦྲེལསྲིད་	-9278
▁སྲིད།བདུད་	-9279
▁སྲིད།འགུལ་	-9280
▁སྲིད།རྒྱལ་	-9281
▁ཨིན།འགྲེམ་	-9282
ཟླ༡༢ཚེས༣ཉིན་	-9283
▁།༢༡༡རེད།གལ་	-9284
▁༠༧ཚེས༠༩བོད་	-9285
▁༠༩ཚེས༢༠བོད་	-9286
▁༢༠༠༨༢༠༡༢བར་	-9287
▁༢༠༡༠ལོར།སི་	-9288
▁ཀེར།།སྒོགཔ་	-9289
▁ཁེབས།ལྷམ།ས་	-9290
▁ཁྱོན༡༤༣ཡོད་	-9291
▁ཁྲི༣༣༧༣བཏང་	-9292
▁ཁྲིམས།རྒྱལ་	-9293
▁ཁྲོད།ཁྲིམས་	-9294
▁གསུང་།རིགས་	-9295
▁གིས།བསྒྱུར་	-9296
▁གྱོནཞིང།ལག་	-9297
▁གྲི༡༩༨༩ལོར་	-9298
▁དགོས།འབྱོར་	-9299
▁དགོས།སྒྲིག་	-9300
▁དབང་ཆ།ལྷུན་	-9301
▁དབྱངས།རྩོམ་	-9302
▁དིཝེསུ།མོང་	-9303
▁བཙུགས།ཕྱིས་	-9304
▁བཞུགས།སྟོད་	-9305
▁བརྒྱུད།ཆོས་	-9306
▁བརྒྱུད།བློ་	-9307
▁བརྗིད།།གཟི་	-9308
▁བརྟན།ཁྲོམང་	-9309
▁བརྟེན།།ཞེས་	-9310
▁བརྟེན།ཐེངས་	-9311
▁བརྟེན།འགྲོ་	-9312
▁བརྡུངས།ཁོས་	-9313
▁བརྩམས།ཐེངས་	-9314
▁བརྩམས།དངུལ་	-9315
▁བསྐུལ།སེམས་	-9316
▁བསྒྲིགས།དྲ་	-9317
▁བསླེབས།ཞེས་	-9318
▁བྱུང།འབྲུག་	-9319
▁མངོན།འདིའི་	-9320
▁མཛོད།༡༠འདི་	-9321
▁ཚུལ།བརྒྱུད་	-9322
▁ཚེསཉིན།ཁྲི་	-9323
▁ཚེསཉིན།གངས་	-9324
▁ཚེསཉིན།ཞིང་	-9325
▁ཚེསཉིན།རིག་	-9326
▁ཞུས།༡༩༦༦ལོ་	-9327
▁ཟད།༢༠༠༤བའི་	-9328
▁འགྱུར།གྲོས་	-9329
▁འགྱུར།སྔོན་	-9330
▁འགྲིགའོ།ཅི་	-9331
▁འགྲོ།ཕྱོགས་	-9332
▁འདིར།བརྗོད་	-9333
▁འདུག།བསྐྱར་	-9334
▁འདུགབསྒྲིག་	-9335
▁འདྲེས།འགྲོ་	-9336
▁འབྱུང་།བྱང་	-9337
▁ཡིན།།འདེམས་	-9338
▁ཡོད།༡༩༧༤ཙམ་	-9339
▁རིགས།བསྡུས་	-9340
▁རེད།ཚེསཉིན་	-9341
▁རོགས།འགྲེམ་	-9342
▁རྐྱེན།ཁོའི་	-9343
▁རྒྱུད།༽བཅས་	-9344
▁རྒྱུས།སྐྱེ་	-9345
▁རྗེས།འཁྲིས་	-9346
▁རྗེས།རྒྱུད་	-9347
▁ལ།༢༠༡༦ལོའི་	-9348
▁ལུགས།།བཤེས་	-9349
▁སོགརྒྱ།བོད་	-9350
▁སོགས།།གཉིད་	-9351
▁སྐོར།ཀིརྟི་	-9352
▁སྒྲིགདཀྱུས་	-9353
▁སྒྲོགསྤྱིར་	-9354
▁སྟེ།།གཟུགས་	-9355
▁སྡེབ།འབྲོང་	-9356
▁སྡེབ།སྒྲོལ་	-9357
ཁ༦༦༣༽ལས།མཐེབ་	-9358
ཁ༦༦༤༽ལས།ཐུགས་	-9359
▁༡༩༥༠ལོར།ཇོར་	-9360
▁ཏེ།༢༠༠༨ལོའི་	-9361
▁དགོས།།སྤྲོས་	-9362
▁དབྱངས།ལས།ལྷ་	-9363
▁ཕྱུར༡༡༦ལེགས་	-9364
▁བརྒྱུད།མཆོད་	-9365
▁བརྒྱུད།རྒྱལ་	-9366
▁བརྟན།མགྱོགས་	-9367
▁བསྒྱུར།དངུལ་	-9368
▁བསྒྱུར།རྩོམ་	-9369
▁བསྒྲགས།གསུང་	-9370
▁བསྲེགས།བགྲོ་	-9371
▁བུམོ།།སྒོགཔ་	-9372
▁མཁྱེན།འབྲེལ་	-9373
▁མེད།།སྐྱེམས་	-9374
▁ཚེསཉིན།ལོའི་	-9375
▁ཟླ༡༡པའི༡ཉིན་	-9376
▁ཟླ༡༢ཚེས༤ཉིན་	-9377
▁ཟླ༡༢ཚེས༥ཉིན་	-9378
▁འཁྲུངས།དགུང་	-9379
▁འགྲུབ།དབྱངས་	-9380
▁འགྲེལ།དུ།རུ་	-9381
▁འདུག༡༩༥༦ལོར་	-9382
▁འདུག༡༩༥༩ལོར་	-9383
▁འཕྲོས།ཕྱོགས་	-9384
▁འཚོགས།དམིགས་	-9385
▁ཡུལ།༢༠༡༧།༦།༡	-9386
▁རེད།འདིས།ཡར་	-9387
▁རྡོར།རྒྱུགས་	-9388
▁སྤྲུལ།འཕྲིན་	-9389
▁སྦྱིན།རྒྱུན་	-9390
༡ཟླ༩པའི༢༢རྒྱལ་	-9391
▁དུས།༢༠༡༧ལོའི་	-9392
▁བཞད།གསུམ།བོད་	-9393
▁བརྒྱུད།རྒྱུན་	-9394
▁བསྐྱངས།བཞུགས་	-9395
▁ཚེས༦ཉིན།རྒྱལ་	-9396
▁ཟླ༡༢ཚེས༡༥ཉིན་	-9397
▁རྩལ།༢༠༠༨ལོའི་	-9398
▁རྫབ།རྫིང་།ཆུ་	-9399
▁ལོ༡༧༥༣ལོམཆོད་	-9400
▁༨༦༦༨༣༧༥༡༥༩མནན་	-9401
▁ཚེས༣༠ཉིན།༧གོང་	-9402
▁ཟླཚེསཉིན།གཞོན་	-9403
▁སྐྱེས།༡༩༥༩ལོར་	-9404
▁༡༢༠༢༦༡༩༣༧༧༤མནན་	-9405
▁ཁྲི༥༧༧དང༧༢༨རེད།	-9406
▁ཡིན།༢༠༠༦ལོར།ཀཱ་	-9407
།༠	-9408
།༢	-9409
།༣	-9410
།༤	-9411
།ཅ	-9412
།ཆ	-9413
།ཉ	-9414
།ཞ	-9415
།འ	-9416
།ཤ	-9417
༠ར	-9418
༠ལ	-9419
༡༥	-9420
༡༧	-9421
༡པ	-9422
༡ཙ	-9423
༡ཚ	-9424
༡ས	-9425
༣་	-9426
༣༦	-9427
༣ད	-9428
༣ཕ	-9429
༣ཚ	-9430
༤༽	-9431
༤བ	-9432
༤ཚ	-9433
༥༤	-9434
༥ག	-9435
༥ཉ	-9436
༥ཐ	-9437
༥ཡ	-9438
༦ཉ	-9439
༦ལ	-9440
༦ས	-9441
༧ག	-9442
༧ད	-9443
༧ན	-9444
༧པ	-9445
༧ཟ	-9446
༧ར	-9447
༧ལ	-9448
༨༠	-9449
༨༡	-9450
༨ད	-9451
༩༠	-9452
༩༡	-9453
༩ཉ	-9454
༩ཡ	-9455
༸ཞ	-9456
༸ས	-9457
ཀཔ	-9458
ཀབ	-9459
ཀའ	-9460
ཀར	-9461
ཀི	-9462
ཀེ	-9463
ཀོ	-9464
ཁག	-9465
ཁང	-9466
ཁན	-9467
ཁབ	-9468
ཁམ	-9469
ཁའ	-9470
ཁར	-9471
ཁས	-9472
ཁི	-9473
ཁུ	-9474
ཁོ	-9475
ག།	-9476
ག༢	-9477
ག༽	-9478
གཁ	-9479
གང	-9480
གཔ	-9481
གམ	-9482
གའ	-9483
གར	-9484
གལ	-9485
གི	-9486
གེ	-9487
གོ	-9488
ང༢	-9489
ང༧	-9490
ང༩	-9491
ངག	-9492
ངང	-9493
ངཆ	-9494
ངབ	-9495
ངཞ	-9496
ངའ	-9497
ངར	-9498
ངུ	-9499
།ཐ	-9500
༠ད	-9501
༠འ	-9502
༢ལ	-9503
༨༥	-9504
༩༤	-9505
༩ན	-9506
༩པ	-9507
༽ག	-9508
ཀུ	-9509
གཡ	-9510
གཱ	-9511
གུ	-9512
ངེ	-9513
ངོ	-9514
ཅང	-9515
ཅན	-9516
ཅར	-9517
ཅས	-9518
ཅི	-9519
ཅུ	-9520
ཅེ	-9521
ཅོ	-9522
ཆག	-9523
ཆང	-9524
ཆད	-9525
ཆན	-9526
ཆབ	-9527
ཆའ	-9528
ཆས	-9529
ཆུ	-9530
ཆེ	-9531
ཆོ	-9532
ཇའ	-9533
ཇར	-9534
ཇུ	-9535
ཇེ	-9536
ཇོ	-9537
ཉམ	-9538
ཉར	-9539
ཉི	-9540
ཉུ	-9541
ཉེ	-9542
ཊཱ	-9543
ཊི	-9544
ཊུ	-9545
ཏག	-9546
ཏང	-9547
ཏན	-9548
ཏཔ	-9549
ཏབ	-9550
ཏུ	-9551
ཏེ	-9552
ཏོ	-9553
ཏྲ	-9554
ཐག	-9555
ཐང	-9556
ཐད	-9557
ཐན	-9558
ཐབ	-9559
ཐམ	-9560
ཐའ	-9561
ཐར	-9562
ཐུ	-9563
ཐེ	-9564
ཐོ	-9565
དད	-9566
དཡ	-9567
དར	-9568
དཤ	-9569
དས	-9570
དི	-9571
དུ	-9572
དོ	-9573
དྷ	-9574
ནག	-9575
ནད	-9576
ནབ	-9577
ནམ	-9578
ནའ	-9579
ནས	-9580
ནཱ	-9581
ནུ	-9582
ནོ	-9583
པ༧	-9584
པའ	-9585
པར	-9586
པལ	-9587
པས	-9588
པི	-9589
པེ	-9590
པོ	-9591
པྱ	-9592
ཕན	-9593
ཕམ	-9594
ཕས	-9595
ཕི	-9596
ཕེ	-9597
བང	-9598
བཏ	-9599
།ཙ	-9600
༡ཉ	-9601
༥ན	-9602
༦༡	-9603
༦པ	-9604
༨ཟ	-9605
༸ར	-9606
ཁེ	-9607
གག	-9608
ངན	-9609
ངལ	-9610
ཅད	-9611
ཅའ	-9612
ཆར	-9613
ཆི	-9614
ཇ་	-9615
ཇག	-9616
ཇལ	-9617
ཉ་	-9618
ཏད	-9619
ཏམ	-9620
དན	-9621
ནན	-9622
པུ	-9623
ཕག	-9624
ཕུ	-9625
ཕོ	-9626
བབ	-9627
བམ	-9628
བཛ	-9629
བའ	-9630
བཱ	-9631
བུ	-9632
བེ	-9633
བོ	-9634
མཇ	-9635
མཉ	-9636
མཔ	-9637
མའ	-9638
མཡ	-9639
མར	-9640
མི	-9641
མེ	-9642
མོ	-9643
ཙག	-9644
ཙང	-9645
ཙད	-9646
ཙན	-9647
ཙམ	-9648
ཙུ	-9649
ཙོ	-9650
ཚ།	-9651
ཚག	-9652
ཚང	-9653
ཚད	-9654
ཚན	-9655
ཚབ	-9656
ཚམ	-9657
ཚའ	-9658
ཚར	-9659
ཚལ	-9660
ཚི	-9661
ཚུ	-9662
ཚེ	-9663
ཚོ	-9664
ཛད	-9665
ཛམ	-9666
ཛས	-9667
ཛི	-9668
ཛུ	-9669
ཛེ	-9670
ཛོ	-9671
ཛྲ	-9672
ཝན	-9673
ཝས	-9674
ཝུ	-9675
ཞག	-9676
ཞན	-9677
ཞབ	-9678
ཞལ	-9679
ཞཱ	-9680
ཞུ	-9681
ཞེ	-9682
ཞོ	-9683
ཞྭ	-9684
ཟ༽	-9685
ཟང	-9686
ཟད	-9687
ཟབ	-9688
ཟམ	-9689
ཟའ	-9690
ཟས	-9691
ཟི	-9692
ཟུ	-9693
ཟེ	-9694
ཟོ	-9695
འཁ	-9696
འཚ	-9697
འུ	-9698
འོ	-9699
།ན	-9700
།ལ	-9701
༠༥	-9702
༠ཐ	-9703
༡༨	-9704
༢ན	-9705
༢མ	-9706
༢ས	-9707
༤ར	-9708
༨ཕ	-9709
༸ག	-9710
ངམ	-9711
ཇམ	-9712
ཉང	-9713
ཉན	-9714
ཉལ	-9715
ཏི	-9716
ནེ	-9717
ཕབ	-9718
ཕལ	-9719
བལ	-9720
མཨ	-9721
ཞས	-9722
ཡ།	-9723
ཡག	-9724
ཡང	-9725
ཡན	-9726
ཡབ	-9727
ཡའ	-9728
ཡར	-9729
ཡལ	-9730
ཡི	-9731
ཡུ	-9732
ཡོ	-9733
ར༡	-9734
ར༢	-9735
རཀ	-9736
རང	-9737
རན	-9738
རབ	-9739
རམ	-9740
རའ	-9741
རས	-9742
རཱ	-9743
རི	-9744
རུ	-9745
རེ	-9746
རོ	-9747
རྭ	-9748
རྱ	-9749
རླ	-9750
ལག	-9751
ལང	-9752
ལན	-9753
ལམ	-9754
ལཝ	-9755
ལའ	-9756
ལར	-9757
ལས	-9758
ལི	-9759
ལུ	-9760
ལེ	-9761
ལོ	-9762
ལྐ	-9763
ལྔ	-9764
ལྭ	-9765
ལྱ	-9766
ཤག	-9767
ཤད	-9768
ཤབ	-9769
ཤའ	-9770
ཤར	-9771
ཤས	-9772
ཤཱ	-9773
ཤི	-9774
ཤུ	-9775
ཤེ	-9776
ཤོ	-9777
ཤྲ	-9778
ས༠	-9779
ས༦	-9780
སང	-9781
སཏ	-9782
སད	-9783
སཔ	-9784
སམ	-9785
སའ	-9786
སལ	-9787
སས	-9788
སི	-9789
སུ	-9790
སེ	-9791
སོ	-9792
སྭ	-9793
ཧང	-9794
ཧད	-9795
ཧན	-9796
ཧོ	-9797
ཨང	-9798
ཨའ	-9799
།ཁ	-9800
།ང	-9801
།མ	-9802
།ཟ	-9803
།ཨ	-9804
༠ཕ	-9805
༡བ	-9806
༢།	-9807
༢ཟ	-9808
༤༠	-9809
༥ཚ	-9810
༦ན	-9811
༦ར	-9812
ཀག	-9813
ཀད	-9814
ཀན	-9815
ཀས	-9816
ང༽	-9817
ཆམ	-9818
ཏཱ	-9819
དའ	-9820
ན༡	-9821
པང	-9822
པཡ	-9823
པཱ	-9824
ཕར	-9825
མ༡	-9826
མཞ	-9827
མལ	-9828
ཝང	-9829
ཞང	-9830
ཞར	-9831
ཡས	-9832
རཞ	-9833
རལ	-9834
ཤམ	-9835
ཧི	-9836
ཧྭ	-9837
ཨབ	-9838
ཨི	-9839
ཨུ	-9840
ཨེ	-9841
ཱཀ	-9842
ཱམ	-9843
ཱཤ	-9844
ཱས	-9845
ཱེ	-9846
ཱོ	-9847
ི༩	-9848
ི༽	-9849
ིཆ	-9850
ིཏ	-9851
ིབ	-9852
ིཞ	-9853
ིའ	-9854
ིཨ	-9855
ུཏ	-9856
ུམ	-9857
ུཝ	-9858
ུཤ	-9859
ེུ	-9860
ེ༢	-9861
ེག	-9862
ེང	-9863
ེཎ	-9864
ེབ	-9865
ེམ	-9866
ོ༥	-9867
ོཀ	-9868
ོཔ	-9869
ོཕ	-9870
ོཞ	-9871
ོཟ	-9872
ོལ	-9873
ོི	-9874
ྐང	-9875
ྐད	-9876
ྐབ	-9877
ྐར	-9878
ྐལ	-9879
ྐུ	-9880
ྐོ	-9881
ྐྲ	-9882
ྒང	-9883
ྒད	-9884
ྒན	-9885
ྒར	-9886
ྒལ	-9887
ྒཱ	-9888
ྒེ	-9889
ྒོ	-9890
ྔ།	-9891
ྔག	-9892
ྔར	-9893
ྔལ	-9894
ྔོ	-9895
ྕག	-9896
ྕུ	-9897
ྕེ	-9898
ྗང	-9899
་།	-9900
།ཀ	-9901
།ཕ	-9902
།ཡ	-9903
༠ཉ	-9904
༦ཚ	-9905
༩ཚ	-9906
ཀལ	-9907
ག༣	-9908
ཅག	-9909
ཉའ	-9910
ཉོ	-9911
ཊེ	-9912
ཏར	-9913
ཐལ	-9914
ཐི	-9915
དལ	-9916
དྨ	-9917
ནར	-9918
པག	-9919
པད	-9920
མཱ	-9921
ཙཱ	-9922
ཙེ	-9923
ཝེ	-9924
ཞད	-9925
ཞའ	-9926
ཟག	-9927
འམ	-9928
ཡེ	-9929
རག	-9930
རྔ	-9931
རྦ	-9932
ལབ	-9933
སཉ	-9934
སབ	-9935
སྩ	-9936
ཧམ	-9937
ཧེ	-9938
ཨར	-9939
ྕི	-9940
ྗི	-9941
ྗེ	-9942
ྗོ	-9943
ྙད	-9944
ྙན	-9945
ྙམ	-9946
ྙི	-9947
ྙེ	-9948
ྙོ	-9949
ྟ་	-9950
ྟ།	-9951
ྟག	-9952
ྟང	-9953
ྟན	-9954
ྟབ	-9955
ྟའ	-9956
ྟར	-9957
ྟས	-9958
ྟི	-9959
ྟུ	-9960
ྟེ	-9961
ྟོ	-9962
ྡ།	-9963
ྡང	-9964
ྡད	-9965
ྡན	-9966
ྡར	-9967
ྡི	-9968
ྡུ	-9969
ྡེ	-9970
ྡོ	-9971
ྣ།	-9972
ྣང	-9973
ྣན	-9974
ྣམ	-9975
ྣའ	-9976
ྣལ	-9977
ྣུ	-9978
ྣེ	-9979
ྣོ	-9980
ྤང	-9981
ྤར	-9982
ྤུ	-9983
ྤེ	-9984
ྤོ	-9985
ྤྱ	-9986
ྤྲ	-9987
ྦང	-9988
ྦད	-9989
ྦས	-9990
ྦཱ	-9991
ྦེ	-9992
ྦོ	-9993
ྦྱ	-9994
ྦྲ	-9995
ྦྷ	-9996
ྨག	-9997
ྨང	-9998
ྨད	-9999
།༨	-10000
།༸	-10001
།ཇ	-10002
།ཏ	-10003
།པ	-10004
༠ཁ	-10005
༠ག	-10006
༠པ	-10007
༠ཚ	-10008
༡༦	-10009
༣༤	-10010
༤པ	-10011
༧བ	-10012
༧ཞ	-10013
༨ཚ	-10014
༩བ	-10015
༽འ	-10016
ཁལ	-10017
གཆ	-10018
གཊ	-10019
ཎི	-10020
བ༽	-10021
ཙི	-10022
ཛ།	-10023
ཛང	-10024
ཛའ	-10025
འེ	-10026
ཡཱ	-10027
ལད	-10028
ཤང	-10029
ཤན	-10030
སཀ	-10031
སན	-10032
སཱ	-10033
ཧཱ	-10034
ཧུ	-10035
ཨན	-10036
ཨཱ	-10037
ྐམ	-10038
ྒས	-10039
ྒུ	-10040
ྔའ	-10041
ྕོ	-10042
ྡལ	-10043
ྦག	-10044
ྦུ	-10045
ྨན	-10046
ྨི	-10047
ྨུ	-10048
ྨེ	-10049
ྨོ	-10050
ྨྲ	-10051
ྩ་	-10052
ྩད	-10053
ྩམ	-10054
ྩའ	-10055
ྩར	-10056
ྩལ	-10057
ྩི	-10058
ྩེ	-10059
ྩོ	-10060
ྩྭ	-10061
ྫས	-10062
ྫི	-10063
ྫུ	-10064
ྫོ	-10065
ྭག	-10066
ྭང	-10067
ྭའ	-10068
ྭར	-10069
ྭོ	-10070
ྱ།	-10071
ྱག	-10072
ྱང	-10073
ྱད	-10074
ྱན	-10075
ྱབ	-10076
ྱམ	-10077
ྱའ	-10078
ྱར	-10079
ྱལ	-10080
ྱས	-10081
ྱཱ	-10082
ྱི	-10083
ྱུ	-10084
ྱེ	-10085
ྱོ	-10086
ྲག	-10087
ྲང	-10088
ྲད	-10089
ྲན	-10090
ྲབ	-10091
ྲམ	-10092
ྲའ	-10093
ྲལ	-10094
ྲས	-10095
ྲུ	-10096
ྲེ	-10097
ྲོ	-10098
ྲྭ	-10099
་ག	-10100
་ཆ	-10101
།ཚ	-10102
།ཧ	-10103
༡ད	-10104
༡ཟ	-10105
༡ར	-10106
༢༡	-10107
༢ཉ	-10108
༣ཉ	-10109
༤༡	-10110
༦ཟ	-10111
༧༠	-10112
༨༦	-10113
༨ཅ	-10114
༨ལ	-10115
༩༦	-10116
༽ད	-10117
ཀཱ	-10118
ཁཱ	-10119
ངྷ	-10120
ཅལ	-10121
ཆ།	-10122
ཉག	-10123
ཊར	-10124
ཊོ	-10125
པཞ	-10126
པྲ	-10127
ཕང	-10128
ཕཱ	-10129
ཙལ	-10130
རཡ	-10131
རར	-10132
ལཟ	-10133
ལཱ	-10134
ས༤	-10135
སཡ	-10136
ཱན	-10137
ོཊ	-10138
ྐ་	-10139
ྔམ	-10140
ྙས	-10141
ྟད	-10142
ྣག	-10143
ྣར	-10144
ྤ་	-10145
ྦི	-10146
ྩུ	-10147
ྫ་	-10148
ྫང	-10149
ླ༡	-10150
ླག	-10151
ླང	-10152
ླད	-10153
ླན	-10154
ླཔ	-10155
ླབ	-10156
ླམ	-10157
ླཚ	-10158
ླའ	-10159
ླར	-10160
ླི	-10161
ླུ	-10162
ླེ	-10163
ློ	-10164
ྷག	-10165
ྷང	-10166
ྷན	-10167
ྷའ	-10168
ྷར	-10169
ྷས	-10170
ྷཧ	-10171
ྷཱ	-10172
ྷི	-10173
ྷུ	-10174
ྷེ	-10175
།༦།	-10176
།ག་	-10177
།གཉ	-10178
།གླ	-10179
།དྲ	-10180
།བཟ	-10181
།ལ་	-10182
།སྟ	-10183
༠༠༡	-10184
༠ཁ་	-10185
༡༠༨	-10186
༢ས་	-10187
༣ན།	-10188
༤པ་	-10189
༥གས	-10190
༦༠༠	-10191
༽གྱ	-10192
༽བླ	-10193
ཀག་	-10194
ཀབ་	-10195
ཀས་	-10196
ཀྲ་	-10197
ཁག་	-10198
གཀྲ	-10199
།༩	-10200
།༽	-10201
།ཝ	-10202
༠༢	-10203
༠༧	-10204
༠ན	-10205
༠བ	-10206
༠ཙ	-10207
༠ཡ	-10208
༡།	-10209
༡ག	-10210
༡ན	-10211
༡མ	-10212
༣༥	-10213
༤མ	-10214
༥།	-10215
༥ལ	-10216
༧༦	-10217
༧༧	-10218
༧ཉ	-10219
༧ཚ	-10220
༨་	-10221
༨༢	-10222
༩༣	-10223
༩༨	-10224
ངཕ	-10225
ཇབ	-10226
དཅ	-10227
དཝ	-10228
དཱ	-10229
ཝོ	-10230
ཞ་	-10231
རད	-10232
རྕ	-10233
ཤཟ	-10234
ས༢	-10235
ས༩	-10236
ཧའ	-10237
ཱང	-10238
ུཁ	-10239
ེཛ	-10240
ེཞ	-10241
ྐེ	-10242
ྒམ	-10243
ྔས	-10244
ྔུ	-10245
ྕམ	-10246
ྗག	-10247
ྣས	-10248
ྷམ	-10249
ྷྲ	-10250
༦༦༣	-10251
ཀི་	-10252
གད་	-10253
གམཐ	-10254
གསྣ	-10255
གསླ	-10256
གྲེ	-10257
ང་།	-10258
ང་ཆ	-10259
ཅག་	-10260
ཅད།	-10261
ཅས་	-10262
ཅས།	-10263
ཅུ་	-10264
ཇལ་	-10265
ཇལ།	-10266
ཇི་	-10267
ཇེ་	-10268
ཇོ་	-10269
ཉང་	-10270
ཉོ་	-10271
ཊུ་	-10272
ཎི་	-10273
ཏད་	-10274
ཏན་	-10275
ཏན།	-10276
ཏར་	-10277
ཐུ་	-10278
ད།ཀ	-10279
ད།ཁ	-10280
ད།ཉ	-10281
ད།ན	-10282
ད།བ	-10283
ད།ཚ	-10284
ད།ལ	-10285
ད།ཨ	-10286
དི་	-10287
དྨ་	-10288
ན།ཞ	-10289
ན།ར	-10290
ནལ་	-10291
པའ་	-10292
ཕས་	-10293
ཕི་	-10294
བ།ཅ	-10295
བ།འ	-10296
བ།ལ	-10297
བད་	-10298
བམ་	-10299
༠༣	-10300
༠༦	-10301
༠ཟ	-10302
༡ཆ	-10303
༡ཕ	-10304
༡ལ	-10305
༢༥	-10306
༢བ	-10307
༢ཚ	-10308
༢ཤ	-10309
༣པ	-10310
༣མ	-10311
༣ཡ	-10312
༣ར	-10313
༤༢	-10314
༤ཅ	-10315
༤ན	-10316
༤ལ	-10317
༥་	-10318
༥༣	-10319
༥༨	-10320
༥ཟ	-10321
༦༨	-10322
༦༩	-10323
༦ད	-10324
༦ཕ	-10325
༧་	-10326
༧༡	-10327
༧ཕ	-10328
༨ཉ	-10329
༨ན	-10330
༨བ	-10331
༨ཡ	-10332
༩་	-10333
༩༩	-10334
༩ད	-10335
༩ལ	-10336
༽བ	-10337
ན༽	-10338
ེཀ	-10339
།ན་	-10340
༣བཅ	-10341
༧༥༣	-10342
ཆན།	-10343
ཐན་	-10344
ན།ན	-10345
པས་	-10346
བརྟ	-10347
བརྡ	-10348
མ།༧	-10349
མ།ཁ	-10350
མ།ཉ	-10351
མ།བ	-10352
མ།འ	-10353
མ།ས	-10354
མག་	-10355
མད་	-10356
ཙི་	-10357
ཚར་	-10358
ཚི་	-10359
ཚུ་	-10360
ཛག་	-10361
ཛད་	-10362
ཛི་	-10363
ཝང་	-10364
ཞད་	-10365
ཞས་	-10366
ཟག་	-10367
ཟང་	-10368
ཟད་	-10369
ཟའ་	-10370
ཟར་	-10371
ཟི་	-10372
ཟེ་	-10373
ཟླར	-10374
འི།	-10375
འི༢	-10376
འེ།	-10377
ཡབ་	-10378
ཡལ་	-10379
ར།༠	-10380
ར།ཀ	-10381
ར།ཆ	-10382
ར།ཇ	-10383
ར།ཉ	-10384
ར།ཏ	-10385
ར།ད	-10386
ར།ཟ	-10387
ར།འ	-10388
ར།ལ	-10389
ར།ཤ	-10390
རགན	-10391
རན་	-10392
ལ།ད	-10393
ལ།ཨ	-10394
ལན་	-10395
ལབ་	-10396
ཤག་	-10397
ཤན་	-10398
ཤབ་	-10399
་ཞ	-10400
།ཛ	-10401
༠ས	-10402
༢༩	-10403
༢ག	-10404
༢ད	-10405
༢ར	-10406
༣།	-10407
༣༩	-10408
༣༽	-10409
༣ག	-10410
༣ས	-10411
༤༨	-10412
༤ཉ	-10413
༥༦	-10414
༥ད	-10415
༥པ	-10416
༥ར	-10417
༥ས	-10418
༦༥	-10419
༧༨	-10420
༧ཐ	-10421
༧མ	-10422
༨ག	-10423
༨པ	-10424
༩མ	-10425
༽ཞ	-10426
༽ར	-10427
༽ལ	-10428
༽ས	-10429
ག༧	-10430
གཐ	-10431
གཚ	-10432
ནལ	-10433
ས༽	-10434
ི༢	-10435
ི༣	-10436
ིཚ	-10437
ིཡ	-10438
ིི	-10439
ྨས	-10440
ྲ།	-10441
ྲར	-10442
ླཝ	-10443
།གཤ	-10444
།ས་	-10445
གསཡ	-10446
མ།ཚ	-10447
ཞར་	-10448
ཟས་	-10449
ལ།ཡ	-10450
ཤས་	-10451
ཤི་	-10452
ས།༢	-10453
ས།ཐ	-10454
ས།ཚ	-10455
ས།ཝ	-10456
ས།ཟ	-10457
ས།ལ	-10458
སར་	-10459
སསྤ	-10460
སསྦ	-10461
སུ་	-10462
སྦྲ	-10463
ཧད་	-10464
ཨང་	-10465
ཨན་	-10466
ཨམ་	-10467
ཱག་	-10468
ཱས་	-10469
ི།༽	-10470
ི།ད	-10471
ི།པ	-10472
ི།ར	-10473
ིགད	-10474
ིརྩ	-10475
ུ།ཀ	-10476
ུ།ང	-10477
ུ།ཟ	-10478
ུ།ཡ	-10479
ུགཁ	-10480
ུགག	-10481
ུགང	-10482
ུགབ	-10483
ུགཟ	-10484
ུདག	-10485
ུར༢	-10486
ེ།བ	-10487
ེ།ཚ	-10488
ེ།ལ	-10489
ེ།ཤ	-10490
ེ།ས	-10491
ེདད	-10492
ེསབ	-10493
ེསར	-10494
ོ།ལ	-10495
ོགཆ	-10496
ོགའ	-10497
ོགར	-10498
ོནར	-10499
༣ན	-10500
༥ཅ	-10501
༧༣	-10502
༧ཡ	-10503
༨ར	-10504
༸ད	-10505
༽ཐ	-10506
༽ཤ	-10507
གཕ	-10508
གཧ	-10509
ངཟ	-10510
ཅཱ	-10511
ཆཊ	-10512
ཆཟ	-10513
ཇན	-10514
ཇཱ	-10515
ཉ།	-10516
ཉས	-10517
ཏའ	-10518
ནཉ	-10519
ནཔ	-10520
ནཞ	-10521
པཀ	-10522
པན	-10523
པམ	-10524
བཚ	-10525
ཛག	-10526
ཛར	-10527
ཟར	-10528
ས༣	-10529
སཞ	-10530
ཨག	-10531
ཱའ	-10532
ི༡	-10533
ི༥	-10534
ིཀ	-10535
ུཚ	-10536
ུཞ	-10537
ུཟ	-10538
ེཁ	-10539
ོ༩	-10540
ོོ	-10541
ྔན	-10542
ྙུ	-10543
ྟཝ	-10544
ྨའ	-10545
ྨཤ	-10546
ྭས	-10547
ྲྲ	-10548
ླ༩	-10549
༠༡༣	-10550
༣༧༥	-10551
ཀང་	-10552
དབ་	-10553
བག་	-10554
ཚན།	-10555
ས།༧	-10556
ས།ཅ	-10557
ོགབ	-10558
ྐར་	-10559
ྐུ་	-10560
ྐྱ་	-10561
ྒང་	-10562
ྒམ་	-10563
ྒར་	-10564
ྒྱ་	-10565
ྒྱང	-10566
ྒྱའ	-10567
ྒྱལ	-10568
ྔམ་	-10569
ྔར་	-10570
ྔལ་	-10571
ྔོ་	-10572
ྕག་	-10573
ྗེ་	-10574
ྗེ།	-10575
ྙད།	-10576
ྙས་	-10577
ྟི་	-10578
ྟོ་	-10579
ྡར་	-10580
ྡལ་	-10581
ྡུ་	-10582
ྣན།	-10583
ྣལ་	-10584
ྤང་	-10585
ྤལ་	-10586
ྤུ་	-10587
ྦི་	-10588
ྦེ་	-10589
ྦྲ་	-10590
ྨན་	-10591
ྨར་	-10592
ྨྲ་	-10593
ྩད་	-10594
ྩར་	-10595
ྩི་	-10596
ྫས་	-10597
ྫས།	-10598
ྫི་	-10599
༣༢	-10600
༤ཙ	-10601
༦།	-10602
༦༤	-10603
༧།	-10604
༩༧	-10605
༽ཅ	-10606
ཀང	-10607
ག༡	-10608
ག༸	-10609
གཀ	-10610
གཨ	-10611
དཞ	-10612
དཟ	-10613
ཕཊ	-10614
བན	-10615
བཡ	-10616
བྟ	-10617
མ༩	-10618
མམ	-10619
མཟ	-10620
ཙའ	-10621
ཙས	-10622
ཙྭ	-10623
ཟ།	-10624
ཡམ	-10625
ར༽	-10626
རཏ	-10627
ལཏ	-10628
ལལ	-10629
ས༡	-10630
ས༥	-10631
སཕ	-10632
ེེ	-10633
ོ༽	-10634
ོཝ	-10635
ྗན	-10636
ྡབ	-10637
ྡམ	-10638
ྡའ	-10639
ྤག	-10640
ྲཱ	-10641
ླ།	-10642
ླ༣	-10643
ླ༤	-10644
ླ༥	-10645
ླ༨	-10646
ྷད	-10647
།།།	-10648
ཁན།	-10649
གམ་	-10650
ཇུ་	-10651
ད།འ	-10652
པག་	-10653
ཛར་	-10654
ུ།འ	-10655
ྡན་	-10656
ྭགྲ	-10657
ྭས་	-10658
ྱབ་	-10659
ྱས་	-10660
ྱུ་	-10661
ྱེ་	-10662
ྱོ་	-10663
ྲང་	-10664
ྲན་	-10665
ྲན།	-10666
ྲིག	-10667
ྲིད	-10668
ྲིབ	-10669
ླག་	-10670
ླང་	-10671
ླད་	-10672
ླད།	-10673
ླུ་	-10674
ླེ་	-10675
ྷག་	-10676
ྷང་	-10677
ྷར་	-10678
ྷས་	-10679
▁།༧	-10680
▁།ཝ	-10681
▁༡ལ	-10682
▁༢།	-10683
▁༣༥	-10684
▁༤༢	-10685
▁༧ཞ	-10686
▁༨༣	-10687
▁ཀད	-10688
▁ཀར	-10689
▁ཀེ	-10690
▁ཁམ	-10691
▁གང	-10692
▁གལ	-10693
▁གོ	-10694
▁ཅཱ	-10695
▁ཅུ	-10696
▁ཆག	-10697
▁ཆབ	-10698
▁ཆཟ	-10699
༠ཅ	-10700
༢ཙ	-10701
༨ཀ	-10702
ཀཛ	-10703
འར	-10704
རཁ	-10705
རཟ	-10706
ལཀ	-10707
ལཆ	-10708
ལཐ	-10709
ལྤ	-10710
སཅ	-10711
སྷ	-10712
ཧཡ	-10713
ཨམ	-10714
ཱ།	-10715
ཱག	-10716
ཱད	-10717
ེཕ	-10718
ོ༡	-10719
ོ༢	-10720
ྐ།	-10721
ྕང	-10722
ྤལ	-10723
ྦལ	-10724
ྨར	-10725
ྫབ	-10726
ྫའ	-10727
ྭི	-10728
ྱྱ	-10729
༠བཙ	-10730
ཀར།	-10731
ཁས་	-10732
ཁེ་	-10733
གདཀ	-10734
ཅད་	-10735
ཆམ་	-10736
ཆས་	-10737
ཉས་	-10738
དས་	-10739
ན།ཕ	-10740
བང་	-10741
བྲ་	-10742
ཙས་	-10743
ཛས་	-10744
ཝས་	-10745
ཞས།	-10746
སས་	-10747
ེས༠	-10748
ྒས་	-10749
ྒོ་	-10750
ྗང་	-10751
ྟས་	-10752
ྣས་	-10753
ྦས་	-10754
ྨང་	-10755
ྨས་	-10756
ྱང་	-10757
ྱར་	-10758
ླབ་	-10759
ླར་	-10760
▁ཆའ	-10761
▁ཆས	-10762
▁ཆོ	-10763
▁ཇཱ	-10764
▁ཉན	-10765
▁ཉའ	-10766
▁ཉི	-10767
▁ཉོ	-10768
▁ཊཱ	-10769
▁ཐན	-10770
▁ཐབ	-10771
▁དར	-10772
▁ནང	-10773
▁ནའ	-10774
▁ནཱ	-10775
▁པག	-10776
▁པམ	-10777
▁པེ	-10778
▁ཕབ	-10779
▁ཕེ	-10780
▁བན	-10781
▁བལ	-10782
▁བོ	-10783
▁བྟ	-10784
▁མཞ	-10785
▁མཟ	-10786
▁མཡ	-10787
▁མལ	-10788
▁མུ	-10789
▁ཚད	-10790
▁ཚབ	-10791
▁ཚུ	-10792
▁ཞང	-10793
▁ཞོ	-10794
▁འི	-10795
▁ཡན	-10796
▁ཡའ	-10797
▁ཡེ	-10798
▁ར།	-10799
༢ལ་	-10800
ཀྲོ	-10801
ཁན་	-10802
ཁི་	-10803
ང་ག	-10804
ང་ཞ	-10805
ངང་	-10806
ཆི་	-10807
ཆོ་	-10808
ཊི་	-10809
ཏྲི	-10810
ཐི་	-10811
ད།༦	-10812
དག་	-10813
ན།༢	-10814
ན།བ	-10815
པང་	-10816
ཕང་	-10817
བ།ཁ	-10818
བྷཧ	-10819
མ།ག	-10820
ཙང་	-10821
ཝན་	-10822
ཤང་	-10823
སང་	-10824
སན་	-10825
ུགཡ	-10826
ེས༥	-10827
ྐྱང	-10828
ྒྱབ	-10829
ྔུ་	-10830
ྗི་	-10831
ྙི་	-10832
ྟན་	-10833
ྡང་	-10834
ྡི་	-10835
ྦང་	-10836
ྨི་	-10837
ྭི་	-10838
ླམ་	-10839
ྷན་	-10840
▁ཀཱ	-10841
▁གབ	-10842
▁གམ	-10843
▁གའ	-10844
▁གཱ	-10845
▁བབ	-10846
▁བམ	-10847
▁བཡ	-10848
▁བེ	-10849
▁ཟི	-10850
▁ར༽	-10851
▁རག	-10852
▁རཏ	-10853
▁རད	-10854
▁རཡ	-10855
▁རར	-10856
▁རལ	-10857
▁རྦ	-10858
▁རྭ	-10859
▁ལཀ	-10860
▁ལང	-10861
▁ལཆ	-10862
▁ལན	-10863
▁ལའ	-10864
▁ལར	-10865
▁ལི	-10866
▁ལེ	-10867
▁ཤོ	-10868
▁ས༽	-10869
▁སང	-10870
▁ཧེ	-10871
▁ཨཱ	-10872
།ངས་	-10873
།འགྲ	-10874
།ཡི་	-10875
།རི་	-10876
།ལམ་	-10877
༠༠བར	-10878
༠ནས་	-10879
༡༢རྗ	-10880
༢༠༠༡	-10881
༢ཙམ་	-10882
༢ཟླ་	-10883
༤རྒྱ	-10884
༥ཟླ་	-10885
༦༣༣༡	-10886
༦དང་	-10887
༦རང་	-10888
༧ཟླ་	-10889
༧ལས་	-10890
༧སྐྱ	-10891
༩ནང་	-10892
༩ཚེས	-10893
༸སྐྱ	-10894
༽དེ་	-10895
༽དྲ་	-10896
ཀའི་	-10897
ཀིརྟ	-10898
ཀོད།	-10899
།ད་	-10900
༦ལྷ	-10901
གན་	-10902
ཆན་	-10903
ཊེ་	-10904
ནན་	-10905
མ།ཀ	-10906
ཙད་	-10907
ཞག་	-10908
ཤད་	-10909
སད་	-10910
ྐད་	-10911
ྒད་	-10912
ྗན་	-10913
ྡད་	-10914
ྣན་	-10915
ྤར་	-10916
ྱན་	-10917
ྲད་	-10918
▁ཐེ	-10919
▁དད	-10920
▁དལ	-10921
▁དཱ	-10922
▁དི	-10923
▁པ༧	-10924
▁པཞ	-10925
▁པཱ	-10926
▁པུ	-10927
▁ཕན	-10928
▁མཉ	-10929
▁རང	-10930
▁རབ	-10931
▁རམ	-10932
▁རའ	-10933
▁རས	-10934
▁རུ	-10935
▁རོ	-10936
▁ཤཟ	-10937
▁ཤེ	-10938
▁སད	-10939
▁སམ	-10940
▁སའ	-10941
▁སཱ	-10942
▁སྭ	-10943
▁སྷ	-10944
༡༩༦༢	-10945
ཁོད་	-10946
གམི་	-10947
གརྒྱ	-10948
གལོ་	-10949
གས།ཆ	-10950
གས།ཕ	-10951
གས།འ	-10952
གུན་	-10953
གུར་	-10954
གུལ་	-10955
གེང་	-10956
ངས།ཁ	-10957
ངས།ག	-10958
ངས།ཡ	-10959
ངོན་	-10960
ཅགས་	-10961
ཅངས་	-10962
ཅིན་	-10963
ཅུང་	-10964
ཅུན་	-10965
ཅུས་	-10966
ཅེན་	-10967
ཅོད་	-10968
ཅོན་	-10969
ཅོས་	-10970
ཆིང་	-10971
ཆོད་	-10972
ཆོར་	-10973
ཇའི་	-10974
ཇུས་	-10975
ཇེར་	-10976
ཇོག་	-10977
ཇོང་	-10978
ཉིག་	-10979
ཉུང་	-10980
ཉེར་	-10981
ཉོན་	-10982
ཊིན་	-10983
ཊུབ་	-10984
ཏིང་	-10985
ཏིན་	-10986
ཏིས་	-10987
ཏུལ་	-10988
ཏེར་	-10989
ཏོང་	-10990
ཏོར་	-10991
ཐིས་	-10992
ཐུབ་	-10993
ཐེང་	-10994
ཐེབ་	-10995
ཐོང་	-10996
ཐོབ་	-10997
ད།ཕྱ	-10998
དགས་	-10999
།ར་	-11000
༠༨ན	-11001
༡༠༠	-11002
ཀར་	-11003
ཅར་	-11004
ཆག་	-11005
ཆར་	-11006
ཇར་	-11007
ཉག་	-11008
ཉར་	-11009
ཊར་	-11010
ཏག་	-11011
ད།ཧ	-11012
དཔྲ	-11013
ཙོ་	-11014
འར་	-11015
ར།ཞ	-11016
རག་	-11017
ས།ཨ	-11018
སྲི	-11019
ིསཏ	-11020
ེ།ཆ	-11021
ོསྐ	-11022
ྟར་	-11023
ྣག་	-11024
ྣར་	-11025
ྨག་	-11026
ྭར་	-11027
ྱག་	-11028
ྲར་	-11029
▁པཡ	-11030
▁པི	-11031
▁མ༩	-11032
▁མམ	-11033
▁མའ	-11034
▁མས	-11035
▁མཱ	-11036
▁འུ	-11037
▁ལཐ	-11038
▁ལབ	-11039
▁ལྭ	-11040
ཁའི་	-11041
གའི་	-11042
ཆའི་	-11043
ཐའི་	-11044
ཐོམ་	-11045
དའི་	-11046
དུག་	-11047
དེལ་	-11048
དོག་	-11049
དོད་	-11050
ན།ག་	-11051
ན།གཏ	-11052
ན།རྩ	-11053
ན།སྐ	-11054
ནདེ་	-11055
ནའི་	-11056
ནོལ་	-11057
པེར་	-11058
ཕིན་	-11059
ཕུར་	-11060
ཕུལ་	-11061
ཕེར་	-11062
ཕེལ་	-11063
ཕོག་	-11064
བ།དཔ	-11065
བཏང་	-11066
བས།ད	-11067
བས།ཡ	-11068
བུལ་	-11069
བྱི་	-11070
མ།ཀྲ	-11071
མ།ཁྱ	-11072
མ།བཤ	-11073
མ།ལྷ	-11074
མ།སྟ	-11075
མས།ཀ	-11076
མོས་	-11077
ཙགས་	-11078
ཙིག་	-11079
ཙོས་	-11080
ཚམས་	-11081
ཚའི་	-11082
ཚུར་	-11083
ཚོལ་	-11084
ཚོས་	-11085
ཛགས་	-11086
ཛིན་	-11087
ཛིས་	-11088
ཛུབ་	-11089
ཛུལ་	-11090
ཛེས་	-11091
ཛོད་	-11092
ཝུན་	-11093
ཞིས་	-11094
ཞུང་	-11095
ཞོག་	-11096
ཞོད་	-11097
ཟའི་	-11098
ཟིང་	-11099
༠ལྷ	-11100
༥ལ་	-11101
༦ལ་	-11102
༨ལ་	-11103
༽བད	-11104
ཀལ་	-11105
ཀོ་	-11106
ཁལ་	-11107
ངལ་	-11108
ངུ་	-11109
ཅལ་	-11110
ཅོ་	-11111
ཆར།	-11112
ཉའ་	-11113
ཉལ་	-11114
ཏོ་	-11115
ཐོ་	-11116
ད།ཡ	-11117
ནུ་	-11118
པལ་	-11119
པོ་	-11120
ཕུ་	-11121
ཙལ་	-11122
ཚལ་	-11123
ཞོ་	-11124
ཟུ་	-11125
ཟོ་	-11126
ཡོ་	-11127
ལལ་	-11128
ཧམ་	-11129
ཧུ་	-11130
ཧོ་	-11131
ིཨ་	-11132
ུགམ	-11133
ྐལ་	-11134
ྐོ་	-11135
ྒུ་	-11136
ྤོ་	-11137
ྦལ་	-11138
ྨུ་	-11139
ྩོ་	-11140
ྫུ་	-11141
ྲུ་	-11142
ྷུ་	-11143
ྷོ་	-11144
▁ཐམ	-11145
▁ཤམ	-11146
ཇགས་	-11147
ཊོམ་	-11148
ཏགས་	-11149
ཐུས་	-11150
ན།མ་	-11151
ནགས་	-11152
ཕགས་	-11153
བསསྤ	-11154
ཛུག་	-11155
ཟུང་	-11156
ཟེད་	-11157
ཟོག་	-11158
ཟོན་	-11159
འ།དབ	-11160
ཡའི་	-11161
ཡུས་	-11162
ཡེལ་	-11163
ཡོན་	-11164
ར།དཀ	-11165
ར།འད	-11166
ར།སྐ	-11167
ར།སྤ	-11168
རབརྩ	-11169
ལ།རྩ	-11170
ཤགས་	-11171
ཤངས་	-11172
ཤིང་	-11173
ཤིས་	-11174
ཤུས་	-11175
ཤོང་	-11176
ས།ང་	-11177
ས།བྱ	-11178
ས།མ་	-11179
ས།འཛ	-11180
ས།ས་	-11181
སགས་	-11182
སིང་	-11183
སུང་	-11184
སུན་	-11185
སོང་	-11186
སོད་	-11187
སོར་	-11188
སོས་	-11189
ཧིང་	-11190
ཧུབ་	-11191
ཧེལ་	-11192
ཨུན་	-11193
ཱོག་	-11194
ཱོལ་	-11195
ི།མཐ	-11196
ི།འད	-11197
ི།སྐ	-11198
ིན།ཀ	-11199
གེ་	-11200
ངེ་	-11201
ཅེ་	-11202
ད།་	-11203
ན།ལ	-11204
ནེ་	-11205
ཕེ་	-11206
ཙེ་	-11207
ཚབ་	-11208
ཛྲ་	-11209
ཞེ་	-11210
ཤེ་	-11211
ས།ཕ	-11212
སེ་	-11213
ཧེ་	-11214
ིཆ་	-11215
ོ།མ	-11216
ོགཧ	-11217
ྒེ་	-11218
ྕེ་	-11219
ྟེ་	-11220
ྣེ་	-11221
ྨེ་	-11222
ྩེ་	-11223
ྲི༥	-11224
ྷེ་	-11225
▁༣༦	-11226
▁ན༧	-11227
▁ནར	-11228
▁ནུ	-11229
▁ནེ	-11230
▁ནོ	-11231
▁ཡབ	-11232
▁ཡམ	-11233
▁ཡལ	-11234
▁ཡས	-11235
▁ཡཱ	-11236
▁ཡི	-11237
▁ཡུ	-11238
༠ལོ་	-11239
༢༠༠༥	-11240
ཀོད་	-11241
ཁྱི་	-11242
གགས་	-11243
གོད་	-11244
ངགས་	-11245
ཉོག་	-11246
ཏོད་	-11247
ཐོར་	-11248
ནོད་	-11249
ཚོད་	-11250
ཝོལ་	-11251
ཞུས་	-11252
ིན།ང	-11253
ིན།ཕ	-11254
ིན།བ	-11255
ིནང་	-11256
ིནས་	-11257
ིས།ད	-11258
ིས།ས	-11259
ུ།དབ	-11260
ུ།བས	-11261
ུ།སྐ	-11262
ུ།སྤ	-11263
ུགཕྱ	-11264
ུགབས	-11265
ུབ།ད	-11266
ུར།ག	-11267
ུར།ཧ	-11268
ུར༢༣	-11269
ུལ།༢	-11270
ུལ།བ	-11271
ུལ།འ	-11272
ུལ།ས	-11273
ུས།ཁ	-11274
ུས།ག	-11275
ུས།ཕ	-11276
ུས།བ	-11277
ུས།འ	-11278
ེུད་	-11279
ེ།།ས	-11280
ེ།ཁྱ	-11281
ེ།གྲ	-11282
ེ།ད་	-11283
ེ།དཔ	-11284
ེངས༢	-11285
ེད།ད	-11286
ེད།ན	-11287
ེད།ཕ	-11288
ེད།བ	-11289
ེད།མ	-11290
ེན།ཉ	-11291
ེན།མ	-11292
ེན།ར	-11293
ེའམ་	-11294
ེར།ག	-11295
ེལ།ས	-11296
ེས།ཅ	-11297
ེས།ཕ	-11298
ེས།ར	-11299
༣སྤ	-11300
གསུ	-11301
ཇམ་	-11302
ཏམ་	-11303
ཐམ་	-11304
ཕམ་	-11305
མ།ར	-11306
ཚམ་	-11307
ཚོ།	-11308
ཛམ་	-11309
ར།ཧ	-11310
སམ་	-11311
སྒྱ	-11312
ུ།ད	-11313
ུགཚ	-11314
ོགག	-11315
ྐམ་	-11316
ྒྱུ	-11317
ྕམ་	-11318
ྙམ་	-11319
ྩམ་	-11320
ྱམ་	-11321
ྲབ་	-11322
ྲམ་	-11323
ྷམ་	-11324
▁ཀའ	-11325
▁ཀུ	-11326
▁ཀོ	-11327
▁ཁའ	-11328
▁ཁར	-11329
▁ཁཱ	-11330
▁ཁུ	-11331
▁ཁེ	-11332
▁ཆཊ	-11333
▁ཆར	-11334
▁ཆི	-11335
▁ཆུ	-11336
▁ཕཱ	-11337
▁ཟ༽	-11338
ཏེན་	-11339
དོས་	-11340
ཕོད་	-11341
མོད་	-11342
ཟོད་	-11343
ཤེད་	-11344
ཤོད་	-11345
ས༢༠༡	-11346
ུལ།ཀ	-11347
ེ།མ་	-11348
ེངསབ	-11349
ེད།ས	-11350
ོ།།།	-11351
ོ།ག་	-11352
ོ།ས་	-11353
ོགསྤ	-11354
ོད།༡	-11355
ོད།༦	-11356
ོད།༽	-11357
ོད།ཆ	-11358
ོད།ད	-11359
ོད།པ	-11360
ོད།ཚ	-11361
ོད།ཞ	-11362
ོད།ལ	-11363
ོད།ཧ	-11364
ོན།ཐ	-11365
ོན།ད	-11366
ོན།ཚ	-11367
ོན།ལ	-11368
ོན།ས	-11369
ོན།ཧ	-11370
ོམ།ཚ	-11371
ོར།ཀ	-11372
ོར།ཁ	-11373
ོར།ག	-11374
ོར།ཇ	-11375
ོར།ན	-11376
ོར།པ	-11377
ོར།ཕ	-11378
ོར།ཚ	-11379
ོར།ཞ	-11380
ོར།ཡ	-11381
ོར།ཤ	-11382
ོར།ས	-11383
ོས།༢	-11384
ོས།ཁ	-11385
ོས།ད	-11386
ོས།མ	-11387
ོས།ཙ	-11388
ོས།ལ	-11389
ྐངས་	-11390
ྐབས་	-11391
ྐམས་	-11392
ྐུང་	-11393
ྐུན་	-11394
ྐུབ་	-11395
ྐུལ་	-11396
ྐེད་	-11397
ྐོག་	-11398
ྐོང་	-11399
གླ་	-11400
ཇབ་	-11401
ཏབ་	-11402
ཐབ་	-11403
ད།ས	-11404
བབ་	-11405
བརྒ	-11406
ཞད།	-11407
ཟབ་	-11408
ས།ཤ	-11409
སབ་	-11410
ཨབ་	-11411
ི།ཁ	-11412
ྒྱ།	-11413
ྒྱག	-11414
ྒྱད	-11415
ྒྱན	-11416
ྒྱམ	-11417
ྒྱར	-11418
ྒྱས	-11419
ྒྱེ	-11420
ྒྱོ	-11421
ྡབ་	-11422
ྲིམ	-11423
▁ཕུ	-11424
▁ཚག	-11425
▁ཚམ	-11426
▁ཚར	-11427
▁ཚི	-11428
▁ཚེ	-11429
༢ཚེས	-11430
གོན་	-11431
གོར་	-11432
ངས།ལ	-11433
ཅིས་	-11434
ཆིན་	-11435
ཇིག་	-11436
ཏིག་	-11437
ཏེན།	-11438
ཏོག་	-11439
ཏོན་	-11440
ཐིན་	-11441
དཔའ་	-11442
པོན་	-11443
ཕིག་	-11444
ཙོར་	-11445
ཞོན་	-11446
ལིག་	-11447
ཤིག་	-11448
སིག་	-11449
ཱེན་	-11450
ི།མཁ	-11451
ིགཕྱ	-11452
ུས།ར	-11453
ེན།ང	-11454
ེར།མ	-11455
ྐོན་	-11456
ྐོམ་	-11457
ྐོར་	-11458
ྐོས་	-11459
ྐྱང་	-11460
ྐྱར་	-11461
ྐྱལ་	-11462
ྐྱི་	-11463
ྒུས་	-11464
ྒེད་	-11465
ྒེར་	-11466
ྒོད་	-11467
ྒོན་	-11468
ྒོར་	-11469
ྒྱག་	-11470
ྒྱང་	-11471
ྒྱད་	-11472
ྒྱན་	-11473
ྒྱབ་	-11474
ྒྱར་	-11475
ྒྱལ་	-11476
ྒྱས་	-11477
ྒྱེ་	-11478
ྔའི་	-11479
ྔུས་	-11480
ྕགས་	-11481
ྕུག་	-11482
ྕུམ་	-11483
ྕོག་	-11484
ྗགས་	-11485
ྗིན་	-11486
ྗེན་	-11487
ྗོད་	-11488
ྙུག་	-11489
ྙེས་	-11490
ྙོག་	-11491
ྙོབ་	-11492
ྟགས་	-11493
ྟབས་	-11494
ྟའི་	-11495
ྟིང་	-11496
ྟུད་	-11497
ྟུལ་	-11498
ྟེང་	-11499
གྲ་	-11500
འདྲ	-11501
ས།ཀ	-11502
ས།ཡ	-11503
ས།ས	-11504
སའ་	-11505
ི།ཨ	-11506
ིགར	-11507
ུ།ཚ	-11508
ེ།ཏ	-11509
ེདམ	-11510
ོ།ཡ	-11511
ོགཡ	-11512
▁ཐའ	-11513
▁ཐུ	-11514
▁ཐོ	-11515
▁ཞན	-11516
▁ཞབ	-11517
▁ཞའ	-11518
▁ཞཱ	-11519
▁ཞེ	-11520
▁ཞྭ	-11521
༠༨༩༡	-11522
ཀོང་	-11523
ཁུར་	-11524
གིས་	-11525
ཆིས་	-11526
ཆོང་	-11527
ཇིས་	-11528
ཇོན་	-11529
ཊོན་	-11530
ཏུང་	-11531
ཐུང་	-11532
དིས་	-11533
ན།གྲ	-11534
ནཚད་	-11535
ནོན་	-11536
པུང་	-11537
ཕུང་	-11538
ཕོང་	-11539
ཕོན་	-11540
ཙུང་	-11541
ཙོང་	-11542
ཚེར་	-11543
ཟོང་	-11544
ལུང་	-11545
ཤོར་	-11546
སོན་	-11547
ིན།ཁ	-11548
ིན།ཡ	-11549
ུང་།	-11550
ེ།བས	-11551
ེད།འ	-11552
ོགསྔ	-11553
ོང་།	-11554
ོད།ག	-11555
ོལ།བ	-11556
ོོན་	-11557
ྟོག་	-11558
ྟོང་	-11559
ྟོན་	-11560
ྡམས་	-11561
ྡའི་	-11562
ྡིག་	-11563
ྡུང་	-11564
ྡུད་	-11565
ྡུམ་	-11566
ྡུར་	-11567
ྡུལ་	-11568
ྡེར་	-11569
ྡེས་	-11570
ྡོག་	-11571
ྡོང་	-11572
ྡོད་	-11573
ྣའི་	-11574
ྣུར་	-11575
ྣོན་	-11576
ྤགས་	-11577
ྤུང་	-11578
ྤུས་	-11579
ྤེལ་	-11580
ྤོང་	-11581
ྤོས་	-11582
ྦགས་	-11583
ྦིན་	-11584
ྦེལ་	-11585
ྨའི་	-11586
ྨིག་	-11587
ྨིན་	-11588
ྨུར་	-11589
ྨེད་	-11590
ྨོན་	-11591
ྨོས་	-11592
ྩམས་	-11593
ྩའི་	-11594
ྩིག་	-11595
ྩིས་	-11596
ྩེན་	-11597
ྩེར་	-11598
ྩེས་	-11599
༡༩༨	-11600
གལྷ	-11601
ངཕྱ	-11602
ད།པ	-11603
ད།མ	-11604
ན།ཟ	-11605
ན།ཤ	-11606
ཕྲི	-11607
ལ།པ	-11608
ཤད།	-11609
ུགཨ	-11610
ེས༡	-11611
ྲས།	-11612
▁༥༦	-11613
▁༧ལ	-11614
▁ཏན	-11615
▁ཏར	-11616
▁ཐད	-11617
▁ཐི	-11618
▁ཤད	-11619
།།བཙ	-11620
༠ཙམ་	-11621
༡༩༩༢	-11622
གོས་	-11623
ངངས་	-11624
ངོས་	-11625
ཉུལ་	-11626
ཉོས་	-11627
ད།དཔ	-11628
དངས་	-11629
དེད་	-11630
བངས་	-11631
མངས་	-11632
ཚངས་	-11633
ཛངས་	-11634
ཛོད།	-11635
ཞེད་	-11636
ཟོས་	-11637
ཡོས་	-11638
ཤོས་	-11639
སེད་	-11640
ཧུར་	-11641
ིགཡ་	-11642
ུལ།ཨ	-11643
ྒོས་	-11644
ྗེད་	-11645
ྙེད་	-11646
ྟངས་	-11647
ྟོས་	-11648
ྡོས་	-11649
ྤངས་	-11650
ྦེད་	-11651
ྩེད་	-11652
ྩོད་	-11653
ྩོན་	-11654
ྩོམ་	-11655
ྫངས་	-11656
ྫའི་	-11657
ྫུས་	-11658
ྫོང་	-11659
ྫོབ་	-11660
ྭགས་	-11661
ྭངས་	-11662
ྭའི་	-11663
ྭའུ་	-11664
ྭརྒྱ	-11665
ྱགས་	-11666
ྱངས་	-11667
ྱའི་	-11668
ྱིང་	-11669
ྱིན་	-11670
ྱིས་	-11671
ྱུག་	-11672
ྱུང་	-11673
ྱུད་	-11674
ྱུར་	-11675
ྱེད་	-11676
ྱེན་	-11677
ྱེར་	-11678
ྱོག་	-11679
ྱོད་	-11680
ྱོལ་	-11681
ྱོས་	-11682
ྲགས་	-11683
ྲངས་	-11684
ྲབས་	-11685
ྲམས་	-11686
ྲའི་	-11687
ྲིག་	-11688
ྲིང་	-11689
ྲིད།	-11690
ྲིན་	-11691
ྲིམ་	-11692
ྲིས་	-11693
ྲུག་	-11694
ྲུང་	-11695
ྲུབ་	-11696
ྲུམ་	-11697
ྲེལ་	-11698
ྲོད་	-11699
༠༡༦	-11700
བའ་	-11701
ས།ན	-11702
སའཛ	-11703
སུ།	-11704
སྤ་	-11705
ི།ཞ	-11706
ྐྱི	-11707
▁ཏཔ	-11708
▁ཕཊ	-11709
▁ཕི	-11710
▁ཕོ	-11711
༡ལུ་	-11712
གོག་	-11713
ཅིང་	-11714
ཆོག་	-11715
ཇེན་	-11716
ཉིང་	-11717
ཐིང་	-11718
དེན་	-11719
དོར་	-11720
ཕེན་	-11721
བེན་	-11722
བོར་	-11723
མ།སྐ	-11724
མེས་	-11725
ཙོག་	-11726
ཚོག་	-11727
ཛིང་	-11728
ཛོག་	-11729
ཞུར་	-11730
ལ།དཔ	-11731
སེས་	-11732
སོག་	-11733
ཨེན་	-11734
ཱིང་	-11735
ིང་།	-11736
ོགདཔ	-11737
ོིང་	-11738
ྔོག་	-11739
ྙིང་	-11740
ྙེན་	-11741
ྟེན་	-11742
ྡིང་	-11743
ྡོར་	-11744
ྤེན་	-11745
ྤོག་	-11746
ྩིང་	-11747
ྫིང་	-11748
ྱེས་	-11749
ྲེན་	-11750
ྲོག་	-11751
ྲོན་	-11752
ྲོམ་	-11753
ྲོས་	-11754
ླགས་	-11755
ླངས་	-11756
ླའི་	-11757
ླིང་	-11758
ླུན་	-11759
ླུས་	-11760
ླེང་	-11761
ློག་	-11762
ློད་	-11763
ློན་	-11764
ློས་	-11765
ློས།	-11766
ྷགས་	-11767
ྷའི་	-11768
ྷིང་	-11769
ྷུང་	-11770
ྷེལ་	-11771
ྷོད་	-11772
▁།ཁྲ	-11773
▁།བཙ	-11774
▁།བཤ	-11775
▁།མཁ	-11776
▁།ཟླ	-11777
▁།རྒ	-11778
▁།སྟ	-11779
▁།སྡ	-11780
▁།སྣ	-11781
▁།སླ	-11782
▁༡༡ག	-11783
▁༡༢།	-11784
▁༡༢༡	-11785
▁༡གཟ	-11786
▁༢༠ཉ	-11787
▁༢༠ད	-11788
▁༢༠ན	-11789
▁༢གྲ	-11790
▁༥དབ	-11791
▁༧གད	-11792
▁༧དཔ	-11793
▁ཀི།	-11794
▁ཀྱཱ	-11795
▁ཀྲོ	-11796
▁ཁགག	-11797
▁ཁགཐ	-11798
▁ཁྱི	-11799
གགཙ	-11800
གདམ	-11801
གཕྱ	-11802
ལྷག	-11803
ུ།ཕ	-11804
ུགའ	-11805
ེས༢	-11806
ོགམ	-11807
ོནཞ	-11808
ྟན།	-11809
▁།ཐ	-11810
▁།པ	-11811
▁།འ	-11812
▁༠༢	-11813
▁ཇི	-11814
▁ཤང	-11815
▁ཤི	-11816
▁ཤུ	-11817
▁ཤྲ	-11818
ཀུག་	-11819
ངོར་	-11820
ཆུས་	-11821
ཏུས་	-11822
ད།ང་	-11823
དདེ་	-11824
དམས་	-11825
དུལ་	-11826
བ།བཅ	-11827
བ།སྦ	-11828
བསད་	-11829
བུས་	-11830
མ།གྲ	-11831
ཙུམ་	-11832
ཙེར་	-11833
ཚབས་	-11834
ཡོར་	-11835
ཤམས་	-11836
ཤུལ་	-11837
ས།ད་	-11838
ུ།ས་	-11839
ེན།ས	-11840
ོ།བྱ	-11841
ོན།ཏ	-11842
ོས།ཚ	-11843
ོས།ཡ	-11844
ྔུལ་	-11845
ྗོད།	-11846
ྙམས་	-11847
ྡབས་	-11848
ྡུག་	-11849
ྣམས་	-11850
ྤོར་	-11851
ྫུན་	-11852
ྱབས་	-11853
ྱམས་	-11854
ྱུས་	-11855
ྲུལ་	-11856
ྲུས་	-11857
ྲོར་	-11858
ླབས་	-11859
ློར་	-11860
ྷུལ་	-11861
▁ཁྱུ	-11862
▁ཁྲའ	-11863
▁གཉེ	-11864
▁གཏོ	-11865
▁གནད	-11866
▁གནན	-11867
▁གནའ	-11868
▁གནོ	-11869
▁གཞན	-11870
▁གཞུ	-11871
▁གསན	-11872
▁གསལ	-11873
▁གསེ	-11874
▁གསོ	-11875
▁གྱ།	-11876
▁གྱལ	-11877
▁གྱུ	-11878
▁གྱོ	-11879
▁གྲག	-11880
▁གྲང	-11881
▁གླང	-11882
▁གླི	-11883
▁གླེ	-11884
▁ཅེས	-11885
▁ཇན།	-11886
▁ཏྲི	-11887
▁དཀར	-11888
▁དགའ	-11889
▁དགུ	-11890
▁དགྲ	-11891
▁དངའ	-11892
▁དབུ	-11893
▁དབྲ	-11894
▁དམི	-11895
▁དམྱ	-11896
▁དུང	-11897
▁དེས	-11898
▁དྲུ	-11899
༨དབ	-11900
ད།།	-11901
ད།༡	-11902
ད།༢	-11903
ད།༽	-11904
ད།ག	-11905
ད།ང	-11906
ད།ཅ	-11907
ད།ཆ	-11908
ད།ཐ	-11909
ད།ད	-11910
ད།ཕ	-11911
ད།ཞ	-11912
ད།ཟ	-11913
ད།ར	-11914
ན།མ	-11915
ན།ཝ	-11916
བསཔ	-11917
ཛད།	-11918
ཟད།	-11919
ར།ས	-11920
ལ།ཚ	-11921
ས།༡	-11922
ས།༸	-11923
ས།ཁ	-11924
ས།ག	-11925
ས།ང	-11926
ས།ཆ	-11927
ས།ཉ	-11928
ས།ད	-11929
ས།པ	-11930
ས།བ	-11931
ས།མ	-11932
ས།ཙ	-11933
ས།ཞ	-11934
ས།འ	-11935
ས།ར	-11936
ཧྲི	-11937
ེསཉ	-11938
ྡད།	-11939
ྲད།	-11940
▁།༽	-11941
▁།ཚ	-11942
▁ངྷ	-11943
▁ཏོ	-11944
།ཉི་	-11945
༥པར་	-11946
ད།ད་	-11947
ད།མ་	-11948
ད།ས་	-11949
དུན་	-11950
ན།དག	-11951
ཙུན་	-11952
ས།ག་	-11953
ས།གྲ	-11954
ོ།འད	-11955
ྟུན་	-11956
ྣུན་	-11957
ྤུན་	-11958
ྷུན་	-11959
▁།ཕྱ	-11960
▁ཁྱོ	-11961
▁གྲུ	-11962
▁ན།ག	-11963
▁ན།ཆ	-11964
▁ན།ཉ	-11965
▁ན།ཐ	-11966
▁ན།ན	-11967
▁ན།བ	-11968
▁ན།མ	-11969
▁ན།ར	-11970
▁ན།ལ	-11971
▁ནགམ	-11972
▁ནསའ	-11973
▁པ།།	-11974
▁པ།ག	-11975
▁པ།ཐ	-11976
▁པ།ཚ	-11977
▁པ།ཞ	-11978
▁པ།ཟ	-11979
▁པ།འ	-11980
▁པ།ར	-11981
▁པན།	-11982
▁པརྩ	-11983
▁པསྐ	-11984
▁པསྤ	-11985
▁ཕྱི	-11986
▁ཕྱུ	-11987
▁བ།ཅ	-11988
▁བ།ཆ	-11989
▁བ།ཏ	-11990
▁བ།ད	-11991
▁བ།ཕ	-11992
▁བ།མ	-11993
▁བ།ཚ	-11994
▁བ།ཞ	-11995
▁བ།ར	-11996
▁བ།ས	-11997
▁བ།ཧ	-11998
▁བཏབ	-11999
༥སྟ	-12000
ཁའ་	-12001
ཁྲི	-12002
གའ་	-12003
གྲི	-12004
ངའ་	-12005
ཅའ་	-12006
ཇའ་	-12007
ཏའ་	-12008
དའ་	-12009
བ།༡	-12010
བསན	-12011
མའ་	-12012
ཛའ་	-12013
ར།ཚ	-12014
རཔ་	-12015
ལ།༽	-12016
ལ།ག	-12017
ཤའ་	-12018
ཤྲི	-12019
ོགཀ	-12020
ྒྲི	-12021
ྲི༡	-12022
ྲི༢	-12023
ྲི༣	-12024
ྲིལ	-12025
▁ཅི	-12026
▁ཅེ	-12027
▁ཉ།	-12028
▁ཉེ	-12029
▁ཏཱ	-12030
▁ཏི	-12031
།འབྲ	-12032
༠༠༠༠	-12033
༦ནང་	-12034
ཀུར་	-12035
གལམ་	-12036
ངུར་	-12037
ཏུབ་	-12038
མས།ན	-12039
ཙེམ་	-12040
ཛེར་	-12041
འུར་	-12042
ཡེར་	-12043
ཤེར་	-12044
སྐྲ་	-12045
ཨེར་	-12046
ིགགས	-12047
ིནམ་	-12048
ུས།ཨ	-12049
ེད།ག	-12050
ེན།ག	-12051
ེས།ཐ	-12052
ོ།ཕྱ	-12053
ོས།ག	-12054
ྐུར་	-12055
ྕེར་	-12056
ྟེར་	-12057
ྡོམ་	-12058
ྱིལ་	-12059
ྷོལ་	-12060
▁༤བཅ	-12061
▁ཀྲི	-12062
▁གཞོ	-12063
▁གྲྲ	-12064
▁དྲི	-12065
▁བཏུ	-12066
▁བཏོ	-12067
▁བཙག	-12068
▁བཙལ	-12069
▁བཞུ	-12070
▁བརྒ	-12071
▁བརྔ	-12072
▁བརྕ	-12073
▁བལྡ	-12074
▁བསཕ	-12075
▁བསམ	-12076
▁བསི	-12077
▁བསུ	-12078
▁བསེ	-12079
▁བསྩ	-12080
▁བསྭ	-12081
▁བྱམ	-12082
▁བྱའ	-12083
▁བྱས	-12084
▁བྱི	-12085
▁བྱུ	-12086
▁བྱེ	-12087
▁བྱོ	-12088
▁བྲལ	-12089
▁བྲི	-12090
▁བྷད	-12091
▁མ།ཀ	-12092
▁མ།ཁ	-12093
▁མ༩༥	-12094
▁མགཞ	-12095
▁མངོ	-12096
▁མཐི	-12097
▁མཐེ	-12098
▁མཚུ	-12099
༠༠ལ	-12100
༣གྲ	-12101
༥གཞ	-12102
༨སྤ	-12103
ཇན།	-12104
ཉན།	-12105
ན།༧	-12106
ན།༸	-12107
ན།ཁ	-12108
ན།ག	-12109
ན།ང	-12110
ན།ཆ	-12111
ན།ཉ	-12112
ན།ཏ	-12113
ན།ཐ	-12114
ན།ད	-12115
ན།པ	-12116
ན།ཙ	-12117
ན།ཚ	-12118
ན།འ	-12119
ན།ཡ	-12120
ན།ཨ	-12121
འཁྱ	-12122
རཁ་	-12123
རརྟ	-12124
རོ།	-12125
ུགྲ	-12126
ྙན།	-12127
ྡན།	-12128
▁ངམ	-12129
▁ངེ	-12130
▁ཟམ	-12131
▁ཟུ	-12132
▁ཟེ	-12133
▁ཟོ	-12134
ཁེལ་	-12135
ཅུག་	-12136
ཉུག་	-12137
ཏུག་	-12138
ཐུག་	-12139
ན།ང་	-12140
ན།ད་	-12141
ན།ས་	-12142
ཙུག་	-12143
ཡུག་	-12144
ལ།སྤ	-12145
ི།གས	-12146
ིས།ག	-12147
ུབ།མ	-12148
ོད།ཀ	-12149
ྟུག་	-12150
ྦུག་	-12151
ྨུག་	-12152
ྱེལ་	-12153
ྷུག་	-12154
▁༡ལ།	-12155
▁ཀྱོ	-12156
▁གཏུ	-12157
▁མན།	-12158
▁མྱུ	-12159
▁ཚུག	-12160
▁ཝན།	-12161
▁ཞིན	-12162
▁ཟླ༡	-12163
▁ཟླཔ	-12164
▁ཟླཝ	-12165
▁འཁོ	-12166
▁འགག	-12167
▁འགན	-12168
▁འགའ	-12169
▁འགུ	-12170
▁འགེ	-12171
▁འཇུ	-12172
▁འཇེ	-12173
▁འཐམ	-12174
▁འཐུ	-12175
▁འདབ	-12176
▁འདས	-12177
▁འདུ	-12178
▁འདོ	-12179
▁འཕེ	-12180
▁འབད	-12181
▁འབའ	-12182
▁འབུ	-12183
▁འབེ	-12184
▁འབོ	-12185
▁འཚལ	-12186
▁རས།	-12187
▁རིས	-12188
▁རེ།	-12189
▁རོག	-12190
▁རྗེ	-12191
▁རྡེ	-12192
▁རྨག	-12193
▁རྫོ	-12194
▁ལ།༢	-12195
▁ལ།ཁ	-12196
▁ལ།ཐ	-12197
▁ལ།ད	-12198
▁ལ།བ	-12199
།ཀྲ	-12200
༡༡ར	-12201
༣༧༣	-12202
ན།༽	-12203
ཝན།	-12204
ལ།ས	-12205
ི།ཉ	-12206
ེ།ཀ	-12207
ོ།ཀ	-12208
ོ།པ	-12209
ོ།འ	-12210
▁༣ད	-12211
▁༸ཞ	-12212
▁ཙོ	-12213
༽རྒྱ	-12214
ཀོལ་	-12215
ངས།ཤ	-12216
ཅོལ་	-12217
ཆོལ་	-12218
ད།ཁྱ	-12219
ད།དག	-12220
དོལ་	-12221
བས།ག	-12222
བོལ་	-12223
ཚུབ་	-12224
ར།གྲ	-12225
ར།བཙ	-12226
ས།རྩ	-12227
སོལ་	-12228
ུགད་	-12229
ེ།གས	-12230
ེ༢༠༡	-12231
ེལོ་	-12232
ེས།ཨ	-12233
ྒོལ་	-12234
ྔུབ་	-12235
ྡུབ་	-12236
ྡོལ་	-12237
ྩོལ་	-12238
▁༡༩༡	-12239
▁༡གཤ	-12240
▁གཏམ	-12241
▁དུཞ	-12242
▁དྲང	-12243
▁དྲེ	-12244
▁དྲོ	-12245
▁དྲྭ	-12246
▁བ།བ	-12247
▁བཅི	-12248
▁བཅུ	-12249
▁བཅོ	-12250
▁བཟའ	-12251
▁མཐར	-12252
▁མཐུ	-12253
▁འཁུ	-12254
▁འཛི	-12255
▁འཛུ	-12256
▁འཛེ	-12257
▁འཛོ	-12258
▁རི།	-12259
▁རིའ	-12260
▁རྩི	-12261
▁རྩུ	-12262
▁རྩོ	-12263
▁ལ།ཆ	-12264
▁ལ།མ	-12265
▁ལ།འ	-12266
▁ལ།ཡ	-12267
▁ལ།ལ	-12268
▁ལའཇ	-12269
▁ལསལ	-12270
▁ལོ༢	-12271
▁ལོ༩	-12272
▁ལྗོ	-12273
▁ལྟད	-12274
▁ལྟཝ	-12275
▁ལྟར	-12276
▁སུཝ	-12277
▁སྐད	-12278
▁སྐབ	-12279
▁སྐལ	-12280
▁སྐུ	-12281
▁སྐོ	-12282
▁སྒམ	-12283
▁སྒུ	-12284
▁སྒེ	-12285
▁སྒོ	-12286
▁སྟང	-12287
▁སྟན	-12288
▁སྟབ	-12289
▁སྟོ	-12290
▁སྤུ	-12291
▁སྤེ	-12292
▁སྤོ	-12293
▁སྨྲ	-12294
▁སླེ	-12295
▁སློ	-12296
▁ཧྲཱ	-12297
▁ཧྲུ	-12298
▁ཧྲོ	-12299
༠༠༤	-12300
གསྒ	-12301
ཆམ།	-12302
མ།ང	-12303
འུ།	-12304
ལ།༠	-12305
ཱཀྱ	-12306
ི།ཡ	-12307
▁ཨམ	-12308
▁ཨི	-12309
▁ཨེ	-12310
▁ཨྱ	-12311
༢༣༤༧	-12312
ཕུད་	-12313
མ།དག	-12314
ཨུད་	-12315
ུའམ་	-12316
ུར།བ	-12317
ུལ།ཞ	-12318
ེད།་	-12319
ེད།།	-12320
ེད།ཀ	-12321
ེད།ཁ	-12322
ེད།ཅ	-12323
ེད།ཆ	-12324
ེད།ཉ	-12325
ེད།ཐ	-12326
ེད།པ	-12327
ེད།ཚ	-12328
ེད།ཞ	-12329
ེད།ཟ	-12330
ེད།ཡ	-12331
ེད།ར	-12332
ེད།ལ	-12333
ེད།ཧ	-12334
ེད།ཨ	-12335
ེན།།	-12336
ོད།།	-12337
ོནང་	-12338
ྐོལ་	-12339
ྒུད་	-12340
ྙེད།	-12341
ྱེད།	-12342
ྲུད་	-12343
▁།མད	-12344
▁དཔལ	-12345
▁དཔེ	-12346
▁དཔོ	-12347
▁དཔྲ	-12348
▁ཕྱེ	-12349
▁བ།འ	-12350
▁མཚམ	-12351
▁མཚེ	-12352
▁ཨང།	-12353
།གོང་	-12354
།དུས་	-12355
།བློ་	-12356
།འདི་	-12357
།ཡིད་	-12358
༠༢༦༡༩	-12359
༠༤༡།༧	-12360
༠ཉིན།	-12361
༠ཚེས་	-12362
༠འདི་	-12363
༡༠ཕབ་	-12364
༡ལོར་	-12365
༣༨༠༤༡	-12366
༣བཅས་	-12367
༥༠༠༠༠	-12368
༦ལྷག་	-12369
༧དཔལ་	-12370
༨ཉིན་	-12371
༨ཕྱི་	-12372
༨བོད་	-12373
༩༢༠༡༦	-12374
༽ཤེས་	-12375
ཁུངས་	-12376
ཁྱོན་	-12377
ཁྲིས་	-12378
གཆོས་	-12379
གབོད་	-12380
གཟེར་	-12381
གས།གས	-12382
གས།བས	-12383
གས།སྐ	-12384
གེགས་	-12385
གོངས་	-12386
གོའི་	-12387
གྱངས་	-12388
གྲུལ་	-12389
གྲོན་	-12390
ང།འབྲ	-12391
ངལོར་	-12392
ངས།གཏ	-12393
ངས།དམ	-12394
ངས།འད	-12395
ངོགས་	-12396
ངོའི་	-12397
ཅིའི་	-12398
ཆོངས་	-12399
༠འད	-12400
༢༣༢	-12401
གརྩ	-12402
ས༣༣	-12403
ི།ཇ	-12404
ི།ཟ	-12405
ུ།ག	-12406
ེཀ་	-12407
ོང།	-12408
ྷམ།	-12409
།༣༠ཡ	-12410
།ཡར་	-12411
༡༩༦༦	-12412
༧༤མན	-12413
གདེ་	-12414
དེབ་	-12415
ན།ལྷ	-12416
ཛིལ་	-12417
ལ།བས	-12418
སདེ་	-12419
ུ།རྟ	-12420
ུརྒྱ	-12421
ེར།བ	-12422
ེལ།ད	-12423
ོ།ལྷ	-12424
ོད།ཁ	-12425
ོད།ང	-12426
ོད།ཅ	-12427
ོད།ཉ	-12428
ོད།ཐ	-12429
ོད།ན	-12430
ོད།ཕ	-12431
ོད།བ	-12432
ོད།མ	-12433
ོད།འ	-12434
ོད།ཡ	-12435
ོད།ར	-12436
ོད།ས	-12437
ོད།ཨ	-12438
ོས།ཝ	-12439
ྡོད།	-12440
ྱིམ་	-12441
ྱོད།	-12442
ྲོད།	-12443
ྷེང་	-12444
▁༥༠༠	-12445
▁ཁྱབ	-12446
▁ཁྱེ	-12447
▁གཅི	-12448
▁གཅེ	-12449
▁གཅོ	-12450
▁གཉི	-12451
▁གཉོ	-12452
▁གེག	-12453
▁བཀའ	-12454
▁བཏག	-12455
▁མཁན	-12456
▁རྣམ	-12457
▁ལ།ས	-12458
▁ལྷུ	-12459
▁ལྷོ	-12460
།འོན་	-12461
༣པའི་	-12462
ཇིའི་	-12463
ཇུའི་	-12464
ཏུགས་	-12465
ཏོགས་	-12466
ཐུའི་	-12467
ཐོའི་	-12468
ད།ངས་	-12469
ད།མི་	-12470
ད།ཟླ་	-12471
ད།རང་	-12472
ད།རྒྱ	-12473
དཅེས་	-12474
དཔུང་	-12475
དཞིབ་	-12476
དིའི་	-12477
དུགས་	-12478
དོའི་	-12479
ན།ངས་	-12480
ན།དབྱ	-12481
ན།དེ་	-12482
ན།ནང་	-12483
ན།མང་	-12484
ན།ཟླ་	-12485
ན།རྒྱ	-12486
ཕུགས་	-12487
ཕོགས་	-12488
བ།དེ་	-12489
བསནང་	-12490
བུགས་	-12491
མ།ཆུ་	-12492
མ།དཀྱ	-12493
མ།དེ་	-12494
མ།རྒྱ	-12495
མམགོ་	-12496
མས།དང	-12497
མསདང་	-12498
མིགས་	-12499
༡༡པ	-12500
ནགཙ	-12501
བ།བ	-12502
རཟླ	-12503
རྐྱ	-12504
ལ།ཤ	-12505
ི།ས	-12506
ེདན	-12507
ེསྐ	-12508
ོ།ཁ	-12509
ོ།ཅ	-12510
ོ།ས	-12511
ོགལ	-12512
ྐྱ།	-12513
ྐྱེ	-12514
ྐྱོ	-12515
▁ཙྭ	-12516
གས།ལ	-12517
ངས།༡	-12518
ཐུམ་	-12519
མ།།ས	-12520
ཛུམ་	-12521
ཟུམ་	-12522
ཡེང་	-12523
སིལ་	-12524
སེང་	-12525
ིན།།	-12526
ིན།༢	-12527
ིན།༧	-12528
ིན།༸	-12529
ིན།ག	-12530
ིན།ཆ	-12531
ིན།ཉ	-12532
ིན།ཐ	-12533
ིན།ད	-12534
ིན།ན	-12535
ིན།མ	-12536
ིན།ཚ	-12537
ིན།ཞ	-12538
ིན།འ	-12539
ིན།ར	-12540
ིན།ལ	-12541
ིན།ས	-12542
ིན།ཨ	-12543
ེང་ཞ	-12544
ོགབས	-12545
ོར།ཏ	-12546
ྐྱབ་	-12547
ྐྱེ་	-12548
ྐྱོ་	-12549
ྡེང་	-12550
ྣུམ་	-12551
ྦུམ་	-12552
ྦོམ་	-12553
ྨེང་	-12554
ྱིན།	-12555
ྱེང་	-12556
ྲེང་	-12557
▁བ།ལ	-12558
▁བཟོ	-12559
▁བླང	-12560
▁བླུ	-12561
▁མཆི	-12562
▁མཆོ	-12563
▁སྲོ	-12564
གྲེལ་	-12565
བས།དག	-12566
བས།སྐ	-12567
ཙིགས་	-12568
ཙུགས་	-12569
ཙོའི་	-12570
ཚོའི་	-12571
ཛུགས་	-12572
ཝུའུ་	-12573
ཞུགས་	-12574
ཞོགས་	-12575
ཟུགས་	-12576
ཟོའི་	-12577
འོ།།ད	-12578
ཡོགས་	-12579
ར།ངས་	-12580
ར།དེ་	-12581
ར།མི་	-12582
ར།རྒྱ	-12583
རགནམ་	-12584
ལ།༢༠༠	-12585
ལ།བསྟ	-12586
ལ།མི་	-12587
ལས།མཐ	-12588
ལོར།ཇ	-12589
ལོར།ས	-12590
ས།ངས་	-12591
ས།དེ་	-12592
ས།མི་	-12593
ས།རང་	-12594
ས།རྒྱ	-12595
ས།ལོ་	-12596
སདུས་	-12597
སའཛམ་	-12598
སྤེལ་	-12599
།ཨོ	-12600
༠༨ཅ	-12601
བ།ར	-12602
ར།།	-12603
ར།༩	-12604
ར།ཁ	-12605
ར།ག	-12606
ར།པ	-12607
ར།བ	-12608
ར།མ	-12609
ར།ཡ	-12610
ར།ར	-12611
ར།ཨ	-12612
ིཀ་	-12613
ོ།ཚ	-12614
ྩྭ་	-12615
ྲལ།	-12616
▁ཧའ	-12617
▁ཧཡ	-12618
▁ཧུ	-12619
▁ཧོ	-12620
▁ཧྭ	-12621
༽དང་	-12622
ན།བར	-12623
པའི༡	-12624
ར།ད་	-12625
ས།གཞ	-12626
ེ།འད	-12627
ྒོམ་	-12628
ྲའང་	-12629
ློམ་	-12630
▁༡༠ཙ	-12631
▁ཁྲུ	-12632
▁དང༧	-12633
▁པ།༢	-12634
▁པ།ཁ	-12635
▁པ།ཆ	-12636
▁པ།ད	-12637
▁པ།ན	-12638
▁པ།པ	-12639
▁པ།ཕ	-12640
▁པ།བ	-12641
▁པ།ཡ	-12642
▁པ།ལ	-12643
▁པ།ཤ	-12644
▁པ།ས	-12645
▁པ།ཨ	-12646
▁བལྷ	-12647
▁བཤི	-12648
▁བཤུ	-12649
▁བཤེ	-12650
▁རྫབ	-12651
▁ཤམྦ	-12652
▁སྔར	-12653
▁སྔས	-12654
▁སྔོ	-12655
▁སྡི	-12656
▁སྡེ	-12657
▁སྦཱ	-12658
▁སྦི	-12659
▁སྲེ	-12660
▁ཧྲི	-12661
།ངའི་	-12662
གཡུལ་	-12663
ངས།དག	-12664
ཙེའི་	-12665
ཚེའི་	-12666
འུའི་	-12667
སྦྲག་	-12668
ཨོའི་	-12669
ི།གལ་	-12670
ི།དེ་	-12671
ི།ཡང་	-12672
ི།རང་	-12673
ིགདང་	-12674
ིགལས་	-12675
ིཆོས་	-12676
ིདབུ་	-12677
ིན།གཞ	-12678
ིན།ང་	-12679
ིན།ད་	-12680
ིན།དང	-12681
ིན།མ་	-12682
ིན།ས་	-12683
ིན།ཨ་	-12684
ིཞེས་	-12685
ིས།ཁྱ	-12686
ིས།ཁྲ	-12687
ིས།ད་	-12688
ིས།དང	-12689
ིས།མ་	-12690
ིིའི་	-12691
ུ།རྒྱ	-12692
ུ།ལོ་	-12693
ུགདབྱ	-12694
ུགརྒྱ	-12695
ུནནི་	-12696
ུར།ཀྲ	-12697
ུར།གྲ	-12698
ུར།དང	-12699
༨༨༢	-12700
ཏེ།	-12701
ར།ཅ	-12702
ར།ཐ	-12703
ར།ན	-12704
ར།ཕ	-12705
ིགག	-12706
ིངྒ	-12707
ུ།པ	-12708
ུ།མ	-12709
ེ།།	-12710
ེ།༢	-12711
ེ།ཁ	-12712
ེ།ག	-12713
ེ།ང	-12714
ེ།ཐ	-12715
ེ།ད	-12716
ེ།ཕ	-12717
ེ།མ	-12718
ེ།ཝ	-12719
ེ།ཞ	-12720
ེ།ཟ	-12721
ེ།འ	-12722
ེ།ཡ	-12723
ེ།ཧ	-12724
ེ།ཨ	-12725
ེས༦	-12726
ོཕ་	-12727
ོོ།	-12728
ྐྲ་	-12729
ྒྲ་	-12730
ྟེ།	-12731
ྣེ།	-12732
ྩེ།	-12733
གྲང་	-12734
ངས།ང	-12735
ར།གས	-12736
ར།མ་	-12737
ིགདཔ	-12738
ུགམ་	-12739
ུགསྐ	-12740
ེ།ང་	-12741
ེ།ལ་	-12742
ེ།ས་	-12743
ེན།ཕ	-12744
ེར།ཨ	-12745
ོ།།བ	-12746
ོས།ས	-12747
ྗིད་	-12748
▁།སྔ	-12749
▁གཟེ	-12750
▁བདྨ	-12751
▁མ།མ	-12752
▁མར།	-12753
▁ཚབ།	-12754
▁འཇི	-12755
▁འཇོ	-12756
▁ཡེ།	-12757
▁རྟག	-12758
▁རྟོ	-12759
▁ལྡན	-12760
▁ལྡེ	-12761
▁སྣོ	-12762
གཞེས་	-12763
གས།ཁྱ	-12764
ིས།གཞ	-12765
ུར།བས	-12766
ུར།རྩ	-12767
ུས།གས	-12768
ུས།ད་	-12769
ུས།རྩ	-12770
ེ།ངས་	-12771
ེ།དེ་	-12772
ེ།མི་	-12773
ེ།སྐྱ	-12774
ེད།ང་	-12775
ེད།ད་	-12776
ེད།དཔ	-12777
ེད།དམ	-12778
ེད།མ་	-12779
ེད།འད	-12780
ེདནང་	-12781
ེན།དཔ	-12782
ེན།རྩ	-12783
ེནཉེ་	-12784
ེབས།ཞ	-12785
ེཞེས་	-12786
ེར།གན	-12787
ེལ།སྨ	-12788
ེས།༡༩	-12789
ེས།ཁྱ	-12790
ེས།གས	-12791
ེས།གྲ	-12792
ེས།ད་	-12793
ེས།ཕྱ	-12794
ེས།བས	-12795
ེས།ཨ་	-12796
ེསནས་	-12797
ོ།།།།	-12798
ོ།།ཁ་	-12799
།དབ	-12800
།རྩ	-12801
ཇིཨ	-12802
ནཔ་	-12803
ཙུག	-12804
ཟུག	-12805
ུག།	-12806
ུག༡	-12807
ུག༣	-12808
ུག༽	-12809
ུགཅ	-12810
ུགད	-12811
ུགཔ	-12812
ུགཕ	-12813
ུགར	-12814
ུགལ	-12815
ྡུག	-12816
ྲུག	-12817
▁༤བ	-12818
▁ཙམ	-12819
▁ཙའ	-12820
▁ཙཱ	-12821
▁ཙུ	-12822
།བསྲ	-12823
༣རྒྱ	-12824
ིཝེས	-12825
ུགང་	-12826
ུགྲི	-12827
ེས།༡	-12828
ོན།ཙ	-12829
ོན།ཟ	-12830
ྲའུ་	-12831
▁།སྲ	-12832
▁༡༩ད	-12833
▁གཙོ	-12834
▁གཟི	-12835
▁བཙན	-12836
▁མཛེ	-12837
▁མཛོ	-12838
▁ཞུག	-12839
▁ཟི།	-12840
▁འཐོ	-12841
▁རུག	-12842
▁ལུག	-12843
▁ལྕང	-12844
▁སྙམ	-12845
▁སྙེ	-12846
▁སྨོ	-12847
༦ཚེས་	-12848
ཆུའི་	-12849
ཇིགས་	-12850
དེངས་	-12851
བྱངས་	-12852
ཙུའི་	-12853
ཛུའི་	-12854
ཟིགས་	-12855
ས།ལྷ་	-12856
ུགདེ་	-12857
ོ།།མ་	-12858
ོ།།འད	-12859
ོ།།སྤ	-12860
ོ།ཅི་	-12861
ོ།ཆུ་	-12862
ོ།དེ་	-12863
ོ།ཡང་	-12864
ོག།ང་	-12865
ོགགི་	-12866
ོགཐད་	-12867
ོགནང་	-12868
ོགརང་	-12869
ོགས།ག	-12870
ོགས།ཉ	-12871
ོགས།ར	-12872
ོད།གཞ	-12873
ོད།ད་	-12874
ོད།དཀ	-12875
ོད།ཕྱ	-12876
ོད།མ་	-12877
ོད།ས་	-12878
ོད།སྤ	-12879
ོན།།ར	-12880
ོན།ཀྲ	-12881
ོན།ས་	-12882
ོན།སྐ	-12883
ོན།སྤ	-12884
ོབ།བཅ	-12885
ོཞེས་	-12886
ོར།གཞ	-12887
ོར།དཔ	-12888
ོར།བས	-12889
ོར།འད	-12890
ོས།གྲ	-12891
ོས།ད་	-12892
ོས།ཕ་	-12893
ོས།ཕྱ	-12894
ོས།ཙ་	-12895
ོས།འད	-12896
ོས།ས་	-12897
ྐུའི་	-12898
ྐོངས་	-12899
༠༠༨	-12900
༨ཕྱ	-12901
གསག	-12902
བསྒ	-12903
མོ།	-12904
ཨོ།	-12905
ེདཔ	-12906
ོ།ག	-12907
ོ།ང	-12908
ོ།ཆ	-12909
ོ།ཐ	-12910
ོ།ད	-12911
ོ།ཕ	-12912
ོ།བ	-12913
ོ།ཞ	-12914
ོ།ཟ	-12915
ོ།ར	-12916
ོ།ཨ	-12917
ོགཔ	-12918
ོདཞ	-12919
ྲོ།	-12920
▁༡ས	-12921
▁༨༨	-12922
།རྒྱ	-12923
༢རྒྱ	-12924
༧རྒྱ	-12925
༸རྒྱ	-12926
དིར་	-12927
བརྒྱ	-12928
ཝིར་	-12929
འང་།	-12930
རརྒྱ	-12931
རྒྱ།	-12932
ལ།ཀྲ	-12933
ིནལྷ	-12934
ིརྒྱ	-12935
ུས།༡	-12936
ེ།སྔ	-12937
ོ།ལྟ	-12938
ོ།སྐ	-12939
ོ།སྟ	-12940
ོརྒྱ	-12941
ོས།ན	-12942
ྟེབ་	-12943
ྱིར་	-12944
ྷིར་	-12945
▁ཀྲུ	-12946
▁ཁོ།	-12947
▁ཏོ།	-12948
▁དངཕ	-12949
▁བཏི	-12950
▁ཟླཚ	-12951
▁རོ།	-12952
▁ལ།ག	-12953
▁ལ།ཟ	-12954
།ཉིན་	-12955
གྲིབ་	-12956
ངས།ཀྲ	-12957
ཏུངས་	-12958
ཤེགས་	-12959
སབོད་	-12960
སུངས་	-12961
ིན།དཔ	-12962
ེ།རྒྱ	-12963
ོགགལ་	-12964
ྐྱངས་	-12965
ྐྱབས་	-12966
ྐྱིད་	-12967
ྐྱུར་	-12968
ྐྱེད་	-12969
ྐྱེད།	-12970
ྐྱེས་	-12971
ྐྱོད་	-12972
ྐྱོད།	-12973
ྐྱོན་	-12974
ྐྱོར་	-12975
ྒྱགས་	-12976
ྒྱབས་	-12977
ྒྱའི་	-12978
ྒྱུད་	-12979
ྒྱུན་	-12980
ྒྱུས་	-12981
ྒྱེད་	-12982
ྒྱོག་	-12983
ྕོགས་	-12984
ྗེའི་	-12985
ྗོངས་	-12986
ྙིགས་	-12987
ྙོགས་	-12988
ྟིའི་	-12989
ྟོགས་	-12990
ྡུངས་	-12991
ྡུའི་	-12992
ྡེབས་	-12993
ྡོའི་	-12994
ྦིའི་	-12995
ྨོངས་	-12996
ྩིགས་	-12997
ྩེགས་	-12998
ྩེའི་	-12999
༧དཔ	-13000
༨སྟ	-13001
བསད	-13002
འདི	-13003
རྩལ	-13004
ལ།བ	-13005
སྭ་	-13006
ིདབ	-13007
ོགད	-13008
ོགན	-13009
ོགཟ	-13010
ྒོག	-13011
ྲྭ་	-13012
ློག	-13013
▁༡ད	-13014
▁ཇའ	-13015
▁ཇེ	-13016
༢༠༡༢	-13017
༤ནས་	-13018
༨༣༧༥	-13019
ངས།ད	-13020
ཐིལ་	-13021
ར།དཔ	-13022
ས།ཁྱ	-13023
ས།འབ	-13024
ུར།འ	-13025
ེ།སྟ	-13026
ྲེག་	-13027
▁།རྡ	-13028
▁༣གྲ	-13029
▁བྲོ	-13030
▁མགཉ	-13031
▁ཚོག	-13032
▁འཚོ	-13033
▁རྡོ	-13034
▁ལ།ཀ	-13035
▁ལ།ཉ	-13036
▁ལ།པ	-13037
▁ལ།ཕ	-13038
▁ལ།ར	-13039
▁ལ།ཨ	-13040
༠བོད་	-13041
༡བོད་	-13042
༩བོད་	-13043
ངབོད་	-13044
ཉིན།ར	-13045
ཉིན།ཨ	-13046
དེམས་	-13047
ཟེངས་	-13048
ཧུའུ་	-13049
ྫོགས་	-13050
ྭོགས་	-13051
ྱིའི་	-13052
ྱུགས་	-13053
ྱེའི་	-13054
ྱོགས་	-13055
ྱོངས་	-13056
ྱོའི་	-13057
ྲུགས་	-13058
ྲུངས་	-13059
ྲུའི་	-13060
ྲུའུ་	-13061
ྲེགས་	-13062
ྲེའི་	-13063
ྲོགས་	-13064
ྲོངས་	-13065
ྲོའི་	-13066
ླུགས་	-13067
ླུའི་	-13068
ླེགས་	-13069
ླེབས་	-13070
ློགས་	-13071
ློའི་	-13072
ྷེའི་	-13073
ྷོའི་	-13074
▁།༡༩༨	-13075
▁།ཁྲི	-13076
▁།བརྗ	-13077
▁།བརྟ	-13078
▁།བསྟ	-13079
▁།འགྲ	-13080
▁།རྒྱ	-13081
▁།སྤྱ	-13082
▁༡༢༤༣	-13083
▁༡༩༩༥	-13084
▁༡༩༩༦	-13085
▁༡༩༩༨	-13086
▁༢༠བཅ	-13087
▁༧རྒྱ	-13088
▁༧སྐྱ	-13089
▁ཀྱང༢	-13090
▁ཀླད།	-13091
▁ཁགགཞ	-13092
▁ཁོགས	-13093
▁ཁྲི༢	-13094
▁ཁྲི༣	-13095
▁ཁྲི༥	-13096
▁ཁྲིད	-13097
▁ཁྲིམ	-13098
▁གཉན།	-13099
༠བར	-13100
༢ལ།	-13101
༽སྟ	-13102
གལ།	-13103
བ།ཧ	-13104
ལ།༡	-13105
ལ།༢	-13106
ལ།ཀ	-13107
ལ།ཁ	-13108
ལ།ཉ	-13109
ལ།ན	-13110
ལ།མ	-13111
ལ།ཞ	-13112
ལ།ཟ	-13113
ལ།འ	-13114
ལ།ར	-13115
ལ།ལ	-13116
ུ།ཞ	-13117
ེསྦ	-13118
ོག༢	-13119
ོག༸	-13120
ོགཁ	-13121
ོགཅ	-13122
ོགཐ	-13123
ོགཞ	-13124
ྩལ།	-13125
▁༡།	-13126
▁༡ག	-13127
▁༡ཆ	-13128
▁༡ཉ	-13129
▁༡ན	-13130
▁༡ཕ	-13131
▁༡ཚ	-13132
གས།ས	-13133
གོས།	-13134
བ།ལྷ	-13135
ར།བས	-13136
ུ།དག	-13137
ུར།ཨ	-13138
ུས།ཡ	-13139
ོ།དབ	-13140
ོགད་	-13141
ོགམད	-13142
ོགལ་	-13143
ོས།།	-13144
ོས།༸	-13145
ོས།ཆ	-13146
ོས།ཕ	-13147
ོས།བ	-13148
ོས།འ	-13149
ོས།ར	-13150
ོས།ཤ	-13151
ླེབ་	-13152
▁གདའ	-13153
▁ཕོག	-13154
▁བ།༧	-13155
▁བ།ཀ	-13156
▁བ།ཁ	-13157
▁བ།ག	-13158
▁བ།ཐ	-13159
▁བ།ན	-13160
▁བ།ཟ	-13161
▁བ།ཤ	-13162
▁རྒུ	-13163
།ཕྱི་	-13164
༥ཉིད་	-13165
༦ཉིན་	-13166
ངཞེས་	-13167
ངས།རྩ	-13168
ནཞེས་	-13169
ལ།དེ་	-13170
ལ།རྒྱ	-13171
ོགརྒྱ	-13172
▁གཉིས	-13173
▁གཏུག	-13174
▁གཏོག	-13175
▁གཟུག	-13176
▁ཅི།ཇ	-13177
▁ཆེ།མ	-13178
▁ཆོགཔ	-13179
▁ཏེ།༢	-13180
▁ཏེ།ག	-13181
▁ཏེ།ཆ	-13182
▁ཏེ།ད	-13183
▁ཏེ།མ	-13184
▁ཏེ།ཝ	-13185
▁ཏེ།འ	-13186
▁ཏེ།ཨ	-13187
▁དང་ག	-13188
▁དངའཛ	-13189
▁དབྱང	-13190
▁དབྱི	-13191
▁དམ།༡	-13192
▁དུ།ཀ	-13193
▁དུ།བ	-13194
▁དུ།ཞ	-13195
▁དུ།ཟ	-13196
▁དུམད	-13197
▁དུརྫ	-13198
▁དེ།ཐ	-13199
།གྲ	-13200
།སྐ	-13201
༧༤མ	-13202
༧གྲ	-13203
གགྲ	-13204
མ།།	-13205
མ།ཆ	-13206
མ།ཐ	-13207
མ།ད	-13208
མ།ན	-13209
མ།པ	-13210
མ།མ	-13211
མ།ཟ	-13212
མ།ཡ	-13213
མ།ལ	-13214
མ།ཤ	-13215
ཟླ༡	-13216
འམ།	-13217
ི།།	-13218
ི།ཀ	-13219
ི།ག	-13220
ི།ཆ	-13221
ི།ཕ	-13222
ི།བ	-13223
ི།མ	-13224
ི།ཝ	-13225
ི།འ	-13226
ི།ལ	-13227
ི།ཤ	-13228
ུ།།	-13229
ུ།༽	-13230
ུ།ཁ	-13231
ུ།ཆ	-13232
ུ།ཉ	-13233
ུ།བ	-13234
ུ།ར	-13235
ུ།ལ	-13236
ུ།ས	-13237
▁༢ག	-13238
▁༢ཉ	-13239
▁༢མ	-13240
▁༢ཚ	-13241
▁༽ས	-13242
།།སྐ	-13243
།ནང་	-13244
༠ཡས་	-13245
གྲན་	-13246
གྲས་	-13247
གྲོ་	-13248
ངསྦ་	-13249
མ།ས་	-13250
མས།ག	-13251
སརང་	-13252
ི།ང་	-13253
ུ།ང་	-13254
ེར།ཕ	-13255
ྱེན།	-13256
▁༢ལ།	-13257
▁༤མཐ	-13258
▁ཅུ།	-13259
▁ན།ཀ	-13260
▁ན།ཁ	-13261
▁ན།ཅ	-13262
▁ན།ད	-13263
▁ན།འ	-13264
▁ན།ཡ	-13265
▁ན།ཤ	-13266
▁ན།ས	-13267
▁ཙམ།	-13268
▁རྒོ	-13269
༢ཉིན་	-13270
གྲེས་	-13271
གྲོག་	-13272
ན།སྤྱ	-13273
ར།ཟླ་	-13274
ི།རྒྱ	-13275
ིས།ཕྱ	-13276
ུགས།ས	-13277
ེད།གྲ	-13278
ེས།ང་	-13279
ོ།དང་	-13280
ོགས།ཐ	-13281
▁ཀྱི།	-13282
▁དེ།མ	-13283
▁དེ།འ	-13284
▁དེ།ཡ	-13285
▁དེ།ས	-13286
▁ན།གཞ	-13287
▁ན།ལྟ	-13288
▁ན།སྟ	-13289
▁ན།སྡ	-13290
▁ན།སྤ	-13291
▁ནགགྲ	-13292
▁ནས།༧	-13293
▁ནས།ཀ	-13294
▁ནས།ཁ	-13295
▁ནས།ག	-13296
▁ནས།ང	-13297
▁ནས།ད	-13298
▁ནས།ཕ	-13299
།གས	-13300
།དཔ	-13301
༸དཔ	-13302
༽འད	-13303
ཁྲོ	-13304
གགས	-13305
གདཔ	-13306
གསཞ	-13307
གསྤ	-13308
ཏཱ་	-13309
དགས	-13310
དཔྱ	-13311
ཕཱ་	-13312
བ།ས	-13313
རདག	-13314
ཤཱ་	-13315
སགས	-13316
ེགས	-13317
ེནས	-13318
ོདཔ	-13319
ྷཱ་	-13320
▁༧༧	-13321
▁༧ག	-13322
▁༧ཐ	-13323
▁༧ད	-13324
▁༧ན	-13325
▁༧བ	-13326
▁༧མ	-13327
▁༧ས	-13328
༨༢༠༠	-13329
གས།ར	-13330
གསན་	-13331
ད།གས	-13332
ན།གས	-13333
ན།དཔ	-13334
ལ།གས	-13335
ས།གས	-13336
ས།དཔ	-13337
ས།འད	-13338
ིའང་	-13339
ུ།དཔ	-13340
ུར།ཡ	-13341
ེས།ཁ	-13342
ེསགས	-13343
ོ།གས	-13344
ོ།དཔ	-13345
ོགའད	-13346
ྲིགས	-13347
▁།འད	-13348
▁༧གྲ	-13349
▁གདམ	-13350
▁བའི	-13351
▁འཆམ	-13352
གསོན་	-13353
ིན།གས	-13354
ིན།འད	-13355
ིན།སྐ	-13356
ེད།གས	-13357
ེན།སྐ	-13358
ོ།།བས	-13359
ོད།གས	-13360
ོས།གས	-13361
ྐྲུན་	-13362
▁དེར།	-13363
▁ན།གས	-13364
▁ན།འད	-13365
▁ནས།བ	-13366
▁ནས།མ	-13367
▁ནས།ཡ	-13368
▁ནས།ར	-13369
▁ནས།ལ	-13370
▁ནས།ས	-13371
▁ནི།ག	-13372
▁ནི།ཕ	-13373
▁ནི།བ	-13374
▁ནི།ལ	-13375
▁ནི།ཤ	-13376
▁ནི།ས	-13377
▁པ།༢༽	-13378
▁པ།གས	-13379
▁པ།གྲ	-13380
▁པ།དཔ	-13381
▁པ།ཕྱ	-13382
▁པ།བས	-13383
▁པ།རྟ	-13384
▁པ།རྩ	-13385
▁པ།ལྕ	-13386
▁པ།སྤ	-13387
▁པར།༩	-13388
▁པར།ཐ	-13389
▁པར།ཚ	-13390
▁པར།ཞ	-13391
▁པར།ར	-13392
▁པར།ས	-13393
▁པས།ཀ	-13394
▁པས།ཁ	-13395
▁པས།ག	-13396
▁པས།བ	-13397
▁པས།ཟ	-13398
▁པས།འ	-13399
༽ལྷ	-13400
བ།ག	-13401
བ།ཐ	-13402
བ།ད	-13403
བ།ན	-13404
བ།མ	-13405
བ།ཚ	-13406
བ།ཤ	-13407
ུརྩ	-13408
གཞང་	-13409
ད།རྩ	-13410
ན།ཀྲ	-13411
ན།འད	-13412
བ།གས	-13413
བ།མ་	-13414
བསེ་	-13415
མ།རྩ	-13416
ར།རྩ	-13417
རྙན་	-13418
ས།སྐ	-13419
སྐམ་	-13420
ེ།རྩ	-13421
ེན།ཀ	-13422
ེའང་	-13423
ེར།ཅ	-13424
ོ།།ད	-13425
ོ།རྩ	-13426
ོའང་	-13427
ྲིབ།	-13428
▁།སྤ	-13429
▁ཀའཕ	-13430
▁གཤི	-13431
▁མངྒ	-13432
▁ཟླ༨	-13433
གརིམ་	-13434
ད།ཡང་	-13435
དང༧༢༨	-13436
བ།རྒྱ	-13437
འདུལ་	-13438
རྩོད་	-13439
ིས།བས	-13440
ེད།གཞ	-13441
ོད།རྩ	-13442
ོན།རྒ	-13443
▁།མགྲ	-13444
▁ཏེ།ཁ	-13445
▁ཏེ།ཕ	-13446
▁ཏེ།བ	-13447
▁ཏེ།ཞ	-13448
▁ཏེ།ཡ	-13449
▁ཏེ།ར	-13450
▁ཏེ།ལ	-13451
▁ཏེ།ས	-13452
▁ན།བས	-13453
▁པ།འད	-13454
▁པ།སྐ	-13455
▁པས།ཉ	-13456
▁པས།ཐ	-13457
▁པས།ད	-13458
▁པས།ན	-13459
▁པས།པ	-13460
▁པས།ཚ	-13461
▁པས།ར	-13462
▁པས།ལ	-13463
▁པས།ས	-13464
▁པིན།	-13465
▁པེ།ར	-13466
▁པོ།ག	-13467
▁པོ།ཅ	-13468
▁པོ།ཕ	-13469
▁པོ།ར	-13470
▁ཕོག།	-13471
▁ཕྱུག	-13472
▁ཕྱོག	-13473
▁ཕྲན།	-13474
▁ཕྲུག	-13475
▁བ།ཀྲ	-13476
▁བ།ཀླ	-13477
▁བ།གྲ	-13478
▁བ།དག	-13479
▁བ།དཔ	-13480
▁བ།ཕྱ	-13481
▁བ།རྩ	-13482
▁བ།སྐ	-13483
▁བ།སྔ	-13484
▁བཀླུ	-13485
▁བཙུག	-13486
▁བཞུག	-13487
▁བའི།	-13488
▁བརྗི	-13489
▁བརྗོ	-13490
▁བརྟག	-13491
▁བརྟེ	-13492
▁བརྡ།	-13493
▁བརྡེ	-13494
▁བརྩམ	-13495
▁བརྩི	-13496
▁བརྩོ	-13497
▁བལྟ།	-13498
▁བསཕྱ	-13499
།སྤ	-13500
༠སྐ	-13501
༡༠ག	-13502
༣ལྷ	-13503
༸སྐ	-13504
དཟླ	-13505
སསྐ	-13506
ིཀྲ	-13507
ུསྐ	-13508
ེཁྱ	-13509
ེསན	-13510
▁༸ས	-13511
༠ཟླ་	-13512
༧ལོ་	-13513
ཀྲང་	-13514
ན།ཁྲ	-13515
ན།སྤ	-13516
བྲན་	-13517
མ།སྤ	-13518
འབད་	-13519
ར།ཀྲ	-13520
རརྟ་	-13521
ས།ཀྲ	-13522
ས།ཕྱ	-13523
ས།སྤ	-13524
སདང་	-13525
ི།ཀྲ	-13526
ུམང་	-13527
ུལོ་	-13528
ེ།ཀྲ	-13529
ེ།སྤ	-13530
ེས།།	-13531
ེས།ད	-13532
ེས།ན	-13533
ེས།བ	-13534
ེས།མ	-13535
ེས།འ	-13536
ེས།ས	-13537
ོ།ཀྲ	-13538
▁།མཇ	-13539
▁༢༠བ	-13540
▁༢༠ཙ	-13541
▁༧སྐ	-13542
▁ཁགའ	-13543
▁ལཀྲ	-13544
༣༠ཙམ་	-13545
གྲེམ་	-13546
དཞེས་	-13547
ན།མི་	-13548
བཞེས་	-13549
བས།ལྷ	-13550
ར།རང་	-13551
སྤུན་	-13552
སྤུས་	-13553
ིན།ཀྲ	-13554
ིན།གཙ	-13555
ིན།སྤ	-13556
ུ།མི་	-13557
ུཞེས་	-13558
ུར།ད་	-13559
ེད།ཀྲ	-13560
ེས།འད	-13561
ེས།སྐ	-13562
ོ།མི་	-13563
ོས།སྤ	-13564
▁ན།ཁྱ	-13565
▁ན།འཛ	-13566
▁ནས།ཐ	-13567
▁ནས།ཚ	-13568
▁ནས།ཞ	-13569
▁ནས།འ	-13570
▁ནས།ཨ	-13571
▁ནི།ཁ	-13572
▁ནི།ར	-13573
▁བ།དང	-13574
▁བརྡུ	-13575
▁བསྐུ	-13576
▁བསྒྱ	-13577
▁བསྟེ	-13578
▁བསྡུ	-13579
▁བསྡོ	-13580
▁བསྲེ	-13581
▁བོ།ཚ	-13582
▁བླུག	-13583
▁མགྲི	-13584
▁མཆན།	-13585
▁ཚེས༢	-13586
▁ཚེས༣	-13587
▁ཚེསཉ	-13588
▁ཚེསབ	-13589
▁ཟད།༢	-13590
▁ཟད།ཐ	-13591
▁ཟད།ད	-13592
▁ཟད།ཚ	-13593
▁ཟད།ཟ	-13594
▁ཟད།ས	-13595
▁འཁྱི	-13596
▁འཁྲུ	-13597
▁འགྱི	-13598
▁འགྱུ	-13599
༡ལྷ	-13600
རྔ་	-13601
ིནཔ	-13602
ོའི	-13603
༣རང་	-13604
གའོ།	-13605
ད།ཆ་	-13606
བ།བྱ	-13607
མོ།།	-13608
ས།ལྷ	-13609
ུར།ཆ	-13610
ུར།ཉ	-13611
ུར།ཐ	-13612
ུར།ད	-13613
ུར།ཚ	-13614
ུར།ར	-13615
ུར།ས	-13616
ུརདག	-13617
ུས།༢	-13618
ུས།ད	-13619
ུས།མ	-13620
ུས།ཚ	-13621
ུས།ལ	-13622
ུས།ས	-13623
ོ།།ཁ	-13624
ོ།།ཆ	-13625
ོ།།ས	-13626
ོན།ཞ	-13627
▁།ལྷ	-13628
▁ངོ༩	-13629
▁ཏེས	-13630
▁ཡོཀ	-13631
།ཟུག་	-13632
།སེང་	-13633
༣རྒྱ་	-13634
༤རྒྱ་	-13635
༥༩ལོ་	-13636
༧ཉིན་	-13637
༩ཉིན་	-13638
གཁོང་	-13639
གརྒྱ་	-13640
གས།འཆ	-13641
བ།རང་	-13642
ལྷུན་	-13643
སཉིན་	-13644
སྐྱར་	-13645
ུ།རང་	-13646
ུར།གས	-13647
ུས།སྤ	-13648
ེན།མད	-13649
ེན།སྤ	-13650
ེར།མ་	-13651
ོ།།གས	-13652
▁།སྐྱ	-13653
▁ཐུས།	-13654
▁འགྲུ	-13655
▁འགྲེ	-13656
▁འདི།	-13657
▁འདུ།	-13658
▁འདྲག	-13659
▁འདྲི	-13660
▁འདྲེ	-13661
▁འཕྲི	-13662
▁འཕྲོ	-13663
▁འབྱོ	-13664
▁འབྲི	-13665
▁འབྲུ	-13666
▁འབྲེ	-13667
▁འཚོག	-13668
▁འཛུག	-13669
▁ཡ།ལྷ	-13670
▁ཡང་།	-13671
▁ཡོདཔ	-13672
▁རིགའ	-13673
▁རིའི	-13674
▁རྐྱེ	-13675
▁རྒྱང	-13676
▁རྒྱན	-13677
▁རྒྱམ	-13678
▁རྒྱར	-13679
▁རྒྱལ	-13680
▁རྒྱས	-13681
▁རྒྱོ	-13682
▁རྟོག	-13683
▁རྫས།	-13684
▁རྫོག	-13685
▁ལ།ཀྲ	-13686
▁ལ།ཁྱ	-13687
▁ལ།གྲ	-13688
▁ལ།དག	-13689
▁ལ།དཔ	-13690
▁ལ།ཕྱ	-13691
▁ལ།བར	-13692
▁ལ།འད	-13693
▁ལ།རྫ	-13694
▁ལ།ལྷ	-13695
▁ལ།སྐ	-13696
▁ལ།སྤ	-13697
▁ལརྒྱ	-13698
▁ལས།མ	-13699
ངསབ	-13700
ནལྷ	-13701
ིསག	-13702
༠ཅན་	-13703
༨ཟླ་	-13704
གས།ཀ	-13705
གས།ཁ	-13706
གས།ག	-13707
གས།ང	-13708
གས།ད	-13709
གས།བ	-13710
གས།ཟ	-13711
གས།ཨ	-13712
ངས།ཆ	-13713
ངས།ཉ	-13714
ངས།ཐ	-13715
ངས།བ	-13716
ངས།མ	-13717
ངས།ར	-13718
མསདང	-13719
མོར།	-13720
ིས།ཐ	-13721
ུ།སྔ	-13722
ེ།ལྷ	-13723
ེངས།	-13724
ེན།ན	-13725
ེན།བ	-13726
ེན།འ	-13727
ོན།ཀ	-13728
ོན།ཕ	-13729
ོན།མ	-13730
ོན།འ	-13731
ོན།ར	-13732
ོར།།	-13733
ོར།ཆ	-13734
ོར།ད	-13735
ོར།བ	-13736
ོར།ར	-13737
ོར།ལ	-13738
ྲགས།	-13739
▁།དཀ	-13740
▁།དང	-13741
▁།དྷ	-13742
▁པའོ	-13743
▁ཟླ༥	-13744
གས།ང་	-13745
གས།ད་	-13746
ངས།ལྷ	-13747
མ།ཟླ་	-13748
མ།སྒྲ	-13749
ལ།ཟླ་	-13750
ལྷའི་	-13751
ས།ཟླ་	-13752
ི།ཟླ་	-13753
ིས།ང་	-13754
ོ།ཟླ་	-13755
ོགའབྲ	-13756
ོན།འད	-13757
ོན།རྩ	-13758
ྐྱངས།	-13759
▁གཉེར	-13760
▁གྱ།ག	-13761
▁ངོར།	-13762
▁དངཕྱ	-13763
▁ནོན།	-13764
▁པ།ལྷ	-13765
▁མ།རྟ	-13766
▁ལོར།	-13767
▁སུ།ཞ	-13768
▁སུ།ས	-13769
▁སྐྱབ	-13770
▁སྐྱི	-13771
▁སྐྱེ	-13772
▁སྐྱོ	-13773
▁སྒྲ།	-13774
▁སྒྲག	-13775
▁སྒྲབ	-13776
▁སྒྲའ	-13777
▁སྒྲེ	-13778
▁སྒྲོ	-13779
▁སྟན།	-13780
▁སྟེར	-13781
▁སྤྱི	-13782
▁སྤྲི	-13783
▁སྤྲུ	-13784
▁སྤྲོ	-13785
▁སྦྱང	-13786
▁སྦྱོ	-13787
▁སྦྱྱ	-13788
།།དྲི་	-13789
།གཡུང་	-13790
།གསེར་	-13791
།ཚོགས་	-13792
།རྒྱལ་	-13793
།སྐྱོ་	-13794
།སྤྱི་	-13795
།སྲིད་	-13796
།སློབ་	-13797
༠༨ཚེས་	-13798
༠༩བོད་	-13799
།ཕྱ	-13800
།བྱ	-13801
༦ཕྱ	-13802
གགཞ	-13803
ང།ལ	-13804
བསྡ	-13805
བསྲ	-13806
རཕྱ	-13807
ོབས	-13808
༥ཡི་	-13809
ན།ཁྱ	-13810
ན།གཞ	-13811
ན།བྱ	-13812
བ།གཞ	-13813
བཞི་	-13814
བྱར་	-13815
ར།ཁྱ	-13816
ས།བས	-13817
ི།ཁྱ	-13818
ིས།བ	-13819
ིས།མ	-13820
ིས།འ	-13821
ིས།ཡ	-13822
ུ།ཕྱ	-13823
ུ།བྱ	-13824
ུལ།ར	-13825
ེན།༸	-13826
ེན།ཁ	-13827
ེན།ཆ	-13828
ེན།ཐ	-13829
ེན།ད	-13830
ེན།པ	-13831
ེན།ཤ	-13832
▁།གཞ	-13833
▁།བས	-13834
▁།བྱ	-13835
▁།སྙ	-13836
▁ནགཧ	-13837
▁ཟླབ	-13838
བྱེས་	-13839
བྱོར་	-13840
མས།སྔ	-13841
འཕུར་	-13842
ིས།འད	-13843
ིས།ལྷ	-13844
ིས།ས་	-13845
ེན།ཀྲ	-13846
ེན།ཕྱ	-13847
ོད།བྱ	-13848
ོར།ཁྱ	-13849
ོར།ཕྱ	-13850
▁།དབྱ	-13851
▁།སྒྱ	-13852
▁༢༥གས	-13853
▁ནི།ཆ	-13854
▁ནི།ཏ	-13855
▁ནི།ད	-13856
▁ནི།མ	-13857
▁ནི།ཞ	-13858
▁ནི།འ	-13859
▁པ།ཁྱ	-13860
▁པ།གཞ	-13861
▁བ།བས	-13862
▁ལ།གཞ	-13863
༠འཁོར་	-13864
༠སྐོར་	-13865
༡༠འདི་	-13866
༡༢ཚེས༤	-13867
༡༢ཚེས༥	-13868
༢རྒྱལ་	-13869
༣༠ཐོག་	-13870
༤༧༠༧༥།	-13871
༤རྒྱལ་	-13872
༦ལོའི་	-13873
༨སྤྱི་	-13874
གཀྲུང་	-13875
གགཞུང་	-13876
གདམངས་	-13877
གཚོགས་	-13878
གརྒྱལ་	-13879
གརྩོམ་	-13880
གས།དེ་	-13881
གས།ཟླ་	-13882
གས།རང་	-13883
གསཞེས་	-13884
ང།༨༥༠༠	-13885
ང།ཡུལ་	-13886
ངས།ཐད་	-13887
ངས།དེ་	-13888
ངས།ཟླ་	-13889
ཉིན།གཞ	-13890
ད།ཁོང་	-13891
ད།ཅེས་	-13892
ད།བཤད་	-13893
ད།བོད་	-13894
ད།རྒྱ་	-13895
ན།བོད་	-13896
ན།བྱང་	-13897
ན།ཞིང་	-13898
ན།ཞེས་	-13899
།ཁ་	-13900
།དག	-13901
།བཙ	-13902
།ལྟ	-13903
བལྟ	-13904
ཝེས	-13905
ལདག	-13906
ལྟ།	-13907
སལྟ	-13908
ིག།	-13909
ིགཉ	-13910
ིགཊ	-13911
ིགཡ	-13912
ིགལ	-13913
ེས༣	-13914
ེས༤	-13915
▁༣༧	-13916
▁༣བ	-13917
▁༣ཚ	-13918
།ལོ་	-13919
༤པར་	-13920
༦ལོ་	-13921
༩ལོ་	-13922
ས།དག	-13923
ིས།ཁ	-13924
ེ།དག	-13925
ོགདག	-13926
ྷེག་	-13927
▁༡༢༠	-13928
▁༸སྐ	-13929
▁དུཟ	-13930
▁ཟིག	-13931
༡ཚེས་	-13932
༢༣༤༧༠	-13933
༤ཚེས་	-13934
༥ཚེས་	-13935
༨ཚེས་	-13936
༩ཚེས་	-13937
གས།དག	-13938
གས།དམ	-13939
ད།ཆུ་	-13940
དཀོན་	-13941
སལོར་	-13942
ིགམི་	-13943
ིགརྒྱ	-13944
ེད།ལྟ	-13945
ོགབསྟ	-13946
ོགས།མ	-13947
ོད།དག	-13948
ོན།དག	-13949
ོར།དག	-13950
▁༡༩༩༢	-13951
▁༢༠༡༡	-13952
▁༢༠༡༩	-13953
▁༸སྐྱ	-13954
▁དུ།ཁ	-13955
▁ན།དག	-13956
▁པ།དག	-13957
▁པའིག	-13958
▁བསླེ	-13959
▁ཟླ༨།	-13960
༣ལོའི་	-13961
༣སྤྱི་	-13962
ན།རྒྱ་	-13963
ན།རྗེ་	-13964
ན།ལྷག་	-13965
ན།ཤོག་	-13966
ན༽ཞེས་	-13967
ནལོའི་	-13968
བ།ཁོང་	-13969
བ།གཞན་	-13970
བ།གསར་	-13971
བ།གོང་	-13972
བ།བོད་	-13973
བ།ཧོར་	-13974
བས།རང་	-13975
བསདུས་	-13976
བསཔའི་	-13977
མ།ཁོང་	-13978
མ།གོང་	-13979
མ།ཉིན་	-13980
མ།བཀའ་	-13981
མ།བོད་	-13982
མ།འཛམ་	-13983
མགླེང་	-13984
འོ།དེ་	-13985
ར།ཁོང་	-13986
ར།གྱི་	-13987
ར།དཀར་	-13988
ར།བཙན་	-13989
ར།ཞེས་	-13990
ར།འདི་	-13991
ར།རྒྱ་	-13992
རྟིའི་	-13993
ལ།ཁོང་	-13994
ལ།གསོ་	-13995
ལ།བོད་	-13996
ལ།ཚེས་	-13997
ལ།ཡོང་	-13998
ལ།རྒྱ་	-13999
།ཨ་	-14000
༠༡༡	-14001
༠༡༤	-14002
༡།༧	-14003
མཨ་	-14004
ུཁ་	-14005
ྦྷ་	-14006
▁༤ར	-14007
།ནས་	-14008
༧ནས་	-14009
བས།ན	-14010
བས།བ	-14011
བས།མ	-14012
བས།ཚ	-14013
བས།ཞ	-14014
བས།ར	-14015
བས།ས	-14016
ཟེར།	-14017
ར།ཁ་	-14018
ལ།ཨ་	-14019
ུགཨ་	-14020
ེར།།	-14021
ེར།ཁ	-14022
ེར།ཞ	-14023
ེར།ར	-14024
ེར།ས	-14025
ོ།ཁ་	-14026
ོ།ཨ་	-14027
▁།གཉ	-14028
▁།གད	-14029
▁།གན	-14030
▁།གཟ	-14031
▁།བླ	-14032
▁།མག	-14033
▁།མཐ	-14034
▁།མཚ	-14035
▁།མྱ	-14036
▁།རྗ	-14037
▁།རྣ	-14038
▁།རླ	-14039
▁༡༧ག	-14040
།ཆོས་	-14041
༠ལོར་	-14042
༣ལོར་	-14043
༧ལོར་	-14044
༩ལོར་	-14045
གས།ཨ་	-14046
བས།བས	-14047
བས།ས་	-14048
ལ།རི་	-14049
ེར།ཁྱ	-14050
ེར།ཨ་	-14051
ོགས།།	-14052
ོགས།ད	-14053
ོགས།འ	-14054
ོགས།ས	-14055
ོལོར་	-14056
▁།བགྲ	-14057
▁།བརྩ	-14058
▁ཟད།ཁ	-14059
▁ཟད།ག	-14060
▁ཟད།ཆ	-14061
▁ཟད།ན	-14062
▁ཟད།ཕ	-14063
▁ཟད།བ	-14064
▁ཟད།མ	-14065
▁ལོསྐ	-14066
ཏེ།ཡར་	-14067
ད།ཆོས་	-14068
ས།ཁོང་	-14069
ས།ཉིན་	-14070
ས།དེས་	-14071
ས།ཕྱི་	-14072
ས།བོད་	-14073
ས།ཞེས་	-14074
ས།རྒྱ་	-14075
སསྐབས་	-14076
ི།ཁམས་	-14077
ི།བཀའ་	-14078
ི།བོད་	-14079
ི།འདི་	-14080
ི།རྒྱ་	-14081
ིཀྲུང་	-14082
ིགབོད་	-14083
ིགཡུལ་	-14084
ིགརྒྱ་	-14085
ིགས།ཁྱ	-14086
ིདཞིབ་	-14087
ིན།ངས་	-14088
ིན།ཆུ་	-14089
ིན།དེ་	-14090
ིན།རྒྱ	-14091
ིན།ལོ་	-14092
ིརྒྱལ་	-14093
ིརྩོམ་	-14094
ིས།ངས་	-14095
ིས།དེ་	-14096
ིས།ཡང་	-14097
ིས།རང་	-14098
ིསགུང་	-14099
།།ཁ	-14100
།།ད	-14101
།།པ	-14102
།།ཕ	-14103
།།བ	-14104
།།ཛ	-14105
།།ཤ	-14106
།།ས	-14107
།རྟ	-14108
༠༠༥	-14109
༠༠༦	-14110
༠༠༩	-14111
༠༠ད	-14112
༠༠བ	-14113
༩༠༠	-14114
ང།།	-14115
ུའུ	-14116
ོརྟ	-14117
▁ཊོ	-14118
།།རྩ	-14119
༠༠ལྷ	-14120
༠ལས་	-14121
༡དང་	-14122
༽ལས་	-14123
ངལས་	-14124
མའོ་	-14125
ཞའོ་	-14126
རྟི་	-14127
ལདང་	-14128
ལའོ་	-14129
ས།མཐ	-14130
ིརི་	-14131
ུའོ་	-14132
ུལ།།	-14133
ུལ།༽	-14134
ུལ།ག	-14135
ེདང་	-14136
▁༡༩༣	-14137
▁༡༩༥	-14138
▁༡༩ཡ	-14139
▁༣༠༠	-14140
▁༧༠༠	-14141
༠པའི་	-14142
༠ཕྱི་	-14143
༡པའི་	-14144
༤པའི་	-14145
༦པའི་	-14146
༧པའི་	-14147
༧ཕྱི་	-14148
༩པའི་	-14149
གཐོག་	-14150
ངམདོ་	-14151
མ།དང་	-14152
མ།ཡང་	-14153
ས།ཡང་	-14154
ི།ལས་	-14155
ུགདང་	-14156
ུལ།དཔ	-14157
ེ།དང་	-14158
ོད།གླ	-14159
▁༡༩༦༡	-14160
▁དཀརཔ	-14161
▁དང།ཁ	-14162
▁དེ།ཀ	-14163
▁དེ།ཁ	-14164
▁དེ།ག	-14165
▁དེ།ང	-14166
▁དེ།ད	-14167
▁དེ།ཞ	-14168
▁པ།སྟ	-14169
▁པོ།ད	-14170
▁པོ།མ	-14171
▁པོ།ལ	-14172
▁བྱ།།	-14173
▁ལ།དབ	-14174
▁སུ།ལ	-14175
༠༠ལོར་	-14176
གས།ལས་	-14177
ན།ངའི་	-14178
འ།དབང་	-14179
ིསཞབས་	-14180
ིསལོར་	-14181
ིིརྟི་	-14182
ུ།ཁོང་	-14183
ུ།གནའ་	-14184
ུ།ཆོས་	-14185
ུ།བོད་	-14186
ུ།ཞེས་	-14187
ུ།ཡིག་	-14188
ུ།ཡིན་	-14189
ུ།རྒྱ་	-14190
ུག།དེ་	-14191
ུགརྣམ་	-14192
ུགས།སྟ	-14193
ུགས།སྡ	-14194
ུངཟེར་	-14195
ུད།དེ་	-14196
ུད།རྒྱ	-14197
ུབ།རང་	-14198
ུབ།རྨ་	-14199
།ཅ་	-14200
།འབ	-14201
༥དབ	-14202
༽དབ	-14203
ནརྟ	-14204
།ལྷ་	-14205
༨༩༣༨	-14206
གལྷ་	-14207
ན།དབ	-14208
ན།འབ	-14209
བ།འབ	-14210
མ།དབ	-14211
ར།འབ	-14212
ུ།འབ	-14213
ུགདམ	-14214
ུད།ཆ	-14215
ེ།འབ	-14216
ོགའབ	-14217
▁།འབ	-14218
▁༡དབ	-14219
༠༡།༡༠	-14220
༨ཡིན་	-14221
གཤེན་	-14222
དཡིན་	-14223
བ།ལྷ་	-14224
བཅེས་	-14225
མ།ལྷ་	-14226
སགསར་	-14227
ེ།ལྷ་	-14228
ེན།འབ	-14229
ོ།།དབ	-14230
ོ།ལྷ་	-14231
ོན།དབ	-14232
ོར།དབ	-14233
ོས།དབ	-14234
▁ཆོགག	-14235
▁ཆོགཅ	-14236
▁ཆོགཆ	-14237
▁ཆོགད	-14238
▁ཆོགར	-14239
▁ཆོགས	-14240
▁དུ།ག	-14241
▁དུ།ཉ	-14242
▁དུ།ད	-14243
▁དུ།ཕ	-14244
▁དུ།མ	-14245
▁དུ།འ	-14246
▁དུ།ཡ	-14247
▁དུ།ས	-14248
▁པ།དབ	-14249
▁པ།འབ	-14250
▁བ།འབ	-14251
▁ལ།རྟ	-14252
▁ལ།སྦ	-14253
༢ལོའི་	-14254
༤ལོའི་	-14255
༧ལོའི་	-14256
དབུགས་	-14257
ན།གསར་	-14258
མགྲིན་	-14259
ར།གསར་	-14260
སལོའི་	-14261
ིགགསར་	-14262
ིལོའི་	-14263
ིས།ལྷ་	-14264
ུར།ཆུ་	-14265
ུར།རྒྱ	-14266
ུརྒྱལ་	-14267
ུརྩོམ་	-14268
ུལ།མི་	-14269
ུས།དེ་	-14270
ུས།མི་	-14271
ུས།རྒྱ	-14272
ུས།ལས་	-14273
ུས།སྐྱ	-14274
ུསའཛམ་	-14275
ུསེམས་	-14276
ེ།ཁོང་	-14277
ེ།གོང་	-14278
ེ།ཆོས་	-14279
ེ།བོད་	-14280
ེ།ཞེས་	-14281
ེཁྱོད་	-14282
ེད།གལ་	-14283
ེད།ངས་	-14284
ེད།མི་	-14285
ེད།མུ་	-14286
ེད།ཟླ་	-14287
ེད།རུ་	-14288
ེད།རྒྱ	-14289
ེད།ལོ་	-14290
ེདཞེས་	-14291
ེན།དེ་	-14292
ེན།མགྱ	-14293
ེན།འབྲ	-14294
ེན།ལས་	-14295
ེར།ངས་	-14296
ེར།རང་	-14297
ེལ།དོ་	-14298
ེས།དེ་	-14299
།གཅ	-14300
།སི	-14301
།སྒ	-14302
།སྔ	-14303
།སྨ	-14304
།སླ	-14305
༠༨༢	-14306
༠པ་	-14307
༥གླ	-14308
མགླ	-14309
ལའཛ	-14310
སཔ་	-14311
ུའཛ	-14312
ོཔ་	-14313
ྐ།ས	-14314
ླ།ས	-14315
།སི་	-14316
༠ནང་	-14317
གནང་	-14318
ན།གླ	-14319
བ།འཇ	-14320
མ།འཛ	-14321
ར།༠༨	-14322
ར།གླ	-14323
ལ།༠༨	-14324
ས།གླ	-14325
ེདགས	-14326
ྲུན།	-14327
▁།འཛ	-14328
▁༡༠༨	-14329
▁ནསཉ	-14330
▁ཡགླ	-14331
▁ཨུཏ	-14332
།སེར་	-14333
༠༨ནང་	-14334
༣བཏང་	-14335
གཅེས་	-14336
ཝིཏི་	-14337
ས།ནི་	-14338
ིན།འཛ	-14339
ུ།རུ་	-14340
ུགས།།	-14341
ུགས།ཀ	-14342
ུགས།ཁ	-14343
ུར།སྟ	-14344
ེར།།ས	-14345
ོད།འཛ	-14346
▁༢༠༠༢	-14347
▁གར།ཨ	-14348
▁དང།ས	-14349
▁ན།གླ	-14350
▁ནམ།ཡ	-14351
▁པ།འཛ	-14352
▁ཚེས༡	-14353
▁ལ།ཁྲ	-14354
▁ལ།གླ	-14355
▁ལ།འཛ	-14356
།སྔགས་	-14357
༠༨བོད་	-14358
༠༨ལོར་	-14359
ངསློབ་	-14360
བས།ནང་	-14361
ུགས།ཕྱ	-14362
ུགས།མ་	-14363
ུགས།ས་	-14364
ུབ།བླ་	-14365
ུབཅེས་	-14366
ེས།ནང་	-14367
ེས།མི་	-14368
ེས།འོ་	-14369
ེས།རང་	-14370
ེས།རྒྱ	-14371
ེསཉིན་	-14372
ོ།།ཁོ་	-14373
ོ།།དེ་	-14374
ོ།ཀུན་	-14375
ོ།ཞེས་	-14376
ོ།རིག་	-14377
ོགདེང་	-14378
ོགབོད་	-14379
ོགའདི་	-14380
ོགས།ཀྲ	-14381
ོགས།ཁྱ	-14382
ོགས།གཞ	-14383
ོགས།གས	-14384
ོགས།དག	-14385
ོགས།ཕྱ	-14386
ོགས།རྟ	-14387
ོགས།སྐ	-14388
ོགས༢༠༡	-14389
ོངས།རྒ	-14390
ོད།ཁོ་	-14391
ོད།ངས་	-14392
ོད།དེ་	-14393
ོད།ནག་	-14394
ོད།མི་	-14395
ོད།རྒྱ	-14396
ོད།སྐྱ	-14397
ོན།དེ་	-14398
ོན།མི་	-14399
།དམ	-14400
།མད	-14401
༧དང	-14402
༨༡༡	-14403
ངམད	-14404
དང༧	-14405
དངན	-14406
དསྟ	-14407
ལདང	-14408
སདང	-14409
ིདམ	-14410
ུམད	-14411
ན།དམ	-14412
ཕྲི་	-14413
ས།དང	-14414
ས།དམ	-14415
སྟེ།	-14416
ིགདམ	-14417
ེདཔ་	-14418
ོ།དང	-14419
ོམ།པ	-14420
ོམ།ཤ	-14421
ོམ།ས	-14422
▁དུའ	-14423
▁ནམད	-14424
▁ཡ།ཁ	-14425
།ཡུལ་	-14426
༠ལྷག་	-14427
༽ལྷག་	-14428
གགཞན་	-14429
གདུས་	-14430
ིན།སྟ	-14431
ུལ།སྟ	-14432
ུས།དམ	-14433
▁ན།བཟ	-14434
▁ན།མད	-14435
▁པ།དཀ	-14436
▁པ།དང	-14437
▁པ།མད	-14438
▁པར།ད	-14439
▁པར།ཟ	-14440
▁པར།འ	-14441
▁ལ།དང	-14442
▁ལ།མད	-14443
▁ལ།སྟ	-14444
▁ལས།ག	-14445
▁ལས།ཆ	-14446
▁ལས།ཐ	-14447
▁ལས།ད	-14448
▁ལྟདམ	-14449
▁སྦྲེ	-14450
།།བཀའ་	-14451
༠༠ལྷག་	-14452
ད།ཡུལ་	-14453
མསཀྱི་	-14454
ུ།དུས་	-14455
ོགས།དམ	-14456
ོན།ཚན་	-14457
ོན།ཟླ་	-14458
ོབ།དེ་	-14459
ོར།།བས	-14460
ོར།དེ་	-14461
ོར།ཚན་	-14462
ོར།རྒྱ	-14463
ོར།ལོ་	-14464
ོརྒྱལ་	-14465
ོལོའི་	-14466
ོས།དེ་	-14467
ོས།ཕབ་	-14468
ོས།ཡང་	-14469
ོས།རྒྱ	-14470
ྐྱུགས་	-14471
ྐྱེམས་	-14472
ྒྱུགས་	-14473
ྒྱུར།ས	-14474
ྭརྒྱལ་	-14475
ྲིས།ད་	-14476
ྲིས།བས	-14477
▁།བརྒྱ	-14478
▁༡༧༦ཕྱ	-14479
▁ཀྱང༢༠	-14480
▁ཀྱིགཞ	-14481
▁ཁུལའཛ	-14482
▁ཁྱེར།	-14483
▁ཁྱོད།	-14484
▁ཁྲི༢༨	-14485
▁ཁྲིདཔ	-14486
▁གནས།ག	-14487
▁གར།རྩ	-14488
▁གིས།།	-14489
▁གིས།འ	-14490
▁གིས།ས	-14491
▁གྲགས།	-14492
▁གྲས།ས	-14493
▁གྲྭགྲ	-14494
▁ངོས།ཝ	-14495
▁ཆེ།ཁྲ	-14496
▁ཆེ།མཁ	-14497
▁ཆེ།འབ	-14498
▁ཆེ།སྟ	-14499
།རྐ	-14500
།རྗ	-14501
།རྣ	-14502
༠༡༢	-14503
༠༡༧	-14504
༠༡ག	-14505
༡༠ཕ	-14506
༧༠༡	-14507
མ༡༠	-14508
ྔ།ར	-14509
▁༠༡	-14510
▁༤༽	-14511
▁༤མ	-14512
▁༦༥	-14513
▁༦ཉ	-14514
▁༦ར	-14515
།པར་	-14516
།རག་	-14517
།རྔ་	-14518
༨པར་	-14519
དྲྭ་	-14520
མས།ང	-14521
མས།ཐ	-14522
མས།ཞ	-14523
མས།ས	-14524
ུན༧༥	-14525
ུབ།ཁ	-14526
ུབ།ཅ	-14527
ུབ།བ	-14528
ུབ།ཚ	-14529
ུབ།འ	-14530
ུབ།ར	-14531
ེམས།	-14532
ོམ།ད	-14533
▁༦༠༠	-14534
▁དུཚ	-14535
▁དུར	-14536
▁དུཤ	-14537
▁པུས	-14538
▁བགྱ	-14539
▁ལོ༥	-14540
།རིས་	-14541
༣༡༠༨༩	-14542
ན།པར་	-14543
མས།དཔ	-14544
མས།འབ	-14545
མས།ས་	-14546
ོམ།སྟ	-14547
▁༢༠༠༡	-14548
▁བར།ར	-14549
▁ཡིགད	-14550
▁ཡིགར	-14551
▁ལམ།ད	-14552
ད།བཀའ་	-14553
ན།བཀའ་	-14554
ིརགནམ་	-14555
ེད།པར་	-14556
ོམ།པར་	-14557
ོམ།རྒྱ	-14558
▁གིས།ཐ	-14559
▁གིས།ད	-14560
▁གིས།མ	-14561
▁ཆེད།ན	-14562
▁ཆེད།ས	-14563
▁ཆེན།པ	-14564
▁ཆོགདམ	-14565
▁ཆོགསྙ	-14566
▁ཉིན།༸	-14567
▁ཏེ།ཁྱ	-14568
▁ཏེ།གཞ	-14569
▁ཏེ།གས	-14570
▁ཏེ།གྲ	-14571
▁ཏེ།གླ	-14572
▁ཏེ།དག	-14573
▁ཏེ།དང	-14574
▁ཏེ།དཔ	-14575
▁ཏེ།ཕྲ	-14576
▁ཏེ།བཙ	-14577
▁ཏེ།མད	-14578
▁ཏེ།འད	-14579
▁ཏེ།འཕ	-14580
▁ཏེ།རྗ	-14581
▁ཏེ།རྩ	-14582
▁ཏེ།ལྷ	-14583
▁ཏེ།སྒ	-14584
▁ཏེ།སྤ	-14585
▁ཐུབ།ཚ	-14586
▁ཐུབ།འ	-14587
▁དགའ།ལ	-14588
▁དང་།ཁ	-14589
▁དང་།ཐ	-14590
▁དང་།ད	-14591
▁དང་།བ	-14592
▁དང་།མ	-14593
▁དང་།ཚ	-14594
▁དང་།ཟ	-14595
▁དང་།འ	-14596
▁དང་།ཡ	-14597
▁དང་།ར	-14598
▁དང་།ལ	-14599
།གཙ	-14600
།གཡ	-14601
༩བར	-14602
བརླ	-14603
ིས༽	-14604
ིསབ	-14605
ིསཞ	-14606
▁༥༡	-14607
▁༥ཉ	-14608
༠བར་	-14609
༡བར་	-14610
༣བར་	-14611
༧བར་	-14612
༧ཚེས	-14613
༨བར་	-14614
ད།།ག	-14615
ད།བར	-14616
བཚན་	-14617
མ།།ག	-14618
ར།བར	-14619
ལ།གྱ	-14620
ས།བར	-14621
ིསན་	-14622
ིསཔ་	-14623
ིསམ་	-14624
ུད།༽	-14625
ུད།བ	-14626
ུད།མ	-14627
ུད།འ	-14628
ོ།བར	-14629
▁།།མ	-14630
▁༥གཞ	-14631
▁ཀིས	-14632
▁ཏིས	-14633
▁མ།ཉ	-14634
༠༠བར་	-14635
༢ཤེས་	-14636
༣མཚོ་	-14637
གཤེས་	-14638
གྱུར་	-14639
དཤེས་	-14640
བ།འབྲ	-14641
བཤེས་	-14642
བས།བླ	-14643
ིསདེ་	-14644
ུ།འབྲ	-14645
ུབ།བར	-14646
ེས།།ག	-14647
ེས།འཆ	-14648
▁།འབྲ	-14649
▁གསུང	-14650
▁ཆེ།ཁ	-14651
▁ཆེ།ད	-14652
▁ཆེ།བ	-14653
▁ཆེ།ཚ	-14654
▁དང།ག	-14655
▁བཞགམ	-14656
▁བསྲུ	-14657
▁རི།ག	-14658
▁ལ།།ག	-14659
༤༣ལོར་	-14660
གྱོགས་	-14661
ད།དཔལ་	-14662
ན།ཤེས་	-14663
ལ།དཔལ་	-14664
ལ།ཤེས་	-14665
ཤྲིའི་	-14666
ིན།འགྲ	-14667
ིསགསར་	-14668
ུ།དཔལ་	-14669
ུད།ཟླ་	-14670
ེན།འགྲ	-14671
ེས།འགྲ	-14672
ོགཁམས་	-14673
▁ཆེ།རྩ	-14674
▁དང་།ས	-14675
▁དང་།ཨ	-14676
▁དང་གཤ	-14677
▁དང།ལྟ	-14678
▁དུ།གན	-14679
▁དུ།དག	-14680
▁དུ།བད	-14681
▁དུ།བས	-14682
▁དུ།མད	-14683
▁དུ།རྟ	-14684
▁དུ།སྐ	-14685
▁དུས།ག	-14686
▁དུས།བ	-14687
▁དུས།ཚ	-14688
▁དེ།དག	-14689
▁དེ།དཔ	-14690
▁དེ།སྤ	-14691
▁དེབ།༡	-14692
▁དེབ།ད	-14693
▁དེབ།བ	-14694
▁དེབ།མ	-14695
▁དེབ།ར	-14696
▁དེབ།ཤ	-14697
▁དེབ།ས	-14698
▁དོ།།བ	-14699
།གད	-14700
།བཅ	-14701
༡༩༧	-14702
༽བཅ	-14703
ངབཅ	-14704
རབཅ	-14705
ེདཀ	-14706
ོདཀ	-14707
ོབཅ	-14708
▁ཛ།	-14709
༡༠༨༩	-14710
བ།སྒ	-14711
བཅའ་	-14712
མ།དཀ	-14713
མ།བཙ	-14714
མཁོ་	-14715
ཚེས༣	-14716
འང།་	-14717
ིགསྣ	-14718
ུན།ཐ	-14719
ྔའམ་	-14720
▁མ།བ	-14721
།དེང་	-14722
།མགོ་	-14723
།མདོ་	-14724
༠༨༩བར	-14725
༣ཉིན།	-14726
༤ཉིན།	-14727
༦ཉིན།	-14728
ཉིན།༧	-14729
ཉིན།ཁ	-14730
ཉིན།ག	-14731
བཅོལ་	-14732
བཅོས་	-14733
ལ།༠༨༩	-14734
སྲིབ་	-14735
ིཞིང་	-14736
ིས།བཙ	-14737
ུ།སྤྱ	-14738
ེ།དྲ་	-14739
ེན།དཀ	-14740
ོ།།ཆ་	-14741
ོགསྤྱ	-14742
ོད།བཅ	-14743
▁ན།དཀ	-14744
▁ན།བཙ	-14745
▁བ།དཀ	-14746
▁མ།གླ	-14747
▁ཞུ།ར	-14748
▁རིགག	-14749
▁རིགཏ	-14750
གས།དྲ་	-14751
[...]
